#version: 0.2 - Trained by `huggingface/tokenizers`
Ġ t
Ġ Ġ
i n
Ġ a
e r
h e
o n
Ġ s
r e
a n
Ġt he
Ġ o
i t
e s
e n
o r
e d
Ġ c
a r
Ġ p
a t
Ġ b
ĠĠ Ġ
a l
Ġ w
Ġ f
Ġo f
Ġ m
Ġ in
i d
Ġt o
Ġ d
r o
i s
in g
Ġa n
i on
i l
a s
i c
Ġ 1
c t
a id
u t
o m
Ġan d
Ġs aid
en t
o u
e t
Ġ l
s t
Ġ re
0 0
Ġ n
Ġ e
Ġ h
Ġ T
Ġ C
Ġt h
Ġ R
Ġ it
il l
e l
a d
Ġ S
t er
Ġ A
u r
l d
m ent
l n
Ġf or
at ion
Ġm ln
Ġ I
u n
Ġb e
l r
a y
t h
v e
Ġ on
c h
Ġc om
Ġ v
l e
er s
Ġ M
c e
Ġd lr
ĠR e
Ġs t
Ġp ro
Ġ g
o s
l y
ĠT he
Ġ 2
t s
Ġ B
re s
i g
' s
Ġ is
o t
ĠĠ ĠĠ
Ġdlr s
v er
es t
i r
o w
Ġs h
Ġd e
e ar
p an
i m
Ġe x
Ġ1 9
r a
o l
at e
Ġp ct
Ġ P
Ġ y
u s
ut er
it h
Ġ N
ro m
Ġ 3
Ġv s
d u
Ġ F
Ġc on
Ġ U
q u
ĠI n
Ġa t
i es
ĠRe uter
an k
Ġit s
u l
Ġw ill
Ġth at
00 0
g e
Ġf rom
Ġb y
ou ld
Ġw ith
p or
u p
i al
e ct
Ġ r
Ġ19 8
e c
o c
an d
Ġa s
a in
en d
Ġ E
Ġ J
Ġ D
Ġw h
Ġ L
Ġ "
o re
a re
Ġy ear
Ġa l
i v
Ġw as
e w
Ġ H
er e
Ġ G
Ġ un
e m
ar k
ar y
Ġ he
r ic
ou n
ill ion
a b
i ve
Ġcom pan
a k
a c
f ic
as t
Ġ 4
Ġ 5
Ġn ot
Ġt r
e e
Ġh as
Ġa g
u m
p er
u d
Ġc ts
p l
Ġb illion
a m
t r
ig h
Ġcompan y
ic h
es s
it y
o ut
Ġ W
ou r
f er
u b
Ġw ould
o d
ark et
Ġ O
c l
ar t
a g
m an
Ġa re
por t
re e
oc k
o ver
t he
o ld
os s
p p
u e
Ġ 6
e x
Ġo r
al l
l t
c on
a ve
Ġa d
s e
an c
b er
re d
i f
ar d
Ġb ank
or p
, "
st r
th er
Ġwh ich
el l
an t
Ġ 7
Ġm arket
Ġa c
ct ion
ĠIn c
ation s
ad e
Ġp l
at ed
T E
Ġa b
o f
o p
in e
d er
ig n
Ġre s
an s
u g
c om
re n
on d
o st
i p
Ġp ric
Ġh ave
u re
or d
m er
Ġs p
Ġl oss
i b
a ge
ĠC orp
Ġ &
p ect
Ġl e
Ġw ere
an ce
it ion
Ġn ew
Ġc h
p r
Ġm on
at es
Ġp er
on g
a res
Ġsh are
f or
re as
Ġcon t
d ay
Ġh ad
p t
Ġ198 6
Ġst ock
s o
y st
Ġth is
t o
Ġ 9
an ge
u st
ol l
ab le
o k
Ġl ast
Ġ qu
a p
Ġin ter
Ġpro du
Ġ up
igh t
un d
ation al
or s
Ġ1 0
is t
ing s
w o
Ġ 8
f it
p os
Ġ (
it ies
u ary
ee k
Ġ im
TE R
ro w
ĠR E
Ġf ir
Ġal so
Ġde b
U TER
ĠĠĠĠ ĠĠĠĠ
ment s
a pan
Ġa f
v est
ĠRE UTER
T he
Ġsh ares
Ġon e
Ġab out
er al
ĠB ank
i re
over n
i a
5 0
Ġb ut
Ġp re
in is
Ġcom m
ĠC o
cl ud
ur ren
el y
ĠS t
ĠI t
Ġ -
p ro
v el
ak e
Ġm e
Ġd is
Ġof fic
u res
Ġe ar
. .
h r
ul t
Ġt wo
Ġbe en
Ġo ut
or k
a il
v i
ĠC om
ter n
Ġs al
i an
Ġpro fit
c reas
ou s
e b
Ġof fer
is s
er v
a x
Ġs e
du str
Ġcom p
a ct
m s
Ġad d
ĠN et
overn ment
Ġf in
Ġ K
Ġex pect
Ġo ver
Ġmon th
ĠJ apan
om e
pr il
Ġs ub
res s
Ġthe y
con om
s id
Ġis s
Ġm an
Ġ1 2
on n
a v
ĠM ar
Ġp r
Ġre c
ow n
l i
id ent
is e
. "
v en
ĠH e
ĠD e
ch ange
Ġdeb t
ar ter
it s
Ġal l
o in
Ġun der
r it
Ġw eek
Ġb o
ion s
ro up
ĠA pril
ar g
Ġtr ad
Ġc urren
i z
ro p
Ġm ore
Ġa pp
Ġ end
Ġin creas
us e
ec ur
i e
as e
c ed
ĠU n
or t
c es
Ġf ore
Ġ1 5
Ġ198 7
Ġl o
ac k
Ġ ro
Ġo il
e y
an g
Ġe conom
Ġaf ter
Ġoffic ial
por ts
Ġb u
i x
Ġp art
Ġp ay
a ir
o od
e g
Ġin clud
Ġw he
Ġ Y
Ġo per
Ġth an
u al
Ġg overnment
c y
ĠMar ch
Ġc l
oun t
il e
Ġin vest
t d
yst em
ic al
a ch
ic e
Ġ1 1
Ġtr ade
Ġac c
at ing
ĠC h
Ġn et
ree ment
Ġt onn
Ġ2 0
Ġan n
Ġ j
Ġo ther
res ident
oun tr
oll ar
ug h
im e
as h
f f
t al
ecur ities
ra ct
Ġ1 4
Ġthe ir
en s
it t
w e
it al
Ġto ld
Ġas s
Ġre port
Ġst ate
Ġfir st
Ġth ree
ĠL td
Ġ1 3
o y
ĠRe v
Ġbank s
mer ic
Ġs up
os e
it ed
ow er
Ġ3 0
Ġpric es
Ġd iv
ĠCom m
Ġpric e
Ġqu arter
a w
eb r
Ġ V
Ġ 0
Ġn o
ĠE x
Ġinter est
Ġme et
Ġsal es
Ġt ax
ain st
ebr uary
i k
Ġc ould
ĠT h
id e
Ġpl an
g h
i or
red it
ĠRev s
ub l
en ce
is ion
is h
Ġs u
ur ing
Ġa m
ro ugh
in ess
Ġh igh
i fic
j ect
Ġr ate
1 9
on e
as s
or ld
us iness
ay s
Ġtonn es
v ed
Ġw e
Ġf ive
p art
h old
an uary
il ity
are d
Ġ en
Ġc ountr
Ġin dustr
Ġfin anc
c he
Ġfore ign
an ad
n ed
ap ital
u es
y ear
Ġd ollar
vel op
Ġag reement
ou gh
a use
ok es
Ġto day
u ed
a j
Ġ- -
ur ch
Ġexpect ed
e ed
Ġst r
our ces
s s
Ġ k
Ġs ome
as ed
Ġpro pos
o ve
Ġ1 6
Ġ198 5
Ġb et
al yst
t ain
s h
le ct
Ġf our
g ra
Ġto tal
Ġd ue
Ġac qu
ib le
oin t
es e
tern ational
Ġ ra
Ġ if
ex t
am e
Ġg row
Ġag ainst
Ġcurren t
ĠF ebruary
Ġre p
Ġin d
inis tr
f ore
Ġbu y
ĠĠ ĠĠĠ
Ġapp ro
ĠB ut
ar r
aj or
inis ter
on s
b e
Ġcomm on
i ed
ĠN ew
iss ion
Ġb ond
en eral
Ġde al
Ġ us
Ġpro v
is ed
ĠM ay
Ġsp okes
Ġadd ed
Ġc ent
ĠT r
Ġyear s
E C
ĠJ anuary
c ess
lr s
8 7
Ġcon s
we en
Ġs et
Ġsh r
Ġ1 7
Ġg roup
Ġth ere
g et
ubl ic
li er
2 5
e p
ĠA n
Ġo w
Ġre g
Ġ3 1
I n
at er
Ġcont in
Ġin to
vi ous
Ġ est
Ġro se
m ber
Ġs ystem
t on
in es
Ġde cl
s aid
Ġre m
ĠA meric
a ce
Ġw ork
Ġan y
Ġle ad
g y
Ġbe c
Ġt er
Ġp ol
Ġs ell
S hr
k s
Ġc ut
ed eral
Ġm ajor
Ġre du
in ed
m ed
Ġ1 8
res ent
Ġb usiness
Ġprodu ct
Ġ5 0
Ġof f
Ġd own
Ġr ates
air man
ĠC anad
ar m
i od
u rop
Ġiss ue
Ġspokes man
n ing
in ce
et s
at ive
urop e
h er
Ġ2 5
Ġc redit
or y
Ġn ow
Ġmeet ing
Ġbet ween
Ġm ade
Ġs ix
g an
Ġcont ract
Ġd o
ĠA l
l and
Ġincreas e
Ġth rough
Ġh old
end ing
it e
l o
Ġo p
Ġin t
g er
Ġwhe n
ff ect
2 0
Ġprodu ction
Ġbec ause
Ġan alyst
Ġtrad ing
ĠS hr
Ġf und
Ġwh o
1 0
d lrs
re ed
m on
ro l
Ġex change
Ġmonth s
c er
l ed
he d
un e
Ġc ost
Ġb el
Ġs o
Ġc an
Ġm ay
ur n
p ut
n ings
e ver
3 0
gra m
& #
ra z
Ġt ake
ire ct
Ġs ign
Ġh is
Ġann oun
Ġa r
Ġre f
com e
i el
v ent
es ter
Ġfinanc ial
r al
Ġsub sid
al s
f l
Ġs ources
Ġn ext
Ġg ain
Ġeconom ic
Ġst g
Ġt ime
Ġon ly
is c
part ment
or th
> ,
Ġde c
ĠF in
er man
Ġf ut
Ġpre vious
8 6
Ġe qu
Ġcompan ies
Ġofficial s
Ġs ur
b ank
ĠIn ternational
hold ers
1 6
al ly
Ġbo ard
ud get
Ġgrow th
s on
Ġy en
Ġsh ould
Ġc apital
Ġper iod
em ber
ĠW est
ĠJapan ese
Ġr ise
raz il
ester day
ro und
Ġ1 00
Ġstate ment
r anc
Ġle vel
Ġde velop
ul l
al es
oc i
st and
ur ther
Ġc ash
e ch
v ers
re t
Ġc all
Ġsp ec
oll ow
Ġc or
str u
for m
Ġre qu
Ġp resident
Ġear lier
iel d
Ġl ong
d e
Ġp urch
Ġtr ans
Ġrec ent
v al
ou se
Ġex t
Ġun it
ĠE urope
ak ing
c k
ĠE n
r an
b le
7 5
Ġbe fore
of f
Ġs ec
ce mber
ĠĠĠĠ ĠĠ
ĠEx change
Ġwh ile
os ed
Ġ19 9
Ġre ce
ur y
ĠS e
Ġmarket s
en cy
ĠUn ited
itt ee
Ġd el
ĠN O
Ġcountr ies
pl et
t ed
w ard
Ġv al
il d
Ġo pt
Ġrem ain
Ġdis c
age ment
Ġw orld
Ġs erv
Ġindustr y
Ġa ct
Ġsal e
ĠAmeric an
Ġest im
out h
p ly
sid er
ric ult
ce ed
4 0
ad y
i o
om est
Ġs l
Ġf ell
em b
con t
Ġl ower
ut ion
Ġl ik
th s
ĠJ une
Ġat t
ter s
Ġag reed
Ġe ffect
is ition
tr ib
eg ot
Ġm ark
ĠG erman
i um
Ġm ain
Ġear nings
Ġs ay
Ġf all
egot i
Ġman ag
o b
Ġpol ic
8 0
in a
i ary
Ġs ince
u f
ĠF r
1 5
re l
Ġpro gram
ec ut
ĠA v
Ġrec ord
c ial
Ġt al
stand ing
b illion
Ġb as
ĠO n
Ġop en
omest ic
w h
Ġthe m
Ġc o
ut ers
er y
ic es
Ġre t
id end
W e
c ord
l ing
o ther
y n
oun d
i red
Ġb ill
ord in
Ġinvest ment
or row
Ġc r
Ġ2 7
fic it
ie f
Ġf urther
Ġ2 2
Ġ2 3
ra in
.. ..
in k
Ġd id
ĠB razil
ĠP ro
Ġd es
Ġs ecurities
Ġ2 4
du ct
Ġex port
m ln
ic s
st it
Ġreport ed
Ġch airman
ĠNO TE
Ġex ports
pl us
in d
Ġa v
ak er
Ġsu ch
ar ge
u ch
Ġf ig
Ġsh ort
ow ever
Ġoffer ing
i pp
ĠComm ission
Ġp ublic
Ġf ollow
8 5
Ġn eed
Ġm er
Ġm ost
Ġex p
Ġlo an
en e
ĠR es
ce pt
Ġa ut
Ġmon ey
l p
Ġow n
Ġd irect
ĠA g
Ġb udget
is ing
pan y
Ġoper ations
o per
6 0
f rom
Ġsh ow
Ġde m
Ġg o
ĠE C
Ġpr iv
al f
p on
ction s
Ġqu ot
inistr y
ĠAv g
in c
Ġann ual
Ġcomp ared
p ct
mer cial
Ġy esterday
ĠDe cember
Ġb ro
Ġshr s
w ith
com m
ĠY ork
ir d
Ġproduct s
pl oy
reas ury
t il
ĠG roup
Ġd et
Ġhigh er
Ġ4 0
Ġdem and
ĠM inister
Ġe ach
ver t
Ġpl ans
Ġannoun ced
ech n
a pp
Ġa round
iv es
ĠS ecurities
end ed
Ġanalyst s
Ġf il
Ġfir m
Ġn on
ir st
as on
Ġbe ing
ĠB rit
ver age
Ġadd ition
Ġf l
a per
Ġpr ior
f t
ĠIn dustr
ag an
Ġnew s
Ġ ent
Ġde ficit
at ely
g ed
Ġ2 1
Ġend ed
end er
j ust
Ġs ame
on t
Ġg ood
os ition
. ,
Ġb id
Ġlo ans
w rit
Ġtal ks
Ġd uring
Ġres ult
Ġus ed
us s
Ġ2 6
fer red
Ġm ake
Ġn ine
t y
o ber
Ġd r
Ġg u
f in
Ġpl ant
Ġsec ond
p h
ter m
ĠP l
h ip
T h
b y
uf act
u ly
ĠS ales
fer ence
Ġc er
Ġf ranc
Ġre l
in ter
Ġdiv idend
Ġst art
Ġsup port
Ġacc ord
Ġ2 8
Ġhe lp
m e
er ve
ail able
Ġall ow
Ġs old
Ġcom plet
Ġl arg
ough t
d ition
Ġf arm
Ġp ress
ic k
Ġm in
isc al
iv ely
p re
Ġre st
7 0
9 0
c ent
1 2
h or
Ġinclud es
ecut ive
Ġp oss
ur al
ĠN ational
Ġd ays
ic ations
ĠSt ates
an ts
Ġst ill
ĠO per
ĠF ederal
vi ew
w ill
ĠU S
Ġbo th
t ing
ĠT ex
re at
Ġw ell
Ġd omestic
Ġe m
Ġaf f
Ġpropos ed
Ġn egoti
ĠB o
at t
iv ed
Ġb ack
Ġacqu isition
Ġb ar
8 8
Ġcon sider
Ġf ac
ĠU P
iz ed
Ġass ets
an n
ĠRe agan
ot e
i ver
o v
u str
che du
Ġse ven
ol o
Ġear ly
ang ed
Ġsubsid iary
e es
Ġs en
our t
Ġinclud ing
Ġcountr y
Ġbas is
ĠA ss
Ġad v
Ġpolic y
Ġm ove
Ġshare holders
m inistr
ĠCanad a
por ters
Ġinter n
Ġeconom y
r ing
ĠA s
ĠS h
Ġre ven
f fic
v ol
ĠA r
Ġcont rol
Ġ198 8
ĠRe uters
Ġag o
s ur
Ġbond s
Ġp ar
Ġam ount
ricult ure
erv es
a i
m in
ond on
Ġe ight
Ġout standing
ĠJ uly
ĠEurope an
id ed
ĠP ay
om m
ĠThe y
ĠH ouse
Ġs ect
Ġs ug
Ġval ue
3 2
is ts
Ġpro ble
t ly
Ġcurren cy
Ġman agement
Ġm ths
Ġim pro
Ġter ms
O N
u ing
re ady
et ro
Ġstr ong
om in
Ġcons um
ĠA ir
Ġd if
Ġf iscal
Ġl ow
3 5
Ġt ender
Ġl aw
Ġlik ely
Ġcent ral
A N
l es
ul ts
Ġim port
Ġ2 9
ent ures
I N
Ġg as
Ġ3 5
ĠFin ance
g in
a h
n ers
Ġacc ount
i er
Ġl i
) ,
o h
A T
ul f
4 5
i ous
Ġl oc
Ġn ear
emb ers
Ġ Z
c ast
Ġincreas ed
Ġsur plus
pt ember
Ġ use
Ġpro ject
um ber
stit ut
Ġnot es
A R
> .
Ġl im
ustr al
Ġo ur
Ġ6 0
Ġim ports
Ġfund s
Ġmark s
ĠS outh
le y
ang es
Ġfig ures
oci ation
k ed
Ġof the
le ar
Ġcontin ue
a f
1 7
ĠM an
Ġh alf
Ġexpect s
Ġc ar
Ġin come
Ġun til
Ġse ver
Ġwhe at
Ġbel ie
ul ar
ud e
c o
Ġo b
iz ation
Ġdeal ers
Ġin fl
ret ary
Ġm uch
S t
er gy
Ġfut ures
r on
Ġch ief
P R
m arket
ĠP resident
o vi
trib ut
D A
ip ment
Ġm at
un ity
Ġhe ld
Ġoper ating
ministr ation
u c
Ġs m
Ġintern ational
Ġg eneral
ĠG eneral
com pany
Ġcomp et
Ġf act
1 3
ĠP r
Ġpay ments
Ġa verage
Ġfor m
Ġav ailable
9 5
le ment
ĠDe partment
il y
Ġthe n
ĠP ar
ial ly
ĠL ondon
' t
Ġd ay
Ġs eek
Ġim p
Ġfir ms
Ġpriv ate
Ġa ir
ing ton
Ġal ready
Ġr ul
at or
Ġmanag er
et ary
Ġcom mercial
Ġprevious ly
Ġsen ior
en n
ĠIn d
n ot
u red
iz e
Ġestim ated
Ġbro k
1 4
at a
Ġd ate
th at
ĠĠĠĠĠĠĠĠ ĠĠĠĠĠĠĠĠ
ĠCanad ian
ĠY ear
el s
Ġres erves
it ive
Ġc arr
ĠI ran
Ġpro t
Ġg r
ial s
Ġst ake
at s
Ġv ery
Ġ2 00
Ġre al
ad ing
ĠP h
y s
Ġa p
Ġrep resent
Ġbar rel
Ġcl ose
Ġr at
com p
Ġnot ed
6 5
l l
ĠĠĠĠ ĠĠĠ
um e
Ġme as
Ġth ird
ac hed
igh ts
ĠS w
c ing
Ġm et
Ġpurch ase
Ġinclud e
Ġex pan
iv en
ab ility
echn olo
u ro
Ġfranc s
J apan
Ġth ose
Ġn il
Ġex ecutive
Ġcon vert
Ġad just
A S
Ġor der
ovi et
A meric
a ction
he n
Ġf ull
Ġin it
ong ress
Ġst e
Ġcost s
Ġm inister
Ġpart ic
l er
ec retary
ĠH owever
Ġiss ued
Ġbe gin
5 00
Ġa ction
Ġappro ved
E R
es tern
1 1
f ul
ĠT reasury
av ings
ĠTh is
Ġin the
Ġindustr ial
n er
Ġj oint
w ay
er r
Ġr is
ĠS p
ect ion
Ġunder writ
Ġtrad ers
Ġl ess
and ard
Ġm embers
anc es
Ġb l
Ġm ust
i ate
w ould
Ġp oint
Ġwh at
ash ington
Ġpropos al
Ġp osition
I L
ĠRe cord
ion al
Ġsell ing
c r
Ġcall ed
Ġmer ger
Ġres ults
u el
y o
or gan
f fer
Ġt el
Ġh ere
Ġcon f
Ġpre ferred
stru ct
ĠA f
ag o
oin ts
a z
Ġhe ad
e v
anc ial
2 2
Ġmln dlrs
Ġdisc uss
w ork
ĠW orld
Ġsup ply
sur ance
d ers
Ġaut hor
id ay
cont in
Ġinvest ors
Ġc over
ĠA t
Ġspec ial
Ġfut ure
he m
ign ed
Ġdecl ined
Ġb ased
ĠW h
ĠSe ptember
ro du
Ġout put
Ġem ploy
C C
Ġdec ision
O R
al e
Ġ5 00
ust om
us ed
Ġ4 5
g ress
Ġthe s
Ġp ut
Ġe lect
ĠB aker
p ric
ro ss
Ġcon cer
ul ation
if ied
d is
in s
Ġp ers
th ers
y ing
Ġn umber
Ġstock s
I t
am ed
ĠUn ion
Ġsh ar
Ġcon dition
Ġloss es
Ġlevel s
Ġsect or
ar ant
Ġcom ment
Ġv ol
ĠTr ade
Ġthe se
ĠSt ock
e as
Ġref lect
ceed s
un ications
am p
ĠM inistry
cl osed
Ġcor por
wh ich
in vest
9 2
Ġman y
off ee
Ġde f
Ġy ield
ab ly
c ers
Ġb al
Ġan other
Ġiss ues
ist ing
Ġ8 0
Ġc rop
em pt
or n
ĠA ustral
ĠCh ina
ĠS en
ok yo
Ġappro val
inc ip
th ough
ordin ated
Ġdevelop ment
Ġt arg
at ors
M E
Ġl ater
ag es
ĠF ed
1 8
Ġm od
ĠS oviet
Ġde pos
Ġind ex
Ġsever al
as es
ab il
Ġrece ived
t en
Ġ3 4
ĠS erv
ĠO P
Ġs er
Ġc a
ĠB ro
ren ch
Ġredu ce
b o
Ġm ight
Ġv i
Ġl ate
ak en
or m
Ġb orrow
ĠF irst
Ġle g
Ġcomm ittee
etro le
ĠS ystem
ĠBrit ish
Ġlarg est
Ġdeb entures
u ation
ail s
b ased
l ess
Ġs c
Ġ7 5
Ġch ange
A L
u ct
ct ober
ĠUn der
es ts
Ġp e
Ġp resent
Ġwith in
ip s
3 3
Ġp oints
are n
Ġbank ing
Ġoffer ed
Ġdecl ine
Ġ7 0
qu arter
Ġprofit s
Ġp ost
ent s
ĠC ongress
Ġex clud
Ġag ency
Ġfin ance
Ġdo es
Ġfil ed
o il
p ec
p ress
Ġc ou
Ġman ufact
p ar
ic t
Ġre v
l ine
ĠGerman y
ear ch
on al
ĠM ot
c ies
Ġw ay
Ġ3 2
Ġposs ible
a ff
oun ts
5 5
Ġl ine
Ġ Q
ent ial
C h
ĠS he
D e
Ġun its
Ġcer tain
Ġsm all
Ġpay ment
in t
Ġex pl
ric t
Ġfollow ing
q tr
Ġf ederal
etrole um
Ġp aper
Ġfinanc ing
Ġsign ed
a it
Ġg old
if f
on es
Ġw arr
Ġow ned
at ory
Ġin vol
Ġpric ed
Ġbel ow
n ow
ĠW ashington
Ġf ar
Ġcr ude
Ġinfl ation
Ġp ast
Ġw ar
Ġl arge
Ġw orth
ĠS ecretary
A Y
Ġp ack
ĠC ent
.. .
Ġm il
ĠN ine
Ġaddition al
velop ment
f for
st ant
Ġ3 3
Ġ9 0
Ġreven ues
S E
Ġf ail
Ġcon ference
op le
Ġcurrent ly
Ġind ic
s pect
all ed
Ġac cept
ra w
t ax
Ġw ant
ĠA m
Ġsug ar
Ġloc al
ĠG ulf
Ġj ust
Ġstr ik
6 6
Ġd rop
Ġacqu ire
I C
ent ure
Ġ qtr
Ġp aid
Ġb ought
ĠT okyo
pro du
Ġweek s
Ġserv ices
Ġ3 7
b ond
et o
Ġfore cast
ĠAg riculture
Ġconvert ible
chedu led
oh n
C orp
Ġter m
in creas
a un
ĠA d
Ġg ive
ĠTex as
Ġl et
ĠPl c
o g
ac ific
ee p
Ġwhe ther
Ġg rain
0 9
pl it
v es
Ġeffect ive
Ġf e
id es
ĠF or
Ġpro m
Ġprov ide
2 4
g est
echnolo gy
ab l
Ġdel iver
ĠT el
un der
qu id
pp ed
Ġst ud
19 86
ĠU N
ual ly
Ġsu c
urch ase
h as
ĠA ug
ific ant
Ġle ast
2 7
Ġplan ned
er c
Ġto m
Ġpro cess
st ock
Ġcl os
Q tly
Ġv ice
Ġg et
ra ft
re g
Ġn ations
ix ed
Ġrequ ire
Ġh op
Ġth ink
ĠL e
ib ility
ĠPar is
o or
t ific
ĠIn vest
b ia
he ad
Ġm aking
r up
Ġ3 8
Ġun ch
ag ed
Ġap pl
he s
en se
Ġse ason
3 4
p d
Ġm id
ĠC on
Ġ3 00
Ġs ee
Ġc ap
Ġcom b
ec on
is ions
Ġre porters
ĠRe p
6 4
im in
oc o
ex pect
c il
w as
ĠĠĠĠ ĠĠĠĠĠ
own ed
Ġreg ul
ĠFr iday
Ġs im
Ġag ree
Ġpr incip
mon th
Ġaff ect
E S
fic ult
p ite
Ġo pp
ĠIn ter
Ġproble ms
Ġp ower
ĠA PR
Ġserv ice
Ġp ort
ess ion
Ġcomplet ed
6 7
e al
ĠIndustr ies
at ives
ĠM on
Ġfin al
Ġsub ject
ĠOn e
3 7
ot al
Ġas ked
am es
Ġbu ild
Ġopt ions
Ġact iv
Ġt est
u ck
9 9
Ġe ven
Ġcent s
Ġs he
is ation
Ġre ached
g r
Ġre view
ur s
Ġra ised
Ġtarg et
a ud
Ġthe company
Ġe l
ĠB r
ĠAss ociation
im um
ĠO ctober
Ġlo ok
Ġe ffor
Ġsp ending
oc r
of fic
Ġgood s
n s
Ġf ew
av y
ĠAn d
C omm
Ġd en
if e
ecur ity
form ation
i ent
ac o
Ġcl osed
Ġopt ion
oun cil
Americ an
Ġim med
or ning
us p
c urren
Ġc ustom
Ġto p
ĠPh il
st o
ove mber
Ġar r
st e
ĠN orth
oy be
ene fit
2 8
et h
Ġl ed
ĠC l
ĠEn g
Ġ1 50
et t
Ġcou pon
i am
n ess
Ġl ist
Ġsay ing
it ical
4 7
b ec
ou ra
ol id
em ocr
a u
E N
ar iff
le x
Ġde partment
ĠF rench
of t
Ġset t
3 8
ep h
Ġbill s
ĠP art
vent ion
Ġimpro ve
er m
or por
ĠE lect
Ġoffic er
b al
at est
Ġprodu cers
ĠO ffic
ĠBo ard
0 5
a im
al if
ĠO il
Ġgain s
ĠAf ric
2 9
v ing
ĠA c
ĠO r
Ġab ove
Ġcontract s
trib ution
Ġan t
um p
itt le
p ay
Ġs plit
hem ical
c u
Ġg iven
Ġsub ordinated
Ġfor mer
al th
st ate
Ġwh ere
ail y
Ġh ow
ĠF und
ĠE conom
econ om
Ġare a
Ġpart ners
Ġfour th
Ġequ ity
Ġcor n
ai w
Ġbal ance
Ġ3 6
ĠL yn
Ġ5 5
Ġacqu ired
U n
Ġn ational
Ġn ame
ig in
iv ing
Ġ6 5
Ġrecent ly
Ġdet ails
Ġg re
ak es
Ġch arg
Ġint rodu
B ank
g overnment
ĠRes erve
Ġent er
Ġra ise
Ġredu ced
b u
ĠA G
Ġp act
Ġr ights
Ġ4 4
ond ay
sh ares
i pl
is hed
Ġpl ace
Ġs cheduled
Ġcomp uter
Ġmeas ures
Ġor ders
Ġbuy ing
Ġaccord ing
Ġwith out
Ġcontin ued
Ġb r
ĠN or
ac qu
Ġret urn
Ġa im
re m
ĠJ ohn
Ġthe f
ood y
Ġcom e
7 8
Ġto t
ex ic
Ġp ass
ĠComm unity
C anad
e f
ens ion
Ġfac ility
Ġdif ficult
Ġrep ay
Ġwork ing
Ġbo ost
Ġequ ipment
Ġnegoti ations
ĠL o
Ġgu arant
2 6
Ġt urn
Ġbank ers
d ec
Ġs w
at ic
Ġf ree
alyst s
Ġwork ers
Ġcondition s
U N
g ing
od ity
1 00
is l
In ternational
3 6
in ing
et he
Ġpro per
Ġr un
Ġinit ial
ĠS E
ac ity
Ġad ministration
of fer
Ġch anges
Ġen g
Ġli quid
T T
a ul
ab out
Ġreg is
stru ction
en ed
Ġm ed
Ġt aken
en er
h are
Ġre le
con s
w are
Ġc lear
Ġl aun
inter est
Ġexpan d
Ġpe ople
us h
sh are
ĠN ote
li k
ordin ary
Ġshow ed
g ent
Ġre struct
ĠP acific
3 00
Ġre pl
Ġv enture
Ġun ion
9 4
i ation
ĠBrit ain
Ġc ourt
at her
Ġ5 1
Ġvol ume
ĠSen ate
l ines
Ġpack age
m ost
es bank
Ġm ember
Ġto o
Ġgo ing
b ably
Ġv ot
Ġr ange
Ġext ra
Ġs it
Ġ4 2
Ġtrad ed
ort g
7 7
Ġres p
Ġsystem s
Ġlet ter
F F
Ġs usp
Ġb pd
M ar
w eek
Ġpress ure
Ġh and
Ġg overn
Ġ4 8
our s
aren t
ĠD emocr
Ġres pect
ut ch
ĠA ra
Ġr ight
Ġadjust ed
ĠOP EC
n ew
Ġb ig
ĠV ol
ĠFr ance
ĠC hr
Ġquot ed
d own
e qu
Ġsh ip
Ġdirect or
t ies
Ġc re
is m
ab or
Ġor igin
Ġtonn e
Ġam ong
Ġsign ificant
s ub
Ġd am
Ġ4 9
ĠTh ere
ĠTr ust
contin ued
2 00
Ġd ata
ic ip
Ġl ittle
ĠC ar
im es
Ġy et
ĠIt al
itt ed
er n
Ġp red
Ġprov ision
Ġbarrel s
Ġb enefit
Ġl ending
Ġ5 7
Ġdiv ision
che d
Ġrece ive
eph one
aiw an
m ark
ec ess
Ġ4 6
I T
Ġbe gan
ĠM onday
ĠJ ames
hold er
ĠAmeric a
ĠN ovember
rup t
Ġf lo
ic on
Ġe le
ce ment
Ġ4 7
Ġtrans action
3 1
ĠS avings
ĠG old
Ġrequ est
ricult ural
Ġb re
Ġw rit
Ġf ixed
is es
ic ago
ĠC redit
ight ly
pon se
T R
Ġmarket ing
pos ed
Ġsub stant
Ġso on
ĠSw iss
ren g
und esbank
Ġhold ing
4 4
d eb
l ia
Ġ3 9
err ill
i ately
Ġc al
Ġin stitut
Ġd on
ĠC ol
Ġ5 2
Ġcorpor ate
in dustr
mer ce
av ing
Ġsup pl
ĠAug ust
Ġn amed
el f
el ect
app ro
Ġs um
Ġb ase
Ġneed ed
Ġc offee
ĠM arket
Ġqu est
sid e
ical ly
or ation
ver y
ĠW estern
ĠFin ancial
ĠUS DA
Ġp ot
Ġare as
lia ment
o res
ĠSt ate
Ġmain tain
ĠSystem s
ĠG M
at ural
Ġh owever
Ġbe come
ra q
b ut
Ġh ard
ĠC ons
Ġk ey
Ġstrik e
ariff s
8 9
m it
anc ed
Ġpol itical
Ġseek ing
c ur
s p
Ġm orning
ĠP etroleum
ĠW e
3 9
il ities
Ġl atest
ĠM exic
ĠTr ans
Ġcer tific
ĠServ ice
Ġwarr ants
u x
Ġtake over
Ġtom orrow
A n
U L
h ave
ot t
Ġadd ing
In c
Ġdec ided
Ġfarm ers
Ġconsum er
Ġimp act
ist ance
ĠCent ral
aud i
il ar
ad or
Ġg ave
) .
Ġc ase
ĠI N
Ġ5 6
af ter
b ack
Ġpropos als
Th ere
s et
Ġ ur
out her
n es
Ġo vers
Ġf av
ter ling
ĠM c
Ġsl ow
ic ation
Ġth er
duct s
n ey
Ġsaid it
od ay
Ġminister s
Ġrev ised
Ġ-- -
8 2
T r
end s
Ġ5 4
C O
w ere
Ġ ve
at h
ear s
ĠL ast
ĠG u
outher n
C om
ar lier
Ġm inistry
B M
Ġre comm
ĠC urren
Ġpr im
ipl om
s ion
Ġde p
Ġres ponse
ward s
ĠF ore
Ġdr ug
Ġcar s
l ast
th ing
Ġpro ceeds
ir med
w ide
ĠS ome
Ġpro spect
Ġrec over
Ġlead ing
Ġbrok er
ys ler
Ġinclud ed
Ġproble m
Ġb ring
Ġre form
ac ed
Ġ199 0
ĠEng land
F ebruary
a ctions
Ġt w
Ġincreas ing
Ġk eep
Ġin s
Ġv ar
iv al
Ġcut s
Ġsuc cess
A ir
AT T
Ġcap acity
n e
Ġpro bably
Ġex isting
Ġr ising
Ġs oybe
ck er
Ġdes pite
uro bond
8 4
Ġa id
al ers
Ġal though
Ġcredit ors
Ġlik e
c ountr
ak ers
ag reement
Ġmon etary
Ġredu ction
ĠTex aco
I D
Ġ198 4
if y
Ġhold ers
isl ation
id ence
Ġre ject
for man
ĠEn ergy
ortg age
7 9
O L
in o
Ġl ic
Ġch arge
Ġvi ew
oco a
Ġthe p
Ġf ield
pt ion
Ġref in
Ġdirect ors
6 00
t onn
ar s
ĠS EC
ĠB undesbank
em icon
Ġbet ter
Ġfil ing
he l
le g
Ġst ates
ĠĠĠĠĠĠĠĠ ĠĠĠ
Ġunch anged
emicon duct
M F
ĠI f
our ce
ĠCh airman
7 4
at ch
Ġm arg
ĠComm ittee
Ġs oft
ul ative
ĠK ore
Ġbelie ve
ĠElect ric
g o
an e
Ġo un
ĠC apital
ĠĠĠĠĠĠĠĠ ĠĠ
Ġpay able
Ġdif fer
w ait
Ġc red
Ġp h
at in
at ist
iv ers
ĠH old
ober t
Ġlim it
Ġstud y
expect ed
lik ely
r y
en ing
Ġto re
ĠC alif
ĠS al
th is
ĠM AY
ol ic
Ġend ing
Ġmain ly
Ġfl ow
ĠPr ime
ro ad
Ġ4 3
ĠK ong
Ġeconom ists
Ġgr ant
T C
in clud
er ing
ar son
Ġen ergy
at eral
Ġf ood
qu e
ec omm
Ġpl us
Ġexclud es
Ġsit uation
forman ce
2 3
Ġst ep
ig ation
Ġfig ure
ĠPhil ipp
E x
Ġre ach
ĠC it
ag ainst
oper ation
ĠMot ors
Ġw on
ith er
M C
Ġt em
Ġl b
ur pos
Ġfor the
Ġst reng
ĠDe velopment
A pril
d en
Ġd ou
Ġn or
Ġab le
Ġser ies
Ġm ov
Ġre ason
ĠM organ
Ġrep urchase
Ġreven ue
ĠAustral ian
D P
Ġto ok
Ġ6 6
Ġrestruct uring
Ġc rit
Ġl and
Ġagree ments
it ary
Ġincreas es
ĠCh icago
Ġpolic ies
ĠLyn ch
Ġt ra
Ġt aking
Ġag ain
Ġpartic ular
4 00
8 00
Ġc op
Ġe as
ĠH ong
Ġinter vention
att le
Ġrul es
i ers
r ate
Ġh ous
ĠS up
if t
Ġest abl
Th is
c raft
i et
i res
Ġfor ce
R A
h igh
ĠM al
ĠM ich
rough t
Ġ199 2
Ġbro ad
comm ittee
re et
Ġ4 1
Ġcl aim
Ġsl ightly
tribut ed
Ġrul ing
ĠWh ite
i y
Ġre d
Ġoffic e
Ġstr ate
C T
is is
em s
ĠSt andard
Ġdis put
Ġdisc ount
7 00
Ġa head
Ġres earch
Ġiss uing
Ġsim ilar
z er
ar ily
Ġd aily
ir m
Ġwh ol
Ġ4 00
ĠAn alysts
Ġatt ack
Ġret ail
stit ution
t e
ar ies
Ġto the
ĠT aiwan
Ġex ch
ra m
Mar ch
d ollar
ar ing
Ġv is
Ġbillion dlrs
Ġlim ited
Ġlist ed
C H
E urope
en ces
ĠP oor
ain ed
Ġse en
7 6
c oura
Ġun s
Ġfin d
Ġimmed iately
ill ing
ĠCom merce
Ġdel eg
ann oun
Ġunderwrit ing
ĠBro thers
Ġextra ordinary
f all
i ber
Ġp oll
ĠW ill
ep end
ecess ary
S T
om on
ir c
Ġcomm it
cer tain
Japan ese
Ġcomb ined
W est
Ġ es
Ġs ol
ther n
Ġint ent
Ġpurch ases
Ġprincip al
h am
k ing
Ġin formation
il es
Ġre ports
ĠM id
ĠP enn
ĠE d
Ġ6 4
pro v
Ġsu it
ĠC ont
th ree
Ġhe avy
ip el
Ġoper ation
cr ib
Ġpot ential
ecomm unications
0 4
Ġm ater
ĠC ourt
ĠS ch
os p
ir on
Ġdis closed
ress ed
Ġcarr y
Ġquest ion
' re
ter ed
Ġ9 9
Ġcl ass
ĠAr gent
ev ision
al m
ĠM errill
ul ated
em ploy
Ġ6 9
Ġj ob
0 6
Ġg ener
ĠP e
op t
Ġres ol
ĠFore ign
8 3
h ad
id ual
ur b
ĠI raq
ac c
od y
op s
Ġris k
Ġdepos its
Ġinvol ved
C o
ad ed
ĠS audi
A l
k e
Ġin surance
Ġh it
ĠC O
Ġcurren cies
ĠRes ources
ĠI s
ĠW all
Ġ6 7
Ġshare holder
Ġpre m
ĠSt e
Ġrat her
ĠO FF
Ġgrow ing
be en
Ġshar p
ĠRep ublic
l in
or ies
Ġex erc
Ġtax es
Ġnews p
ĠInd ones
Ġexpan sion
Ġd ro
ĠR ich
ĠS un
Ġ2 50
19 87
produ ction
Ġthe U
Ġcon struction
ber g
Ġinter view
ist ic
Ġ8 5
Ġadv is
2 1
Ġs om
IN G
Ġconcer n
E L
O per
z uel
st er
ĠT otal
Ġca used
b ur
o on
t wo
Ġre de
ĠD utch
ĠIndustr y
ĠG en
ĠG as
Ġdis continued
Ġlead ers
ste ad
tonn es
Ġa ch
Ġdis tribution
ĠCom p
ues day
Ġquot a
bo ard
Ġp at
ĠP aul
ĠD el
ĠL aw
Ġpay ing
ild ers
invest ment
I f
a ut
b usiness
Ġ ut
ut ures
st h
ĠM in
ag ing
Ġcomm ission
Ġover all
B rit
N ew
as ter
ĠI m
Ġcom pl
Ġv ers
Ġ6 8
ang ing
Ġquot as
pric es
ĠAustral ia
ĠAfric a
atist ics
o ol
Ġt ons
ĠF l
Ġ5 3
pro fit
Ġshar ply
o e
Ġs ent
Ġst abil
Ġal most
row n
Ġlaw s
Ġleg islation
Ġcustom ers
Ġh ar
Ġprodu ce
Ġsett lement
J anuary
U R
Ġf ound
Ġd iplom
Ġ9 5
Ġpre p
Ġaut om
Ġdepos it
ĠMexic o
Ġcred its
T H
Ġn ight
Ġex per
ĠN o
ore d
oun ter
tr ade
Ġen ough
Ġcontin uing
ĠMon etary
is f
ent al
ĠO ther
fore ign
ĠAl l
Ġext ended
Ġturn over
P C
Ġt on
ĠR obert
ĠE ast
ber t
gra ms
Ġatt empt
ene zuel
Ġsug gest
Ġpartners hip
Ġcertific ates
Ġs ession
Ġw id
Ġd il
Ġn ation
Ġy ou
Ġcr isis
.... ....
cu ador
re p
en g
Ġp urpos
Ġf r
Ġv ote
Ġex cess
Ġra ising
Ġprov ided
Ġrespect ively
4 9
ic ro
Ġth reat
pan ies
Ġ198 9
arg o
Ġdevelop ing
Ġdel ay
emb our
omin ations
Ġprot ection
Ġdeliver y
ĠVol cker
ux embour
s up
w ays
Ġs at
th an
ost on
Ġprodu cer
ens es
orn ia
ĠLo an
O T
ing ap
ad ers
anc ing
ren d
Ġach ie
R e
ĠB anc
Ġinvest or
aw a
Ġdollar s
vers ion
Ġestim ates
ĠIran ian
b et
Ġc he
ĠM oody
Ġj oin
Ġeffor ts
ĠChr ysler
uxembour g
ingap ore
Ġn orm
ĠB el
Ġle ft
lo ok
Ġremain ing
stitut e
Ġpartic ip
Ġrede em
4 6
d lr
o id
w ell
al t
om an
ĠH ar
wh ile
Ġcharg es
c all
ur ers
ĠB ar
and s
ab our
Ġinter ests
ĠCom pany
Ġbu ffer
Ġoff ers
Ġbrok ers
Ġliquid ity
rupt cy
d raw
Ġl ost
Ġst aff
Ġsh ipp
tr ation
Ġwe ak
Ġter min
yn d
Ġser ious
Ġgre ater
B razil
G eneral
h ic
al ity
ĠD av
iv idual
our se
Ġ12 5
Ġmil es
at ively
is on
Ġe mer
ĠT er
ĠS m
ĠE arlier
Ġspec ific
Ġremain s
cont ract
w est
ĠIn surance
ĠL ou
Ġen coura
Ġannoun cement
Ġinstitut ions
. -
c as
Ġs terling
Ġo c
Ġm iss
Ġe urobond
ĠC ity
ĠM ed
ĠG overnment
Ġ5 8
Ġprodu ced
Ġbo ok
Ġacc ounts
Ġbusiness es
Ġtrans actions
Ġestim ate
Ġimpro ved
market s
S e
l ant
Ġp ubl
ic ted
oc ial
Ġelect ron
Comm ission
Ġtem por
m en
Ġc ame
ur t
ul ly
Ġrequ ired
Ġopen ed
Ġaim ed
Ġn atural
ĠBank ing
Ġstr uct
Ġemploy ees
ĠMot or
Ġclos ing
Ġeng ine
Ġt echnology
Ġin c
il ateral
Ġlong er
Ġbegin ning
Ġfail ed
u wait
as one
ĠA b
un g
ak asone
Ġtr ust
Ġch anged
Ġ10 1
ĠShe arson
Ġmed ium
5 6
e ut
Ġw or
il t
et ing
Ġe very
ĠT uesday
ill s
Ġ5 9
the y
ens ive
increas e
Ġovers eas
M ay
P A
a o
ir ing
pric e
bec ause
ĠP re
Ġcon cess
ĠG e
Ġag ricultural
Ġper formance
Ġk now
Ġrest rict
Canad a
ĠKore a
7 2
ut ed
Ġon the
ĠP er
Ġal tern
Ġse par
ĠBrazil ian
b it
n own
Ġa ward
Ġs ource
Ġper cent
Ġcomp ar
ĠDe alers
Ġnet work
Ġnear ly
ĠEconom ic
c apital
m ore
ĠC ouncil
Ġal ong
Ġdes igned
Ġstart ed
Ġmanufact uring
B C
U S
Ġp arent
Ġb us
ĠA ut
bank s
oper ations
Ġste el
Ġaffect ed
er ies
Ġthe S
ĠD lrs
ag n
Ġ6 1
ĠSt reet
Ġpart y
Ġown s
Ġrel ated
ĠWill iam
Ġs avings
ar row
Ġf eed
ment al
Ġmajor ity
Ġmat ur
Ġintrodu ced
ĠItal y
Ġprem ium
i ro
Ġc ited
Ġin st
ur k
Ġpro gress
ĠPro du
ĠI MF
ĠB oston
end it
for ms
sid iary
ang er
Ġopp osition
orpor ation
ipel ine
E n
Ġo thers
Ġl ight
ĠC y
Ġex ceed
Ġcall s
Ġallow ed
Ġimport ant
Ġactiv ity
9 6
Ġf ully
Ġm ult
Ġl ink
pl an
Ġres erve
B ut
d ed
re qu
Ġbe h
ra ph
ul ate
ĠG r
The y
Ġpre vent
cord ing
ĠInvest ors
Ġship ments
deb t
r ight
Ġp ound
Ġst ability
im ately
Ġ6 00
com plet
Ġopen ing
Ġreject ed
8 1
S R
m itted
ĠG re
ĠW ed
Ġcompet ition
Ġnewsp aper
F in
T S
p e
or g
Ġh ouse
Ġdecl ared
Ġneed s
Ġob tain
Ġpers onal
olid ated
Ġtot alled
Ġdro pped
I S
Ġ ident
Ġb est
id ing
et er
ve y
ĠD EC
ub ber
dis closed
econom ic
ĠMal ays
i aries
on y
ill ed
ĠS an
Ġpr ime
Ġquarter ly
Ġbl ock
onal d
Ġactiv ities
v iron
Ġt ariffs
as k
ut s
ĠI BM
Ġpro grams
ard s
year s
Ġcan not
Ġdet erm
ĠServ ices
Ġvi ol
Ġrecomm end
Ġprep ared
l ig
re st
le vel
ly ing
end ers
Ġout side
Ġmil itary
Ġresp ons
5 1
C A
N ational
Ġt echn
Ġfor med
ĠM e
ĠD ome
Ġ7 2
ran ch
Ġproject s
Ġbelie ved
Ġprot ect
Ġelect ric
Ġeffor t
epend ent
L C
R E
Ġt rend
Ġs ecurity
re x
Ġm ax
ĠD iv
De cember
ĠHold ings
ĠSal omon
p resident
Ġre tal
Ġre tain
Ġh im
Ġmin imum
5 4
B T
g l
g row
n ight
Ġg ross
cl ose
Ġ6 2
Ġfall ing
eal and
Ġguarant eed
Ġbre ak
9 00
T ex
Ġto s
Ġd raw
Ġl ife
Ġre li
Ġn ecessary
Ġst ores
Ġor gan
pr ise
c an
Ġw er
Ġl ines
ĠS ix
Ġcom ing
Ġhe alth
Ġus ing
Ġown ers
Ġfact or
Ġhous es
7 3
Ġin vent
Ġh ours
Ġst op
tern al
Ġro le
Ġfact ors
nes day
f ol
Ġc t
Ġc ocoa
Ġf ace
ad es
com mon
Ġ9 2
air s
ĠTh at
mon t
pre vious
share holders
Ġsubstant ial
bet ween
O S
a el
il ver
ĠBank ers
Ġindic ated
Ġrele ased
k y
Ġm ine
ĠE qu
ex change
con sider
ail ed
Ġoper ate
Ġprov isions
ĠAd ministration
imin ary
U G
d ing
f und
an a
at ur
Ġand the
Ġe ither
ot ton
Ġ7 6
Ġsoybe an
S outh
Ġ ide
Ġs ays
ĠF ood
Ġ12 0
ĠEx press
Ġbelie ves
Ġexpl oration
ĠSE P
Ġdou b
c redit
h ib
t ime
w oman
st on
ĠP ower
um in
ell ing
Ġcomp uters
Ġgu ilders
ĠAir lines
Ġgrant ed
Ġvis it
ĠIndones ia
z e
Ġt e
Ġt imes
re c
it or
Ġc irc
Ġp ract
ĠS ant
ur ned
ĠL uxembourg
ag reed
Ġ9 6
Ġinvest ments
get her
uc lear
Ġarr ange
Ġsuppl ies
ival ent
Ġdiffer ent
P resident
d am
r ug
ĠE cuador
cl us
Ġro und
Ġplan ts
Ġmanag ers
ĠUN TR
ĠPart y
ĠCalif ornia
ĠUNTR D
d le
u k
v is
Ġre b
Ġr ating
ee ch
um ulative
port ed
ug ar
Ġ8 00
Ġ14 5
Ġacquisition s
Ġconsider ing
emiconduct or
ĠArgent ina
7 1
P h
ic orp
Ġde fin
ĠF ord
Ġcon n
Ġun less
Ġhe said
am ily
Ġear ned
tern oon
Ġmonth ly
Ġoff set
Ġcompet itive
empt ion
enezuel a
ĠDav id
c ould
in ation
Ġin f
ĠC hemical
ĠS c
Ġun disclosed
ark s
Ġtr y
Ġ6 3
ĠK uwait
Ġremain ed
Ġmeas ure
Ġant icip
Ġve hic
E D
d in
h man
k er
Ġ ed
il ing
ĠN akasone
ĠG ATT
tr ans
oy d
19 85
Ġpurch ased
Ġrel ations
Ġair craft
Ġleg al
W A
u ction
Ġ ...
ing le
Ġst im
ain s
Ġqu ick
Ġreg ion
Ġconsider ed
ĠAPR IL
ĠComp uter
S A
g u
Ġh ome
ĠM et
Ġ7 00
Ġme an
Ġdisput e
b ro
Ġm ortgage
th rough
Ġnot e
land s
pec ially
Ġregul atory
Ġdil uted
y esterday
Ġc e
Ġp os
ow s
ĠL atin
ag s
pr ises
Ġacc ess
Ġhold s
fin ancial
Ġstart ing
Ġimp lement
ID S
Ġsoft ware
A ss
Ġt ro
ĠĠĠĠĠĠĠĠ ĠĠĠĠ
ish ing
Ġindustr ies
Ġco al
ĠInvest ment
Ġparticular ly
Ġpurpos es
L td
r ated
u le
ad just
ĠD ec
Ġal le
ĠZ ealand
Ġtel evision
ĠQ u
Ġwant ed
Ġbuild ing
ĠOffic e
Ġenter ed
Ġproper ty
Ġlaun ched
Ġf ee
ĠR oy
ig er
Ġ7 3
ap s
Ġfollow ed
Ġpar liament
Ġste ady
Ġlaun ch
Ġgovern ments
announ ced
Ġpercent age
in to
Ġp es
as tern
Ġl ot
Ġe vent
Ġst and
Ġcon version
ain ing
Ġun likely
pos ition
ĠUS Air
ĠAra bia
Ġprim ary
Europe an
ĠRich ard
M S
z oil
Ġc hemical
Ġw ater
Ġcon duct
Ġr ad
ĠD en
Ġass oci
Ġfac ilities
Ġfe et
ĠOr gan
B B
d isc
Ġin stead
Ġg iving
Ġpric ing
Ġgroup s
lo bal
Ġsubsid ies
Ġopt im
Ġact ive
Ġav oid
Ġden ominations
countr ies
A D
F r
b us
g ies
p oint
y l
re w
Ġc argo
ver aged
Ġdeb ts
Ġsup er
Ġind ividual
Ġhold ings
Ġaff il
Ġpred icted
Ġmarg in
a ize
d iv
u z
re ad
Ġc ol
ar o
ĠW ith
Ġk il
Ġatt ract
ĠAs ked
Ġconsum ers
Americ a
Ġlook ing
m ade
Ġf uel
Ġre n
Ġh app
ĠB ell
Ġsh ipment
Ġby the
out standing
ĠBank s
ĠAl li
ĠWh ile
ĠPart ners
industr y
Ġstrate gy
call able
a us
o pp
Ġt ight
Ġs aw
Ġp an
ent ion
Ġits elf
Ġr um
ific ation
Ġra p
Ġtrans fer
Ġauthor ities
Ġwarr ant
Ġimprove ment
rex el
9 8
i ans
at ure
Ġm ach
ĠM ont
ot a
Ġeconom ist
sh ore
Ġequ al
ĠEn ter
urs day
Ġwhol ly
Ġhar vest
ĠWed nesday
F irst
l ong
t el
on us
ĠH ome
Ġag riculture
ĠInc said
Ġres chedu
Ġ9 4
ĠPhilipp ines
employ ment
Ġnorm al
eut ter
th ird
Ġr ig
pro gram
Ġme ans
Ġass et
includ ing
crib ed
N P
Ġt reat
Ġw ants
Ġre new
Ġg reat
Ġwill ing
Ġcomm odity
Ġk nown
Ġpar ts
Ġrat io
organ ization
Ġborrow ing
olic y
M A
P r
er ate
Ġb ull
Ġw age
Ġm akes
Ġ9 8
Ġout look
Ġpart ly
Ġmeet ings
Ġwe ather
Ġexp endit
ufact uring
Ġconsum ption
comp et
Ġdiscuss ions
Ġrequire ments
Ġclaim s
ĠTer ms
9 3
a ult
Ġn eg
Ġn omin
ĠI ts
Ġas hare
ĠJ UN
row ns
Ġaccount ing
abil ities
Ġappl ication
curren t
Ġoun ces
ynd ic
cas ts
o ice
y d
re ce
ĠS A
ĠM AR
ĠB l
Ġwith draw
anc ell
ist rict
Ġop port
Ġint ends
Ġperiod s
Ġtel ephone
Ġauthor ized
ĠOffic ials
Ġele ction
Ġrecover y
0 7
A g
d el
w orld
Ġa way
Ġc oll
Ġp res
Ġf air
ut ton
ĠS T
ĠB usiness
ĠF eb
ĠIn stitute
man agement
Ġprodu cing
Ġspokes woman
Ġest ate
Ġfollow s
ĠAg ency
Ġlarg ely
Un ited
he ld
re ct
an y
ĠS um
od ities
Ġ9 3
fl ation
offic ial
Canad ian
Ġmov es
Ġmax imum
e aking
in ternational
in ental
er ation
Ġthe government
os l
Ġex porters
ĠJ e
ĠJ an
Ġpl aced
ug osl
Ġsp ot
Ġqu ality
Ġj ud
Ġcredit or
cont rol
Ġaccept ed
acqu isition
Ġsusp ended
Ġlb s
Ġcop per
Brit ish
Ġaward ed
- -
l ined
Ġthe c
ĠS ingapore
ĠE m
ach s
Ġcons ult
Ġposs ibility
Ġcover ing
Ġprospect s
y m
Ġd ut
Ġsaid the
ĠJ UL
se qu
Ġ7 4
Ġ9 7
ount y
ĠMan agement
Ġob ject
W h
u ge
Ġb rought
Ġin stitution
ec ond
com ing
Ġsp eech
Ġpre l
erv ative
Ġdeal er
Ġsur vey
Ġdes ign
St andard
comp ared
Ġunderwrit ers
Ġpost ed
Ġur ged
ĠCurren t
o x
Ġt ank
or on
Ġc ouncil
Ġp ush
Ġf oc
Ġm ot
Ġst andard
im pro
oc u
ĠD an
Ġwh ose
ere g
em and
Ġtr ying
ĠDe f
Ġam ounts
ĠAf ter
Ġexch anges
b l
an ley
Ġc ause
Ġp ipeline
Ġw inter
ut e
Ġh aving
ill e
Ġpro ceed
Ġ198 3
pl ace
Ġac res
Ġass um
Ġair line
under writ
Ġprincip le
pay ments
Ġregis tration
Ġbig gest
ĠBel g
A r
in ion
Ġs ingle
en cies
tr ading
all ing
ĠComm odity
okes man
Ġdevelop ed
Ġconcess ion
ugosl av
A P
A ustral
c alled
Ġ X
Ġt im
er t
Ġp ending
os ing
ĠThe se
ĠP ort
ĠP LC
du e
ag u
ag er
Ġpl ay
com mercial
com panies
Ġweek ly
Ġ13 0
Ġlead er
Ġreflect ed
Ġrepl ace
Ġvot ing
d ate
i ency
in et
Ġre forms
Ġn arrow
ĠM os
oss ible
ĠAl though
Ġsubsid iaries
ann ual
Ġproject ed
ĠSm ith
Ġtempor ary
Ġprel iminary
9 7
M oody
Ġ z
Ġt reasury
Ġs ize
Ġm o
ro s
Ġit has
ĠS ecurity
th ere
Ġab ility
Ġsp read
av ailable
ide o
Ġent ire
Ġcomplet e
Ġposition s
ĠDemocr atic
Ġbroker age
Ġcrit ic
ĠMich ael
Ġsat isf
6 2
e ared
l oyd
x imately
he at
Ġc ounter
Ġl ack
ĠC offee
ĠR o
Ġbe ef
Ġv ir
ĠP ublic
ĠD ata
Ġcomm un
In d
ollow ing
Ġexp enses
Ġdet er
Ġdividend s
Ġel imin
ĠAra b
bur g
b r
Ġs che
ĠS achs
un t
Ġex cept
ĠF utures
Ġr ated
Ġun certain
Ġnew ly
Ġtotal ed
ĠIndustr ial
Ġvers us
m iss
en ger
or ge
Ġto wards
Ġh av
ĠA IDS
pro ducts
ystem s
Ġhop e
ĠLe hman
Ġimmed iate
Ġresp ond
S w
f ield
s erv
or der
le ad
im b
ĠF ranc
Ġwill be
ain e
ĠD rexel
Ġbuy ers
Ġspec ulation
ĠPro ceeds
d r
i que
p in
t oday
w hen
in ese
Ġthe b
Ġe v
est im
Ġwith the
Ġbank ruptcy
Ġab s
Ġsu ffer
ĠAg reement
Ġcomplet ion
Ġposs ib
Ġcontrol s
Ġseason ally
Ġshipp ing
9 1
B S
u it
ĠC a
Ġfor ces
un aro
us ing
ĠW ar
Ġ7 1
ip t
ĠĠĠĠĠĠĠĠ ĠĠĠĠĠ
ĠNew s
Ġredu cing
Ġbas ic
ipp on
gr ade
Ġvar ious
Ġsuccess ful
y ers
Ġc are
Ġb onus
ĠT o
Ġsh ips
Ġwho le
min us
amp a
Ġfail ure
ĠLaw son
L E
ĠA pp
Ġfor ced
ch airman
ĠN on
Ġ198 0
end ar
ĠH utton
Ġpart ies
Ġ14 0
oint ed
Ġar ms
de velop
Ġpriv ately
ĠAss oci
Ġob lig
state ment
Ġcal c
4 2
e ffect
it ch
or ts
or age
id a
Ġd est
ĠT urk
ear nings
ĠL ife
ist ed
Ġ8 6
pro pos
Ġreg ular
Ġval ued
Ġcrop s
Ġproper ties
Ġdeleg ates
0 2
G E
J une
O P
o le
Ġw ait
Ġd one
il son
ĠB e
man n
Ġ7 7
Ġdis tribut
Ġtrad ition
Ġnor thern
iy az
Ġes pecially
Ġbus hel
Ġt y
Ġt ext
Ġw ent
ow ard
ĠD ou
Ġun f
per iod
Ġlast year
Ġ11 0
ĠV W
ĠTr ading
Ġtrans port
Ġdam age
Ġbenefit s
Ġoc cur
lant ic
c ow
g roup
r un
Ġto gether
il ed
om b
ĠI ll
ĠP C
ĠF arm
Ġr ule
ain t
iv ate
wo od
Ġ8 7
Ġweek end
Ġass istance
ĠTh ursday
Ġequ ivalent
Ġgeneral ly
Ġconcer ned
Ġrepay ment
Ġpos itive
i ence
o ot
Ġc urb
id el
ĠC L
Ġth ough
el t
res h
Ġiss u
ĠAfric an
Ġcommit ment
complet ed
O W
Ġg round
ĠP R
Ġal s
Ġres ources
ian a
Ġexpect ations
ĠY eutter
Ġbr ief
0 1
5 2
m ission
t urn
it ing
Ġc rowns
ĠC F
Ġst able
Ġ9 1
Ġaf ternoon
Ġworld wide
increas ed
Ex change
Ġsepar ate
5 3
T reasury
U M
c ost
h od
he st
es pite
ent ly
ĠM art
ĠB a
se ed
ber al
Ġ8 3
ĠCo ast
ĠFr ank
ĠRes earch
Ġrel atively
Ġnegoti ating
Ġconf idence
Ġstreng th
4 3
F ederal
s w
st he
ĠM ac
Ġex ecut
ĠF unaro
con vert
ort ium
EC D
mon ths
ON D
echnolo gies
Ġprom pt
Ġorigin al
Ġrap id
6 1
A C
A s
a ft
h ere
Ġs outhern
ĠC r
Ġde ad
um er
Ġthis year
Ġind ependent
put y
Ġext end
rel ated
ĠAs ia
Ġlim its
ĠPenn zoil
f ive
n on
y en
Ġp urs
Ġm aize
Ġin stru
ĠP ric
ĠE uro
cl ops
ure au
ĠEx ports
ĠSh are
Ġris es
ĠSp ain
Ġhop es
Ġorigin ally
gl as
O C
h ouse
s c
t ic
re du
Ġc umulative
ar ound
Ġw estern
Ġ198 2
all ow
Ġres igned
ĠSt anley
Ġtrad er
Ġfore casts
Ġmin ing
Ġadjust ment
offic ials
Ġant i
Ġcharg ed
Ġsum mer
Ġstruct ure
Ġtechn ical
oron to
M an
M AY
g ic
g ency
l oss
Ġs ought
ĠB udget
Ġex pos
ĠG l
for ce
ĠSt atistics
Ġdr illing
ffic ient
ĠSw ed
Ġflo or
Ġstreng the
Ġelectron ic
e ing
Ġs yndic
Ġf ra
ol ine
Ġr ice
Ġtr uck
Ġmer ch
Ġhelp ed
Ġexerc ise
ĠRoy al
C ol
er ated
Ġto be
Ġd ocu
om ent
ĠA A
Ġfor ward
Ġg lobal
ĠF ull
ug hes
Ġ8 2
Ġoil s
ĠComm unications
Ġra il
ron ics
curren cy
Ġvot ed
A F
S h
er ed
it a
ic a
ĠA ct
Ġon ce
Ġv ia
ĠM ost
ĠB P
ra ce
ĠN ov
ab les
Ġ7 8
Ġcomp on
Ġcontin ues
Ġ199 7
me eting
Ġprocess ing
Ġsubstant ially
Ġdep end
Ġmater ials
iyaz awa
g el
i ment
m ing
Ġa ctions
Ġa uction
ar io
Ġb ags
as ing
Ġ7 9
Ġop inion
vers e
Ġco oper
Ġsupport ed
Ġrepresent ing
Ġconf ident
Ġrele ase
Ġpubl ished
Ġreschedu ling
. )
A t
ar a
Ġof s
ur a
Ġst at
ĠB u
ĠN Y
ĠL abour
um b
Ġab road
ust er
Ġpre tax
Ġdiv ers
Ġ0 4
ĠEx port
In dustr
ace ut
arm aceut
irect or
Ch ina
Se ptember
Ġcompar able
Ġquick ly
b ass
g ment
re al
Ġf lex
Ġof its
Ġh uge
ĠA TT
ur er
and a
Ġrem arks
orpor ate
ino is
ĠSte el
Ġrestrict ions
5 8
H E
P ro
T el
i ac
Ġb ad
et y
Ġit ems
ĠM ill
Ġde creas
oc al
ĠE astern
ab inet
our n
Ġac re
ĠDe pos
be fore
ĠPro ducts
iven ess
Ġport fol
ĠCit icorp
armaceut ical
m ay
Ġs ide
it zer
Ġf ees
ig hest
pro t
iss ue
iz ing
Ġ0 3
ĠAn other
int rodu
grow th
G erman
I G
a ur
ĠB al
res p
ĠP ol
am a
con dition
ant age
Ġinterest ed
Ġreg ard
ĠSe a
ild ing
ĠBo eing
Ġwar ned
Ġjob s
Ġowners hip
Ġalle ged
' ve
0 8
6 8
A TE
A PR
I B
L e
d om
f our
r i
v ille
Ġm aker
ou l
ĠC orporation
ĠM o
ver ted
Ġde press
am bert
Ġ8 4
ĠĠĠĠĠĠĠĠ ĠĠĠĠĠĠ
pro duct
ĠV al
Ġra in
Ġlower ed
comp uter
Ġauthor ity
Ġborrow ings
Ġregis tered
Ġcal endar
ĠCont inental
Ġut ility
din ary
adjust ed
0 3
W ar
Ġc otton
ĠS ub
ow ers
Ġ8 1
ĠV enezuela
Ġcut ting
Ġmat ter
Ġfe el
Ġred emption
ĠProdu ction
c or
Ġf ight
Ġin February
om bia
Ġre ady
ĠB ur
ĠB urn
Ġde fic
Ġex ternal
Ġ9 00
ous ly
ĠCh inese
Ġreg ional
Ġrequire ment
Ġdiplom ats
Ġmatur ity
Ġneg ative
h ance
u h
u rol
Ġa ud
Ġs outh
Ġd ist
Ġl ire
Ġh ot
ĠC he
Ġas k
Ġun employment
Ġhe aring
Ġbank er
for med
Ġ8 9
Ġim pos
ail and
Ġlo ad
ĠY ugoslav
Ġprov ides
Ġfund a
Ġbid s
De partment
Ġport ion
industr ial
Ġfav or
countr y
Ġconn ection
Ass ociation
itzer land
A d
b el
Ġo ld
al so
ig ital
im p
Ġpl ed
Ġappro ve
Ġresult ed
Ġsect ors
Ġli beral
ĠInd ia
ME X
ĠQ ue
ĠTel ephone
ĠCl ass
IT I
Ġwrit e
T I
h io
Ġo re
Ġc ity
Ġp alm
is se
Ġand s
ĠC able
ad dition
ac he
put ers
de velopment
ĠExchange Commission
Ġexp ressed
fin ancing
pre ferred
ĠBo th
gress ive
go ing
Ġoun ce
Ġreli ef
ĠMos cow
ampa ign
I A
an ctions
or ida
Ġw el
om es
ĠS outhern
ot ed
Ġr ubber
iv ity
ac cept
ex p
Ġass ociation
ĠTh om
Ġcons ortium
Ġint ended
Ġfund ing
form ing
Ġret ire
Ġresult ing
Ġrepresent s
Ġcustom er
aut hor
Ġaltern ative
urol ator
4 8
M I
O B
r ates
Ġthe l
ĠR ed
ot ing
Ġcon clud
Ġat the
Ġthat the
ĠD u
Ġtr anc
Ġ10 2
Ġcomp ens
Ġ12 7
Ġeffect s
Ġco operation
omin ated
ĠGold man
E T
i pan
Ġb ur
Ġw in
Ġm illion
ĠT echnology
el ves
ĠB ond
ear ly
ĠE l
ĠJ ose
ĠL iber
ich i
Ġlarg er
high er
ĠDou glas
6 3
M B
e ated
h alf
s ales
he lp
Ġs ilver
it ors
Ġc attle
Ġb an
Ġm oment
Ġin j
as is
Ġth ought
Ġv ess
ĠN AS
Ġcon cent
por ter
ĠE ach
Ġor dinary
op ted
Ġse at
ĠAl so
Ġval ues
Ġent it
ĠPr ior
Ġrepresent atives
Ġsuc ceed
Ġopp osed
econom y
Ġpass ed
ĠTrans port
Ġrefin ery
c us
i os
v re
ing er
un it
ch ild
ear lier
ol iv
ist an
pro ject
Ġsub s
Ġsub committee
ix ons
Ġstate ments
Ġpriv at
Ġpers hare
Ġestabl ish
Ġsuggest ed
Ġsche me
convert ible
ourn al
R es
m et
w orth
Ġin cent
ut es
Ġh ist
ĠT WA
ad v
ĠA ff
ĠM er
ĠW ork
old s
Ġim bal
Ġoffic es
Ġapp eal
ount ing
Ġam end
her lands
Ġshort age
ufact urers
Ġrest ated
att an
gr aded
Ġgre w
Ġrun ning
ĠGen Corp
rep resent
Ġbeh ind
Fin ance
OND ON
F R
S he
c over
Ġ ill
on ey
Ġp ick
Ġf amily
ĠC os
un ction
un ities
Ġst ood
Ġy e
ul k
Ġfrom the
ĠG ree
Ġ8 8
its u
Ġapp eared
Ġinvest ig
Ġplan ning
Ġappro ximately
isc o
Ġmanag ing
Ġthem arket
Ġinit i
Ġdiscuss ed
Ġcorpor ation
Ġyield s
Ġden ied
ĠLou is
ĠCy clops
Ġdeterm ined
d a
k ers
m id
n o
o o
Ġp et
Ġm akers
id ge
ct s
ĠT ra
ĠI CO
ĠM ach
ĠM iyazawa
ig an
ir ms
Ġsh ut
ĠL loyd
ĠH oward
Ġhe ct
ub ic
pr iate
ap ter
Ġ10 4
Ġse em
Ġ16 0
Ġcommon stock
Ġtel ecommunications
invest ors
SE P
Ġthef irst
ĠSup er
ĠBanc orp
Ġparticip ation
Ġexpos ure
J UL
M P
h attan
z en
ro se
ay ton
Ġcon v
Ġcon gress
op en
Ġk e
Ġk ind
Ġsign s
Ġref used
Ġmost ly
ĠOP EN
Ġhop ed
Ġestabl ished
uts che
atur day
Ġte am
Ġpes os
g eneral
g pin
t ake
v an
Ġp op
Ġm icro
Ġre organization
Ġh ost
Ġ3 50
con f
op e
pr i
Ġinter ven
Ġ10 8
ĠĠĠĠĠĠĠĠ ĠĠĠĠĠĠĠ
Ġbuy out
egoti ations
Ġform al
Ġconf irmed
ĠAc cording
offer ing
osp ital
E P
m ember
Ġ ens
ed own
Ġp oor
Ġf resh
Ġd raft
ĠS im
Ġst ay
ig ger
ot o
ĠN iger
Ġcon tribut
Ġad equ
Ġsp ring
ire ction
pro posed
ĠK ing
Ġpay s
ĠCh ase
hold ing
Ġcons ist
Ġgain ed
Ġadv anced
ĠLyn g
ĠCurren cy
Ġdelay ed
Ġachie ve
Ph il
Ġpan el
ĠAssoci ates
N or
Ġs af
re me
Ġin January
ou ston
et e
st ill
Ġh ighest
ĠS ugar
Ġde v
qu isition
pl oration
ĠO ECD
cl os
Ġim posed
gy pt
val uation
Ġshort ly
Ġreflect s
Ġsignificant ly
ĠMarket s
div idend
5 7
C I
h ard
r ation
re am
ar rel
Ġf ile
Ġcom ments
ĠN V
ign ificant
Ġ12 6
Ġapp ear
ĠTr aders
Ġint eg
val u
pre c
Ġmet hod
ĠGM T
Ġmater ial
bit ra
Ġide a
umin ium
Ġdefin itive
I ran
i ance
k l
m y
p ers
re y
Ġto ward
Ġl if
qu ir
ug g
Ġcomp ares
Ġannoun ce
Ġappl ications
ĠRep resent
bu y
Ġele ctions
Ġoptim istic
4 1
c ut
c ourt
s en
er osp
Ġthe dollar
Ġin v
ĠT wo
Ġcon tr
ec om
the ir
Ġpre c
pro cess
Ġall oc
Ġen viron
Ġra w
ful ly
ffer ies
Ġcre ate
elect ed
Ġsoybe ans
ivers ity
Ġstep s
oe h
Ġoblig ations
C ons
o vers
Ġ er
it z
as ons
ic ated
ĠI CC
ĠP an
and al
od e
ĠO hio
ex port
Ġch ip
Ġrec ession
Ġdebt or
Ġoff shore
ĠPl an
ĠStock s
Ġshe et
Ġprim arily
ĠSun day
ĠBurn ham
ipan ts
2 50
E B
P er
V ER
f ord
m aking
Ġa year
Ġs ust
es ars
Ġc oin
Ġb and
Ġl ay
Ġh al
Ġdlrs in
Ġpct of
rom ise
ĠH ughes
to res
Ġcomm odities
pro ble
act ory
Ġ12 4
Ġappro ach
ied mont
mon ey
Ġ199 1
Ġmin or
ĠPay ment
Ġmet al
err y
Ġpoint ed
contin ue
ten berg
Ġexclud e
Ġregul ations
ĠItal ian
Ġmarg ins
Ġencoura ge
previous ly
N Y
d emand
u j
in it
Ġs em
re ported
or b
Ġto b
Ġd u
ut ual
Ġn orth
ĠA B
ĠI I
ers ey
ĠRe g
ol tenberg
ul ating
Ġ198 1
ĠD ollar
ĠL DP
ĠG NP
Ġres ign
ok e
Ġ10 3
eral s
Ġapp ears
Ġbu ilt
ob ile
Ġrecord ed
ĠOn gpin
Ġallow ing
ĠAss ets
Ġimport ed
uc cess
Ġsmall er
Ġprovision al
Tr ans
Ġmov ing
ĠGe orge
ĠMalays ia
Ġfoc us
6 9
F rench
Ġc ourse
Ġp ension
Ġd ereg
ĠT urn
ĠC D
ĠC ounty
Ġpro ced
im ited
Ġr and
Ġhas been
ex ports
ult z
Ġtrad es
Ġinfl u
Ġris en
Ġtarg ets
Ġshe l
Ġpass enger
Ġflo ating
ĠPhilipp ine
Ġsol ution
Ġnomin al
ĠDef ense
War ner
O Y
e ase
f arm
Ġt en
Ġs anctions
Ġw ays
Ġl abor
ĠS pr
ĠS aturday
ĠI r
ĠD istrict
ac ing
am b
ĠO ut
Ġstock holders
Ġ10 5
Ġim pl
ven ue
Ġass ess
ik e
quarter s
Ġadvis ory
Ġvehic les
ĠMill er
A W
W ashington
m akers
p le
in flation
Ġthe d
Ġp o
Ġre act
Ġst orage
ĠL ambert
eb ber
Ġse es
eg al
Ġprov iding
Ġar g
Ġdevelop ments
Ġadv ance
Ġrat ings
uct u
bond s
ĠJohn son
Ġcommit ments
Ġinvent ory
ĠAlli ed
5 9
h i
k in
r ange
Ġs ides
Ġc ases
Ġto ugh
Ġn uclear
Ġbe g
Ġv eto
ĠP urolator
ĠW al
ub sidiary
Ġac ross
ist ant
Ġ14 6
In vest
Ġsecond ary
pre ad
Ġmat uring
Ġcarr ies
Ġdifficult ies
Ġwid ely
Ġemer gency
ĠMed ical
rece ived
C hr
d uring
f urther
i en
Ġw ind
il a
Ġsaid its
un ch
Ġcom pr
ĠD onald
ĠH er
ag en
Ġ7 50
ib ank
ap se
Ġup on
ĠHe alth
Ġdo ing
Ġdes cribed
Ġdirect ly
Ġinit ially
Ġsum mit
Ġstim ulate
Ġcompon ents
gel es
N E
k a
l ow
m a
x on
on ly
Ġc ampaign
Ġp etroleum
Ġre ally
Ġe ast
ĠS ince
ĠS oybe
ĠB ec
ol m
ĠN ippon
ex ecutive
Ġcomm itted
Ġcomp lex
ĠJapan es
Ġacc r
sh ip
arr is
Ġcontrol led
ĠAm ong
og n
Ġtot alling
ĠDemocr ats
Ġcre ated
appro ved
ĠFl orida
A f
P l
S ecurities
l ower
m ain
re es
es ale
ar les
Ġe ased
ĠS tores
ĠB rown
ra el
and e
ĠG rain
Ġle ave
ven ues
Ġapp ly
ĠY esterday
Ġ14 7
ĠSw itzerland
Ġretal iation
Ġunf air
erosp ace
G roup
f ell
in n
re ight
it es
Ġc li
ĠT oronto
Ġbe ar
ĠM iss
ĠM ining
est ock
im port
ak istan
str ong
Ġch ance
ail ing
ss aid
In ter
Ġdecl ining
Ġexp ire
Ġnegoti ate
Ġgas oline
ĠMan hattan
Ġgr ade
Ġjoint ly
Ġconf irm
Ġdef ense
expect s
Ġel abor
Ġguarant ee
deb entures
ĠRepublic an
Ġrad io
disc uss
A m
d o
h a
k i
t ra
y r
Ġs erve
Ġb arr
Ġb ulk
Ġm is
Ġn ever
ĠT ax
ĠT echnologies
th qu
Ġcom es
le et
ĠM or
ĠM TH
Ġst age
ĠB er
ĠN IL
Ġcon verted
ec ured
pl ans
ell er
Ġpart ner
Ġoper ators
Ġmanag ed
Ġtal k
ĠAir bus
uc ks
amp le
Ġmod est
rem ely
sth at
ĠAb out
Ġrig s
F or
H e
L aw
M c
Q tr
Ġs emiconductor
Ġc ubic
Ġm ass
Ġe ver
ir ation
im med
Ġwh y
ĠL os
Ġun able
Ġch ips
Ġcont act
Ġover night
Ġ12 9
ood s
Ġreport ing
Ġno thing
ĠWest German
ob il
ink ing
Ġannual ly
Ġdr ive
Ġgu il
Ġmanufact urers
ĠGu arant
Ġinstitution al
Ġvir t
f ranc
z a
Ġp le
al ty
st art
Ġg ot
Ġde part
ĠH igh
Ġad opted
Ġsp eed
ĠCom mercial
ms elves
Ġthey ear
Ġunder lying
ĠTh ailand
Ġ17 0
Ġsec ured
vol ving
aff irmed
ĠDemocr at
ĠIm ports
Ġexpendit ure
estim ated
Ġpossib ly
Ġtradition al
ĠIll inois
Ġportfol io
C ar
C ongress
M inister
y a
Ġc abinet
Ġf ro
et r
ĠC al
ĠM erc
ĠF ar
ĠD ow
ĠH ouston
ĠO ffer
all en
ans as
Ġme at
Ġme ant
Ġso le
Ġback ed
DA Q
Ġve get
Ġresol ve
ĠDiv ision
N et
P I
a ugh
g round
w ater
Ġt ap
in come
Ġc le
ar ts
Ġb ed
st im
st ances
Ġre action
Ġh er
Ġh alt
ĠC or
ĠB ureau
Ġsh ift
and on
ĠD aily
ĠL a
Ġrec ogn
eg raph
Ġoper ates
ĠTh ird
Ġbar ley
chedu le
Ġrul ed
Ġorder ed
Ġborrow ers
now led
Ġstrik es
Ġes c
Ġachie ved
Ġanticip ated
Ġtreat ment
impro ve
ĠCF TC
a verage
d es
Ġa ide
re cord
an que
or gh
Ġl enders
ĠC CC
ĠRe yn
os n
ect or
Ġ4 50
Ġad opt
Ġres ume
Ġprofit able
ĠK en
Ġ18 0
Ġext ension
oper ating
Ġloc ated
Ġcomb ination
ĠInter est
Ġsusp ension
Ġpred ict
Ġrespons ible
Ġce iling
ancell or
S C
k en
p olicy
Ġs ocial
an alysts
Ġthe t
Ġb es
ro vers
ĠT e
ĠC an
Ġmln tonnes
iv il
ĠH aw
per forming
am er
ĠO f
man ager
Ġle ase
for t
che qu
arr y
ĠAl leg
off s
Ġdemand s
Ġallow s
Ġli abilities
St ates
cr ipt
ĠLo ans
Ġident ified
ĠMalays ian
Ġassoci ated
Ġaffil iate
Ġexecut ives
Ġhect ares
7 50
C on
E lect
T A
f ollowing
g ical
l aw
p ublic
s ome
Ġt in
Ġs ym
Ġm or
Ġm ill
st g
Ġh our
Ġis expected
Ġde ep
ĠL and
fer ring
ĠO ver
com es
Ġqu iet
air y
Ġrep eated
Ġcor rect
val ue
.... ..
Ġaccount ed
ett e
ĠAc quisition
emiconduct ors
zer o
Tex as
ĠCa esars
ĠReyn olds
' m
I R
O ctober
P acific
R ep
W orld
f ac
p okesman
t ario
y ond
at ures
Ġb ranch
Ġf ire
Ġf ears
Ġof S
Ġl in
Ġh um
Ġit will
ĠS ep
Ġbe yond
Ġr up
Ġr anging
Ġun ions
ĠO ct
pr incip
ap ers
Ġeconom ies
ĠCh apter
ens pan
19 88
sh ould
Ġdec ide
ranc hes
Ġgo al
Ġpartic ipants
acqu ired
ĠSE TT
Ġfield s
Ġdou ble
ĠLou vre
Ġmiss iles
Ġwor r
Ġacre age
Ġens ure
oeh l
L L
M AR
P ar
a ffect
p ower
in ery
Ġa veraged
Ġb ody
Ġf inis
Ġm ar
ut ure
Ġe ase
ĠM ines
im ate
us hed
ĠF ees
Ġtr igger
pl ant
ap pl
ĠNet work
onn ell
Ġro om
we et
Ġ13 5
sh ort
de ficit
Ġext ent
ĠUnited States
Ġprot est
appro val
Ġrecommend ation
ĠOrgan ization
C ent
M R
b udget
d et
d omestic
m inister
p ass
Ġs ure
Ġre asons
ad a
ĠB ay
ĠF air
ĠD is
ĠD omestic
Ġdis close
Ġout l
ĠNet herlands
Ġapp rec
Ġj ump
cast ing
Ġcarr ied
work ers
Ġemploy ment
Ġinvol ving
Ġclos ely
eth ing
Ġhand s
Ġgovern or
Ġpat ent
Ġengine ering
Ġpract ices
yd ro
OP EC
Ġstat us
ĠQue bec
Ġbeg un
A ug
C ont
H K
a vi
i ents
l arg
u an
om o
ment als
ĠD espite
ĠD ixons
Ġag encies
Ġdeb ate
Ġdis pos
ĠK e
ĠK ar
ĠCh arles
Ġany thing
Ġredu ctions
Ġthrough out
Ġconsider ation
ah n
Ġdef end
ĠUN CH
sub sidiary
Ġwrit edown
Ġrenew ed
ĠTurn over
orgh um
M ed
O r
T V
d if
r is
Ġp en
Ġp ace
Ġb ilateral
Ġf ast
Ġl it
ĠT an
ad o
ĠS ar
ĠA T
Ġst ore
Ġg ives
ĠB org
Ġex am
ĠJ ersey
ĠH en
em p
all ad
Ġle aving
Ġch oice
Ġ10 6
iss ued
Ġrec apital
Ġ14 9
Ġen able
tain ment
ĠAn geles
Ġsubsid y
de al
Ġintern al
Ġlow est
Ġsm el
pric ed
Ġsc andal
ĠShe ll
Ġfree ze
Ġlic ens
ĠJe fferies
Ġbushel s
M O
N orth
c ustom
g ers
n et
an other
it r
id der
Ġd irection
ĠT aft
pan ish
um stances
ĠCorp said
che s
Ġdeal ing
ever al
val ued
ĠSh ultz
ĠPar liament
Ġunderwrit er
ten ance
Ġpe ak
Ġtest ing
Re agan
ĠSant a
Ġev idence
ĠNY SE
addition al
D EC
D onnell
O ur
er o
at ers
Ġh urt
ĠS ocial
ur ning
and id
ĠL abor
Ġhe d
ac co
am en
ĠW right
op per
com puters
Ġsp end
ĠV ir
lo g
Ġshow s
Ġvol at
Ġsc ale
Ġdeliver ed
Ġrequest ed
ĠCol ombia
ĠIraq i
Ġlink ed
Ġmo ved
Ġdepress ed
1 50
E E
L ondon
L ONDON
c ash
g es
t old
v als
w ar
Ġthe country
Ġm em
om a
ĠM il
Ġpro f
res pect
ĠP ost
oc on
ĠD rug
ĠG er
ex pan
Ġpl at
Ġ10 9
Ġprov in
de f
ĠSe ven
emb ly
Ġprogram me
Ġem ph
Ġadv antage
Ġmove ment
ĠAs ian
ĠAt lantic
Ġmod els
Ġinvol ve
ump ing
Ġbring ing
ĠMid dle
ĠGre en
ĠEnter prises
ĠTurk ey
Ġsyndic ate
ĠNiger ia
thqu ake
a ver
g reg
t aking
y an
Ġ zero
Ġb ott
al y
ĠT ariffs
ĠT oday
Ġth ings
ĠS am
ĠM ore
ĠB as
ĠP et
ĠP oehl
ĠE gypt
ĠH o
Ġtr ip
ell s
ant ile
Ġper mit
Ġcomp romise
Ġadd ress
Ġ12 3
Ġacc el
itt ing
Ġdecl ines
Ġdec isions
Ġco ast
rain ing
Ġfl uctu
ĠAir ways
ĠĠĠĠĠĠĠĠĠĠĠĠĠĠĠĠ ĠĠĠ
Ġgr ad
Ġrecomm ended
Ġcompl aint
IG H
J uly
N A
f ree
h is
re f
ou pon
Ġn e
ĠR iver
ad el
ĠA F
ay ing
os en
ir ac
im ports
Ġal one
ac cording
am ount
ĠW ilson
all as
com b
pr ivate
ĠSt oltenberg
Ġdis app
Ġ12 8
Ġ11 1
Ġbuy er
Ġdeal s
Ġset ting
ling ton
Ġstrong ly
AS T
orn ey
pec ial
Ġget ting
Ġsett le
bu ilding
dec l
Ġdam ages
atch er
Ġintent ion
Ġthreat ened
Ġmatur ities
Ġinvent ories
Ġconduct ed
A G
D B
I V
c ks
m ajor
w he
w estern
re cent
Ġc ard
Ġw ide
ro y
Ġth r
ad ded
ĠM el
ĠB ah
Ġex clus
ol a
ect ed
ĠJ ust
ĠJ ones
ab ody
ĠW heat
Ġwould be
pp ing
com ed
Ġpre fer
Ġcomm unity
Ġsub mitted
Ġmore than
ish i
Ġcent er
Ġcarr ying
Ġmet als
Ġconcer ns
ides pread
Ġregul ators
Ġrepay ments
ĠChr ist
ĠIs rael
requ ire
Ġdeterm ine
Ġjud ge
ĠBelg ian
Ġcommun ique
Ġinstru ments
HE AT
resp ond
Ġconclud ed
ĠSoybe an
Ġveget able
osn off
chequ er
B R
I tal
W ebber
f e
n amed
p urch
Ġt akes
Ġs ite
Ġin spect
ic o
Ġe valu
ĠC H
ĠM at
ĠM ark
ĠP iedmont
ĠF e
ĠL ib
Ġag ent
ag ree
Ġsp eaking
for ward
Ġdis miss
Ġ12 2
vious ly
ĠEn d
ipp ed
Ġadv ances
Ġtender ed
Ġmembers hip
Ġelect ed
Ġreflect ing
equ ity
Ġmult i
Ġdut ies
Austral ia
ĠPort ug
Ġcongress ional
Ġcli ents
B E
G ulf
S G
b eg
c orp
i h
v a
Ġd i
Ġde prec
ĠP aine
ĠE cus
Ġcont ain
Ġpre ference
Ġwe ight
Ġk illed
cer tific
Ġfall en
Ġpresent ed
oura ble
Ġjoin ed
Ġobtain ed
Ag riculture
ĠDepos its
ĠLiber al
Ġelabor ate
B O
C l
c a
c lear
m od
re en
Ġthe United
Ġc ere
at ter
Ġin ject
ĠC SR
ĠS tr
ĠS eries
ch ief
est abl
ĠP at
ĠN avy
ĠF ive
Ġcon tributed
Ġat tributed
ĠE D
ĠE ar
Ġhe av
Ġup ward
Ġpre par
Ġinvest igation
ĠTh ree
Ġus ers
Ġbusiness men
Ġar bitra
Ġact ual
ĠOn tario
Ġshow ing
Ġsever e
ator ies
Ġrepresent ed
Ġcover ed
Ġca ut
Ġformer ly
Ġplace ment
Ġwrit ten
An d
Ġlic ense
iet y
ĠMid land
Ġarrange ment
Ġrum ors
Ġopport unity
ĠYugoslav ia
Ġke pt
Ġdereg ulation
G M
S L
f urt
l ic
p es
s l
Ġs qu
it ter
Ġof a
st ar
ĠA MC
ĠI R
Ġst ated
Ġ2 10
ĠB BB
ig e
Ġex c
ĠF OB
ul atory
ĠD omin
ĠL ight
ĠH an
ub ishi
port ion
se ver
Ġse ats
its ubishi
Ġapp ointed
ĠEx xon
Ġacqu iring
Ġappro priate
Ġrem o
me as
ĠEconom ists
Ġexpand ed
ĠSup reme
Ġelectron ics
Ġaccr ued
A UG
N ovember
p aid
or ing
et ter
Ġl ive
Ġl abour
ĠC BT
ĠA p
est o
ĠF uj
ĠIn formation
ul ph
Ġr ing
ĠE ST
ĠJ un
ĠJ ul
per ties
ĠO CT
Ġear n
Ġend s
Ġoil seed
ass ets
Ġcommon shares
Ġrequ ires
Ġ199 4
fin ance
Ġrel uct
Ġstrong er
ĠMan ila
Ġcompet e
Ġcompet it
Ġexclud ing
Ġel ig
pay ment
Ġwhol esale
Ġweak ness
Ġinst all
Ġdoub t
Ġdut y
effect ive
condition s
Ġimpos e
ĠWork ers
F C
U T
e als
Ġt ests
Ġc ross
Ġin form
Ġd rought
as uh
ĠS osnoff
ch anges
Ġ2 40
ĠB onn
du l
Ġits aid
Ġal leg
ast e
Ġres ident
Ġsp ace
und red
Ġcomm unications
Ġdis ease
eb t
erv atives
Ġ11 2
Ġ11 5
ĠCh ancellor
aw are
Ġrep urch
be ing
Ġbec ame
ind ing
ĠOper ating
ĠMan ufacturing
ĠCongress ional
Ġguarant ees
Ġtra ffic
ĠMich igan
acc ount
Ġsent iment
Re uters
Ġvehic le
Ġcoll apse
Ġminor ity
Ġcaut ious
A B
L R
i able
w a
Ġthe mselves
Ġb ranches
Ġto w
Ġd anger
om ura
Ġg ap
ot ive
ir cu
ow a
Ġde g
ĠG ross
ud ential
od ak
if ying
ine ering
Ġinter bank
Ġse ems
iz on
ĠUn it
Ġcl imb
Ġcent re
Ġ17 5
Ġwork force
Ġsign al
Ġserv ic
Th at
stitut ions
ĠMan y
hen y
Ġcorpor ations
Ġbal ances
Ġappl ied
Ġcertific ate
Ġopport unities
Ġamend ment
Chr ysler
asuh iro
d irect
i ated
p ossible
u isse
Ġs ound
it ude
it omo
Ġp orts
Ġan ew
Ġe uro
ĠC ocoa
le in
Ġst o
Ġst ra
Ġst atistics
ĠB y
res ult
ig ures
Ġdlrs from
Ġex ample
Ġ19 0
ĠN e
ĠD irector
are t
Ġal ways
ĠH ot
Ġtr ucks
str ate
Ġac om
Ġab andon
Ġoffic ers
onn el
Ġj ournal
Ġcons olid
Ġthere fore
Ġpol ice
Ġext remely
Ġsec retary
Ġdisc over
Ġshort fall
Ġnegoti ated
Ġsurplus es
Ġris ks
aren tly
Ġgrain s
oft ware
Ġph ys
Ġprotection ist
Ġuncertain ty
Ġpurs ue
ĠThom as
Ġvess els
ande z
' ll
a is
c ap
g en
k nowled
o en
p et
r ise
Ġ '
re ak
Ġf elt
Ġin sider
Ġl ift
ĠR ob
ur ies
ĠB ill
Ġde mon
ĠP eter
ĠN EC
ĠJ AN
ĠL y
ĠG DP
ĠW ood
con ference
Ġad vert
Ġch allen
iss ues
Ġse amen
Ġ15 5
Ġ13 1
med iate
Ġhold er
Ġexport ed
ipp ing
inter vention
Ġpress ures
ĠInd ian
ĠSp eaking
ĠBro ad
ĠFor ce
Ġdeliver ies
ern andez
Ġincreasing ly
Ġph ase
ĠAut om
Ġstandard s
Ġwait ing
ĠMart in
IB OR
ĠGree ce
Ġpet ition
augh ter
B o
H ouse
O n
T aiwan
p lement
Ġre ad
ĠC orn
ill ips
el man
ĠA N
ch arg
ĠM ON
Ġpro s
ĠF our
ul a
ac cr
tr y
ĠO t
ant ed
op h
ire less
arter ed
Ġoper ated
part ic
Ġwork ed
lo an
wh o
Ġemploy ers
bo th
ĠTel ecommunications
reg is
Ġintrodu ce
Ġboost ed
ĠCons olidated
ĠCit ibank
Ġeas ier
Ġfr ont
ask a
Ġkil os
E G
G en
P L
b id
e in
p ol
z i
Ġs oy
an while
Ġc ore
Ġf ear
Ġm y
Ġan agreement
Ġre uter
ch an
Ġcom prise
Ġst ressed
Ġst arts
Ġsh own
ol iday
ĠN atural
ĠF DA
ĠU til
ĠG AF
Ġnot ing
man aged
man ufacturing
ell ig
ade qu
overn or
erv ation
ĠDe utsche
Ġ13 4
Ġhigh ly
ĠAl an
Ġint end
inc o
Ġplant ed
12 7
Ġfac ed
ron ic
Ġrepresent ative
ĠFed eration
eth at
ĠMarket ing
profit s
sup port
ĠtheS ecurities
Tex aco
Ġattract ive
propos al
Ġwel comed
Ġtranc he
ĠRepresent ative
Ġrecapital ization
Ġsto pped
3 50
S I
h and
m embers
w in
it able
it erated
Ġc our
Ġc ount
Ġc andid
at o
Ġf ats
ĠT oy
ĠC hem
Ġ2 25
ĠB B
Ġde puty
ra ised
and ise
ĠL i
ĠH el
ric ted
Ġ5 50
ip e
Ġmon itor
Ġpr in
ĠV ice
Ġow ed
Ġcontin u
Ġcall ing
Ġco ordin
yn am
ĠPro gram
Ġmer ge
Ġfl ights
cent ral
Ġbl ood
Ġhead ed
Ġmod erate
Ġborrow er
ĠUN C
cons um
Ġquest ions
underwrit ing
Austral ian
Ġflex ibility
Ġdecreas e
Ġdefic its
Ġbur den
ĠMach ines
ĠLloyd s
Ġshel f
ĠGuarant y
Ġvirt ually
ĠMerc antile
Ġheav ily
A ll
G u
b our
c le
e em
f irst
i ot
k o
m ar
p at
in surance
Ġw ages
Ġm and
Ġin cur
Ġh og
ĠT imes
Ġth ing
Ġth us
ĠS uch
ow ed
im al
ĠP akistan
um bia
pl ed
igh ter
ip ts
Ġcomm itt
Ġdis tributed
ĠK odak
Ġman age
ĠTh atcher
Ġsu fficient
Ġ16 5
Ġact ing
Ġret urned
Ġexp iration
ene fic
Ġent ry
Ġdr y
Ġpers on
Ġdef ence
ĠTel egraph
ste in
ĠCl ayton
ĠCar l
prov ide
Ġaltern atives
Ġtext ile
Ġsem i
Ġdeprec iation
ulph ur
C BT
I raq
O M
b pd
n ext
p ack
s yl
t a
u ctions
re ated
it ation
Ġc oun
Ġc old
om ing
ĠR en
Ġst ation
ĠU t
ĠE X
ĠL ong
ĠH arris
ast ic
ag on
the ast
ell ed
TE D
Ġsp ent
Ġinter im
Ġpre v
Ġprofit ability
Ġunder way
Ġ15 2
Ġro ad
Ġ11 4
Ġ11 8
Ġ11 9
Ġ14 8
Ġwe aken
part ners
Ġatt end
hor ity
will ing
ffic iency
Ġthes ame
Ġmod el
Ġmod ern
curren tly
Ġbr ings
ĠCons ervative
ĠPe abody
Ġut il
Ġvers ion
ĠMe anwhile
Ġfair ly
ĠSwed en
Ġye are
Ġiniti ative
Ġenviron ment
proble ms
rovers ial
allad ur
D ec
F ed
S en
S ecretary
c c
e fin
s ecurities
w ise
y ield
es aid
Ġc anc
Ġc ivil
al ready
Ġin sur
ro ck
as er
Ġl isting
Ġh on
ĠC ap
Ġth in
ĠM ITI
Ġpro hib
os hib
ĠP etro
ul ations
Ġr ally
ĠD allas
iv estock
Ġcompany said
out he
Ġac knowled
Ġim m
vi ation
ĠK idder
arg et
ĠUn iversity
Ġfirst quarter
Ġremain der
Ġatt ention
me al
Ġnear by
Ġlook s
Ġintrodu ction
Ġeng ines
prov ision
Brit ain
Ġrelations hip
ĠOrgan isation
Pr ime
compet itive
Ind ones
Ġsuffer ed
Ġdead line
Ġdocu ments
iac om
G e
I m
f r
g it
h ous
i ates
l or
r s
Ġ row
Ġ ult
Ġt urned
Ġthe International
Ġp ushed
Ġof ten
Ġre ference
ĠR ATE
ĠS OY
ter dam
ĠM ortgage
Ġcon tribution
ĠL ake
ew here
ĠG reat
ub ordinated
ĠO kl
con struction
if th
mer ger
Ġfir mer
ĠBank America
Ġear thquake
ĠK i
Ġlo ts
part icip
Ġra ins
Ġmove ments
ĠPay able
Ġspecial ty
De velopment
Ġcertain ly
Ġclear ing
Ġclear ly
Ġmaintain ed
ĠIN D
Ġuns ecured
Ġdiplom at
Ġexper ts
Ġretain ed
umin um
Ġevent ually
Ġexpendit ures
Ġelimin ate
Ġprompt ed
ĠPric e
Ġimbal ances
van ia
Ġpop ular
Phil ipp
clos ure
ĠJust ice
Ġyeare arlier
I X
b orrow
c ott
f utures
p ot
p resent
u a
Ġ ir
er es
Ġs chedule
ĠS oci
Ġst em
us ion
ĠN omura
ĠIn t
ĠD uring
ew h
ĠG row
Ġ4 20
um n
se ven
ard ine
ell ite
Ġsp ir
ib les
tal ks
ens ions
ĠV OL
che m
gra in
Ġexp ires
Ġfac es
hen s
OR N
Ġprom ote
Un ion
Tr ade
Ġparticip ate
Ġtermin al
contract s
Ġcirc umstances
ĠSant os
Ġchemical s
Ġmot or
ĠBelg ium
Ġoccur red
hance ment
ĠICC O
ĠVir gin
respect ively
adel ph
BE AN
ĠPaine Webber
adequ ate
syl vania
oshib a
B A
E A
I F
M inistry
V ol
a ire
d ie
p ret
w agen
Ġa sthe
Ġc able
at isf
Ġb attle
Ġm ines
is able
il o
Ġth ous
ĠA UG
ĠN ik
qu oted
ec k
ĠG ood
ĠG ros
ak a
ĠW ireless
Ġad ministr
Ġme chan
act ive
ĠK ansas
Ġsub sequ
ĠY asuhiro
ĠCh am
ountr ies
Ġ13 2
ĠEx ploration
bank ing
Ġspec ulative
Ġmark ed
ob s
Ġdet ailed
Ġfl at
Ġli ability
Ġair lines
produ cers
Ġseason al
Comm unity
iam ond
ĠNor thern
Ġfav our
Ġdrug s
Ġexcess ive
ĠHar court
Ġshipp ed
Ġserious ly
ĠGre enspan
opp ing
Ġcalc ulated
Ġissu ance
ĠNAS DAQ
init ial
unch anged
Ġguil der
ĠHan over
adelph ia
C P
I ON
I BM
f ace
k ey
s m
Ġs emiconductors
re port
re struct
Ġthe B
Ġto ol
st ake
ĠR et
ĠS terling
ĠS panish
un s
Ġst ations
ĠB anque
res erves
ig el
Ġ19 79
ra ck
ĠL P
ĠH is
ĠW hen
ĠW HEAT
ag ers
Ġres c
erv is
ang u
fore cast
Ġdown ward
rol l
ĠSe pt
Ġfall s
Ġpublic ly
Ġexp ense
Ġfl ood
Ġprior ity
Ġimpro ving
St ate
ator ium
Ġ200 2
ĠSp ec
pec ified
Ġmanufact urer
Ġexpl ained
increas ing
Ġaffect ing
ĠCl ub
Ġsw itch
Ġrun s
mark s
Ġhous ing
Ġresol ution
Brazil ian
Ġwor st
ĠPer u
ĠKuwait i
Ġhapp en
Ġdeter ior
dr ige
Ġpled ged
ĠTransport ation
Y ork
c oupon
h our
r ong
u ff
v anced
w t
er ia
Ġs ave
it an
al ys
Ġof M
om orrow
Ġre vers
ĠT enn
Ġth re
ĠS P
ĠA verage
ĠM ur
ĠB ang
Ġ19 5
ĠN ic
du m
ĠF R
Ġits board
Ġun us
oun der
Ġag gressive
um es
per ial
ber ger
for mer
ĠĠĠĠĠĠĠĠ ĠĠĠĠĠĠĠĠĠ
Ġout come
erv ices
conom ic
ĠMar ine
ĠDe puty
ĠTh ai
Ġwe aker
Ġ16 9
ĠFin al
vers eas
Ġgo es
Ġgr ades
Ġstud ies
ĠInter state
bal ance
Com p
Ġstrate gic
Ġresol ved
Ġbook s
Ġtro ops
Fr ance
Ġmach inery
Sw iss
idel ines
ĠBa a
Ġhist ory
Ġcontribut e
Ġadequ ate
emp ts
ĠED T
1 25
D S
E X
G old
N o
T okyo
h ares
i ant
j oint
p ending
r d
Ġs elf
Ġs elected
Ġw idespread
Ġf ores
Ġv ict
im ony
Ġr anges
ĠH am
Ġhe ar
ac es
tr aders
ren t
ren ce
Ġdis s
hr an
Ġdiv est
ks wagen
vent ure
de pos
de alers
Ġhead quarters
Ġstud ying
Ġsw ap
Ġexpand ing
Ġdam aged
ĠMexic an
back ed
RA D
Ġsom ething
Ġparliament ary
Ġrapid ly
Ġincent ives
Ġhal ted
Ġresign ation
ĠWestGerman y
Ġapprec iation
Ġsmel ter
sever al
Ġelig ible
ĠKi ichi
chem ical
C alif
M M
b ol
b ase
b asis
g overn
r ies
Ġt ariff
al ks
Ġm ixed
Ġin n
Ġin its
ut z
ent ially
et ime
ĠI C
un til
ir a
ear ing
ate g
Ġpct in
ĠJ im
Ġag greg
per formance
ud ge
Ġab ol
erv ice
Ġtold Reuters
Ġ13 3
Ġplan es
Ġ16 3
gra ph
Ġdeal ings
Ġus es
Ġcons olidated
fl ow
Ġrece iving
uf fic
Ġbid ding
Ġrest rain
Ġaff airs
ĠBo es
Ġmat ch
Ġadjust ments
Ġbl ack
Ġca ution
ient ific
dec line
Ġmed ical
Ġdep ending
plan ned
Ġbeh alf
Ġorgan ization
Ġpract ice
del iver
ĠSwed ish
Ġdocu ment
oliv ia
Ġproced ures
franc s
Ġhum an
Ġlit igation
G overnment
g as
g old
i j
p urchase
in ical
Ġc ities
ar i
Ġf oot
Ġin December
Ġre ferring
ĠC onn
ĠC ME
ĠI V
Ġg race
ĠB ull
ab y
ac y
Ġpl un
Ġres erv
Ġch ain
Ġover the
Ġdebt ors
Ġj et
Ġ13 7
Ġind irect
Ġtal king
ipp i
ĠRes ults
Ġmin ers
Ġfact ory
ĠĠĠĠĠĠĠĠĠĠĠĠĠĠĠĠ ĠĠ
ĠCent er
Ġprom ised
lik e
ĠArgent ine
Ġstabil ise
Ġencoura ging
viron mental
Ġindividual s
Ġbull ish
Ġstrengthe n
bass y
Ġfunda mentals
ĠLouis iana
Ġmicro ch
Ġrup ees
ĠSar ney
B el
D utch
M al
U ME
f irms
i atory
v s
in ced
Ġs ulphur
at ible
Ġb ere
Ġf aster
Ġf ranch
Ġto f
Ġto buy
Ġd n
ut ions
Ġl ose
Ġh undred
Ġit em
Ġit expects
ĠM u
Ġg all
ĠB alladur
ot terdam
ĠF OR
Ġcon fl
ĠD r
Ġwh il
Ġnot ice
ĠW ang
con cer
Ġle veraged
Ġoffer ings
iss ions
av al
Ġapp arently
ount ain
Ġass ume
Ġass embly
ĠV en
Ġen j
Ġgrow ers
Ġappro vals
ĠAl ger
Ġcor respond
ah oma
Ġbrok e
Ġcarr ier
Ġsim ply
ES T
Ġprospect us
Ġgener ated
Ġche ck
ĠMet al
Ġlaunch ing
Ġcol lect
Ġz inc
ĠFrank furt
ĠPric es
Ġfra ud
Ġcooper ate
Ġbarr iers
ervis ory
B ar
G ATT
H L
H ong
I MF
P e
i em
v ised
re venues
Ġp owers
Ġb arg
Ġw atch
Ġm utual
Ġto ur
Ġl iving
st one
Ġre volving
ĠR ubber
Ġit is
ĠS everal
ln er
ĠI v
ĠM icro
ra p
ol is
ĠN E
qu est
Ġas king
ĠL ank
ĠH IGH
ĠG ene
Ġhe art
Ġ4 80
pl ay
am bia
tr on
ĠO l
com ment
Ġle v
Ġcont ained
Ġqu ite
eb ted
iss uing
Ġ15 9
Ġ13 8
Ġk m
Ġ16 8
gra ins
oint ment
Ġref ined
de partment
Ġeffect ively
ound ed
Ġcompared with
with out
ĠUS SR
ĠPh illips
Ch icago
stant ial
produ cing
offic er
Ġarr anged
ĠNor way
ĠNor anda
ĠMc Donnell
Ġkeep ing
ĠKore an
Ġcrit ical
sup ply
Ġident ify
Ġelectric ity
Ġabs orb
Ġmerch ant
Ġentit led
ĠBec ause
Ġfro zen
Ġworr ied
ĠDomin ion
G L
J UN
P P
S O
S ch
W ill
d ep
h aps
l ock
s ince
t otal
re ached
Ġthe current
Ġc ancell
Ġan sw
Ġand other
Ġre in
Ġre verse
ĠT R
ĠR ock
ĠR io
ĠA pr
Ġ2 20
ĠP ent
ĠW is
if ts
Ġres um
day s
iss ippi
Ġ15 4
Ġquarter s
ĠV ideo
Ġam id
Ġhigh s
ĠNew York
lo ans
raz y
Ġar m
16 0
Ġsl ight
Ġmain tenance
Ġav ail
Ġaut o
Ġplant ing
ĠMan ufacturers
ĠCon able
Ġreason able
Ġviol ations
level s
Ġcoal ition
AD B
Ġmach ines
third s
Ġtank ers
Ġcritic ism
cost s
prot ection
Ġfight ing
Ġconcent rate
ĠAff airs
uccess ful
Ġmass ive
Ġbott om
decl ared
Ġcompetit iveness
Ġphys ical
iem ens
B r
C it
D emocr
S p
S audi
T O
b arrel
c ol
c ounter
f iscal
f irm
h aul
n eed
w arr
Ġt ent
er ious
Ġc as
Ġc if
ar agu
Ġp ool
al a
Ġin a
Ġin quir
Ġd airy
ut h
et a
ĠR ad
ĠS and
ĠA z
Ġmln stg
Ġ2 30
Ġis land
Ġex ist
Ġex act
Ġ19 78
ec o
ĠH ill
ac cord
com pl
ĠCo operation
ian g
ĠMar g
Ġ15 1
Ġoper ator
Ġ11 7
Ġ20 12
Ġfinanc ed
ĠAn t
ran e
Ġsl aughter
Ġmer ged
ĠUS A
contin uing
Ġthes econd
Ġtest imony
Ġsett led
Ġvot es
ĠWe in
Ġlic ences
atin um
announ cement
Ġsol ve
ĠIndones ian
Ġleaders hip
Ġlaws uit
raph ics
ĠDen mark
Ġjud gment
Ġsatisf actory
ĠFranc isco
develop ed
Ġty pe
ĠBur lington
Per iod
ocon ut
Ġring git
ĠUtil ities
A X
B P
B ro
D V
F l
c are
f iled
g ener
h d
l on
m orning
p ost
p oints
Ġs inking
an ese
Ġthe world
Ġthe economy
or a
Ġc orp
Ġb en
Ġw ord
Ġm aj
Ġto st
ĠC as
ĠC ash
Ġbe coming
th ose
Ġon going
Ġg ilt
Ġ2 000
Ġ2 15
ĠP ress
ĠN az
ĠL ines
ĠG overnor
ric k
oun g
anc y
Ġup to
Ġdis k
ĠMar c
ey er
Ġacc um
Ġprov ince
ĠAl bert
ind icated
Ġexp ensive
ĠAg ricultural
ĠAr my
Ġmat ters
Ġemploy ee
Ġpers onnel
Ġwar ning
Ġindic ation
quid ity
dec lined
Ġinstitut e
Ġexper ience
ĠBar ney
ĠAut hority
Ġpound s
org ia
Ġdraw n
Ġarrange ments
Ar gent
umb ers
introdu ced
ĠMer ch
Af ric
Ġmor atorium
ĠFair child
agree ments
certific ates
ĠEar nings
meas ures
Ġjournal ists
Ġincur red
' d
A O
D R
H P
M on
N O
c ar
d ata
s el
Ġa wait
Ġs un
Ġs our
Ġs olid
Ġthe end
it ely
al ified
Ġf ix
Ġd in
Ġd ed
el ection
ĠA a
ch arge
ol f
ĠP ret
ĠE r
ĠJ r
Ġwh ite
ĠG ar
em on
Ġtr ied
ee x
tr ations
Ġ7 47
ost er
ap e
Ġdeb enture
av es
Ġass ur
Ġ16 7
Ġus ually
87 5
Ġwork s
Ġexp ired
Ġrel ative
ĠUS X
ovi ets
Ġconcer ning
stock s
offer ed
ĠCol umbia
Ġfav ourable
Ġph armaceutical
ĠEd die
ster dam
Ġstabil ize
control led
Res erve
Ġill egal
Ġinterven ed
ĠLabor atories
ĠBah rain
partic ular
enefic ial
E ast
K R
L I
S S
W estern
e ment
n y
p ac
x y
y er
Ġ ess
in ness
Ġa statement
an on
Ġthe previous
it uation
en k
Ġb it
Ġw aters
Ġf reight
ing ent
Ġre iterated
ĠT O
ĠC PC
Ġmln shares
Ġv entures
ĠM obil
ank s
ul ators
ĠL AST
Ġal uminium
ark ed
ud es
se ason
Ġsp in
Ġch anging
Ġ10 7
clud ing
own ers
Ġ13 6
Ġdiv isions
sh ips
Ġcons ervative
Ġar tic
me et
AN K
Ġbegin s
Ġindic ators
uck y
ortg ages
back s
Ġtw ice
Ġeas tern
Ġgener ate
opt ions
Ġdiscontinued operations
Ġnorm ally
Ġmiss ile
Ġrecommend ations
Ġtim ing
Ġdeter min
loss es
Ġcompens ation
ĠMTH S
immed iately
ĠTe hran
Ġfinis hed
Ġfluctu ations
ĠVirgin ia
a e
d s
f amily
w heat
in formation
Ġs ens
Ġs now
at ically
Ġb ales
Ġm en
id er
Ġh a
ĠT reas
ĠC ost
ĠR el
Ġst ance
Ġpro ve
os es
ra g
ĠP ont
ĠP olicy
us es
Ġ3 20
ĠU AW
up er
ĠD lr
ub s
od ies
cl aim
con n
ĠInc ome
op ening
Ġlast month
Ġprodu ces
Ġfir med
pro bably
Ġunder standing
Ġ11 3
ĠCh irac
Ġ14 4
ĠV iacom
ep s
Ġsec ret
ĠOn ly
Ġco vers
ĠEC U
market ing
Ġform ally
Ġput ting
ĠElect ronics
Ġsw aps
Ġrepl aced
Ġslow ed
Ġvar iety
Ġattack s
Ġattack ed
ĠPenn sylvania
Ġredeem able
Ġtermin ated
Ġrespons ibility
ĠDan iel
sc ale
Ġdu eto
Elect ric
outhe ast
Indones ia
) ,"
3 40
C S
H old
I CC
J ohn
M id
M organ
W ith
e ven
e ach
e aker
n egotiations
t echnology
Ġ .
Ġt ell
Ġs li
en c
ed er
Ġw a
ent ed
Ġl osing
Ġe fficiency
ĠR ain
ĠS il
ĠS ears
ur plus
ĠI c
Ġbe et
ch er
Ġv o
ĠM ths
ot es
im ary
Ġ3 40
ĠF err
ĠIn it
oc a
ĠJ ac
ĠD isc
ĠL OW
ĠH ung
ĠG ill
pl es
ex per
pt ions
The se
clud es
Ġme al
iss an
act iv
iz ens
Ġlo b
Ġacc used
Ġass igned
ik h
Ġam ajor
be an
Ġset s
Ġ199 9
Ġact ually
Ġsl ide
echn ical
Ġmin us
Ġdif ference
Ġthen ew
Ġste ad
ĠAt t
Ġdef ault
Ġfail ing
Ġindic ate
Ġsusp end
Ġdeleg ation
opt ion
Ġpurpos e
Ġche ap
agn ost
Ġcargo es
ĠAlli ance
Ġpres ence
ĠTurk ish
uster ity
Ġfavor able
Ġlif ted
ugg ish
ĠPlan ning
Ġimpl ications
Ġplat form
direct ors
cap acity
ĠVOL UME
restruct uring
ĠBoes ky
4 20
N C
P enn
R oy
c orporate
f ect
h ar
o ly
u er
in ations
Ġa ware
Ġc iting
Ġc ateg
as il
Ġsaid that
ent er
Ġh ospital
ĠR ail
ĠS o
ĠS uisse
ĠB en
Ġwas te
ĠG E
ab ove
ant i
Ġhad been
ight ed
erv ous
Ġapp arent
ens us
we alth
Ġsup ports
Ġsup plement
ĠComm un
aw ay
Ġ18 5
Ġproduct ivity
Ġserv ed
Ġsl ump
Ġatt empts
wh ere
with in
Ġamount ed
St ock
ĠGeneral e
Ġhead s
Ġca using
Ġrev ision
Ġtom ake
ett lement
ĠCol or
Ġsuppl ier
elect ric
Ġflow s
ĠCont rol
ĠPe king
Ġexerc isable
ĠDel aware
business es
ĠWilliam s
Ġelectric al
ĠEqu ity
ĠFood s
Ġed uc
uz zi
ĠEnter tainment
Wh at
Ġz one
ĠWar burg
propos als
bass ador
help s
She arson
tra ordinary
ĠAlleg heny
Ġemph as
Ġarbitra ge
1 20
3 60
E AR
H I
S ingapore
e at
e eting
m es
n ation
in stitutions
Ġa ver
Ġs weet
or se
Ġb ourse
Ġw est
Ġd ual
il ts
il ton
om en
Ġh arm
ĠC opper
ad d
Ġon es
Ġst ream
Ġpro b
Ġ2 60
ear ns
ol ina
ĠN ev
qu es
oc he
ĠJ ardine
ĠW il
ag az
ag ricultural
man agers
ex isting
Ġcont ra
Ġshares of
ĠSt art
Ġforeign exchange
Ġ16 1
cess ion
lo at
Ġsur prise
Ġ199 3
Ġco ol
Ġcr u
Ġcr ush
Ġ27 7
Ġexport ing
Ġmin utes
Ġconsider able
Ġfac ing
CC C
orm al
press ure
Ġmanufact ure
ĠMon ey
ĠPhil ips
Ġreturn s
Ġrepl ied
IT Y
Ġvar iable
Ġreach ing
stitution al
ĠPe ople
ĠRepublic ans
trans action
Ġkil o
ĠCL SG
bel ie
author ized
She ll
cover ing
oney well
pri ations
Ġconsist ent
Ġcontr ast
Ġinflu ence
Law n
whe ther
Ġreluct ant
ircu it
Ġdemon str
ĠToy ota
ĠOkl ahoma
ĠLank a
. >
e ight
h ow
h ai
l ate
n ecessary
Ġ iron
Ġs k
it ate
id s
Ġto increase
Ġto shareholders
Ġd rain
Ġd ram
Ġd umping
Ġh rs
ĠA L
ĠA qu
th y
Ġv ideo
ĠM itsubishi
Ġg ra
os ion
Ġdlrs per
ĠU se
Ġr anged
ĠD igital
ĠW y
od ge
con duct
ign al
Ġqu ant
ap olis
ĠCo oper
Ġofficial ly
eg ates
ĠCh ile
Ġexpected to
Ġref ining
Ġsur ge
Ġsec ure
Ġrece ipts
Ġfl ight
Ġwell s
Ġsen se
Ġlaw yers
IN s
ĠPr udential
not es
Ġunderwrit ten
Ġbl amed
Ġdiscuss ion
Ġleg isl
ĠLe ad
ĠCl ark
Ġsubordinated debentures
Ġenter prises
Ġaim s
Ġtem per
ĠIs land
ĠPre v
Ġretal iate
ades h
credit ors
Ġcirc ulation
Ġreb ate
Ġoptim ism
Ġren egoti
ĠMont real
yd ney
ĠSum itomo
ĠCoast al
ĠBal drige
Ġfunda mental
Ġretire ment
oo th
Ġcompr ising
Ġdepart ments
ĠOffer ed
Rep ublic
comb ined
ĠBroad casting
ĠUt ah
hens ive
Mal ays
A E
C E
D I
f act
f igures
l im
l adesh
n egoti
s ewhere
Ġthe European
or o
al ties
ic ate
Ġand will
st utz
Ġn umbers
ĠC ard
ĠR ud
ill y
ĠA lex
Ġbe comes
ve iled
ot he
Ġdlrs and
ĠN igel
Ġ3 30
ĠF itz
Ġby Moody
ĠE MS
ĠL uf
ew ork
ast ics
ĠO s
op port
Ġres istance
pr iv
for wards
ist ill
ĠK a
oin d
iz ations
Ġ14 3
part y
Ġtotal ing
Ġrep air
Ġcent ers
ĠAmeric ans
Ġsur pr
Ġact ively
uf fer
.... .
Ġown er
ov ing
Ġchief executive
Ġair port
Ġcover age
Ġbal anced
ĠBro kers
Ġpack ages
ĠAm oco
ĠAm sterdam
Ġpower ful
aiw a
Ġhand ling
Ġsuppl iers
Tr ust
Ġuns pecified
sth rough
Ġnation wide
Ġide as
Ġimplement ed
Fr iday
ĠDef ence
Ġcritic ised
Ġdest roy
Industr ies
Ġhot els
cript ion
Ġmem ory
ĠMON TH
accr ual
ellig ence
ynam ics
ĠVen ice
Ġansw er
ĠAqu ino
3 75
A A
S ystems
f av
i at
n ations
t ech
v ision
it er
Ġc at
ar p
Ġf ulf
Ġto a
is ations
ion e
et ic
st ood
ĠS y
ĠS oviets
le ading
Ġpro ved
ĠB ear
Ġex porter
Ġpct from
ĠP ers
ĠF EB
Ġr an
ĠJ ack
ĠL ocal
out put
ag ency
man ufact
mer y
Ġup per
Ġcomp ly
ident ified
rop ol
Ġ15 8
ang hai
eg u
Ġ14 1
Ġ14 2
ĠEx chequer
Ġinterest rates
Ġpropos e
Ġrem ove
Ġdown grade
mon etary
Ġspec ify
Ġpresident ial
Ġ199 5
Ġgu idelines
Ġcomplet ely
Ġback log
Ġreal ized
Ġvol unt
Ġmid dle
Ġopp ose
Ġbr and
acqu ire
cons in
ĠCons umer
Ġrecover ed
Ġfind ing
Ġpoll s
Ġexerc ised
Ġcompl iance
Ġton ight
Ġfr i
Ġmult ilateral
ĠSc ott
bro ker
Ġmot ion
serv ices
Ġflex ible
Ġhot el
ĠJose ph
Ġconv inced
Ġsust ained
Ġgrad ually
ĠPortug al
pol itical
Ġacknowled ged
ĠSOY BEAN
ĠPret ax
I M
I s
N S
O SE
P etroleum
b ury
b enefit
h ould
k ong
m o
m ut
m uch
u ay
u lner
Ġ et
or ia
Ġc ode
Ġp ork
Ġp ict
al though
Ġf er
Ġf ine
ing the
ou red
st ore
Ġn ervous
ĠT OT
ĠS at
Ġfor a
Ġv ital
ĠM ic
ĠM ass
Ġpro portion
Ġdlrs of
Ġde ferred
Ġ19 70
ĠN ab
Ġ3 80
ul es
Ġr iy
Ġas ide
ĠE EP
ĠD a
ĠD i
em por
cl ass
cl ays
Ġhave been
Ġper mission
Ġcont roversial
Ġout lined
ĠK o
Ġro ugh
ĠEx ecutive
Ġstr uck
Ġ16 6
Ġcons ists
Ġ17 4
Ġreg ulation
Ġdown turn
10 1
Ġar rest
Ġsur v
ech st
Ġpurch asing
Ġdel ays
ĠPro t
cent s
ann es
Ġlow s
AN D
ah l
Ġthen ext
Ġcomment ed
increas es
Ġrestruct ure
equ ipment
Ġview s
Ġtra ck
Ġpoll ed
Ġpat ients
Ġche aper
lant a
Ġtempor arily
Ġstruct ural
ĠGe orgia
Ġexceed ed
Fin ancial
Ġtrend s
ĠDiv idend
Ġreb els
bro kers
Sw ed
ĠChe v
Ġmoment um
Ġprivat isation
Ġtob acco
Ġcompr ised
princip al
affect ed
Cent ral
Aug ust
Or gan
itr ust
Ġdismiss ed
Ġstra ight
Ġpros ecut
ĠWein berger
ĠTOT AL
A M
A ut
B I
H ar
N T
b a
b ought
m its
r um
r uct
Ġt one
Ġs ch
Ġs of
re land
it ure
Ġm ess
Ġm ission
Ġd er
Ġd ur
as hed
ĠT oshiba
ĠC P
ĠR ober
Ġfor s
un ion
Ġg l
Ġ2 80
ĠB ass
ĠU AL
end a
ĠL ower
ĠG ord
Ġun d
em an
ud son
am rock
ĠW ag
od el
ĠO verseas
ag ue
ex ter
Ġch o
for cement
ok ing
ult i
ĠK im
Ġ12 1
ĠDe an
iz er
Ġdiv ided
Ġ16 4
Ġ17 1
Ġcan e
Ġannoun cing
Ġequ ally
Ġ27 0
Ġaut umn
app ed
Ġrest aur
ĠFederal Reserve
olo gical
ĠSh amrock
AN GE
ĠZ ambia
dis tribution
Ġyield ing
aff il
Ġexpl ore
Ġinvol ves
ĠCon ra
acqu es
rem ain
cons umer
Ġhand le
OL D
OL L
Ġtra vel
Ġeas ily
Ġbroad ly
Al li
Ġpat tern
ĠMin erals
Ġencoura ged
clus ion
gu arant
Ġbull et
ĠEm ploy
Ġobject ive
Ġassum ed
Ġexcept ion
ĠApp ro
Ġground s
ĠVal ley
Ġseem ed
Ġsaf ety
Ġtrigger ed
ref lect
ĠRen ault
uffic ient
F L
L M
M errill
O ne
S al
V I
e ign
g oods
m ight
r ay
s ignificant
z an
in ning
Ġa uctions
Ġa usterity
Ġs end
Ġs orghum
an im
or ter
Ġm ention
Ġl eng
ĠC am
Ġit would
ter ms
ld ers
un its
le v
ĠRe ed
ĠB ally
Ġ19 6
ĠP aper
ĠN A
ĠN uclear
ĠF ort
ĠF ollowing
ul ic
ĠL ee
ĠL ME
ew ill
ĠH a
ĠH ans
am il
fer ent
ub le
ip le
Ġper haps
ĠSt ra
pro spect
Ġinvest ed
Ġ11 6
Ġ0 7
ubl ed
Ġen h
ĠAn y
Ġreg ions
Ġbec aus
Ġpol it
Ġar gu
bank ers
Ġatt orney
Ġgo als
pon ed
writ ers
Ġrest ricted
Ġadv ised
Ġform ula
bo ost
AL L
ĠQ tly
ĠAm stutz
ĠInvest ments
ĠBr asil
ĠAc c
Ġflo at
ĠCons ervatives
sp okesman
Ġther es
Ġrefin ancing
ĠEd ward
acc ine
ĠLaw rence
ĠIm perial
profit able
Ġemer ged
Ġoc c
ĠSum ita
Ġpush ing
Ġrespond ing
Ġtranc hes
Ġimbal ance
Ġinv ited
Ġlicens ing
Ġvolat ility
ĠGer hard
Ġprovin ces
Ġexclus ive
require ments
Ġservic ing
angu age
ĠNic aragu
Ġunus ual
ĠGene va
ropol itan
B anc
M ich
T X
b ill
f uture
p rom
p ract
r id
r ad
Ġs am
en a
al ed
Ġf eas
Ġof C
Ġm ind
Ġm ortgages
Ġd igital
Ġand chief
et ails
Ġl end
st ream
Ġh omes
ĠC ross
ĠC otton
Ġit completed
ad vis
ch it
ĠM oh
ĠRe venue
Ġ2 90
ĠB ra
Ġis issuing
Ġy our
ĠF ree
Ġcon struct
ĠJ a
ĠD ar
ĠL IBOR
pl ing
over eign
ell ent
Ġac id
pos ite
ĠSt ar
Ġout right
act ed
Ġ15 7
ĠY EAR
ĠCh ief
Ġass ist
ĠV an
oint ing
Ġind efin
Ġthere after
stru ments
Ġrequ ests
Ġpurch as
Ġrece ipt
ink el
Ġmer gers
ĠEuropean Community
Ġsect ion
oh l
AT ION
ĠPhil adelphia
ĠEconom y
dec ision
Ġregis trations
sub ordinated
Ġdisput es
Ġnewsp apers
ster ling
ĠProdu cers
Ġtos ell
rug uay
serv ice
Ġtransport ation
ĠCr ude
OC K
Ġmerch andise
ĠPol and
Ġregard ing
Ġincent ive
itsu i
farm ers
Ġarg ued
Ġsym bol
Ġdispos al
Ġhed ging
Ġprof ess
ĠFuj itsu
izon a
Ġcoun sel
ewh at
ĠCham ber
alys is
Will iam
ĠPent agon
barrel s
6 50
6 25
C OR
I ll
L Y
M exic
Q u
g n
k nown
m ust
s ix
s ized
s pec
t aken
Ġ ign
Ġa part
en ergy
or ian
Ġp ul
Ġw rong
Ġf leet
Ġof c
Ġof about
as aid
ic ians
Ġand Exchange
ent he
Ġl ivestock
Ġre affirmed
ĠT ool
ĠC are
ĠC razy
ad ding
ĠS a
ĠS IL
ĠS ilver
ĠS ri
ĠA M
ĠA erospace
Ġv er
ĠRe alty
ĠB U
ol ution
ĠP INs
Ġ3 60
du ce
Ġcon cept
ĠIn tel
Ġat tribut
ĠD art
ĠD iplom
ĠD ole
ew ith
ĠG h
ab r
ab led
ak i
ac q
ĠW ool
Ġare g
Ġ6 50
Ġad verse
ib a
Ġper man
eek ing
Ġdeb it
ĠSt earns
ĠK h
rit ory
iz es
Ġcl inical
ach ing
ĠComm on
19 0
Ġind ebted
ĠNew mont
Ġ18 3
Ġexchange able
Ġref und
Ġequ ities
ĠWest pac
Ġcor re
uss els
ĠStock Exchange
Ġdoes n
Ch airman
Ġaccept ance
ĠOffic ial
Ġgovern ors
cur ring
ĠHold ing
den ominated
Ġexch anged
Ġexper ien
Ġdifferent ials
Ġty pes
ĠCL OSE
oul try
Ġsubs crib
Ġhost ile
ĠMiss issippi
larg est
ĠKar l
dif ficult
ĠAF G
Ġcommitt ees
Calif ornia
oind exter
ĠSIL VER
D IC
L ME
M arket
S oviet
T urk
e ge
h in
m ine
p ur
t es
u els
v oting
Ġ id
Ġt rem
Ġt enders
Ġa erospace
he im
al k
Ġf ifth
Ġre ass
Ġn in
Ġh am
ĠT H
ĠR ate
ĠR am
ĠR ost
le ast
ĠM ad
ĠM ax
ĠRe fin
Ġg ather
ĠB olivia
ir ates
ol ly
ĠP S
ĠP al
ĠP ER
ĠP helps
Ġr ival
oc ated
ĠD un
iv an
ĠH ond
Ġtr ue
Ġag enda
ĠW EE
ĠW aste
man y
over y
ord an
ord ers
pect s
Ġch ances
for ced
Ġcont ent
Ġdis rupt
Ġdis closure
ult ane
Ġse gment
Ġunder stand
Ġpart ially
eg rated
Ġj un
ish ment
Ġcons ecutive
Ġrequ iring
Ġext ending
Ġplant ings
ph am
Ġmin eral
pre ced
Ġaff air
ring ton
ulf ord
ĠZ h
Ġcompet ing
Ġcarr iers
Ġindustrial ised
ĠSp eaker
eas ing
invest or
Ġmanufact ured
par ts
Ġprom ot
ĠInter bank
Ġfew er
Comm unications
bu ying
Ġmed ia
ĠVol kswagen
sub sid
ecess arily
ATT LE
Ġcarry forward
Ġadvis ers
enezuel an
Ġconcess ions
En ergy
ĠBl ack
Ġwithdraw al
ĠJe ff
br as
Ġinterven e
Ġconfirm ation
Ġcle an
improve ment
Ital y
SL IC
hous es
Ġenj oy
ĠNE W
ĠWis consin
Ġawait ing
particular ly
activ ities
Ġlob by
Ġcru cial
chit ect
ĠWEE K
3 30
8 50
D onald
E m
E qu
b reak
d rew
l ink
l aun
n ine
o an
p red
p urpos
s a
u its
v ice
in al
in ch
Ġs ort
Ġp ump
Ġb order
Ġw it
Ġm agaz
Ġin March
Ġand L
Ġand P
Ġand a
et ty
st ac
Ġre organ
ĠS aud
ĠS ao
ĠA viation
ment ing
ĠI owa
th ly
th reat
ĠM D
Ġg one
Ġg ues
ĠP CT
Ġy uan
ĠU pham
Ġr ural
ĠJ udge
ĠD ilson
ĠH or
ab ric
ĠW ard
ub b
cl osing
ex pl
Ġcont ains
Ġlast week
ire ment
Ġpre ced
Ġdis aster
ven e
Ġ15 3
Ġpart ial
air craft
ĠV ict
Ġam ended
part ments
Ġen hance
Ġcons ent
reed om
oper ate
Ġ26 5
Ġaff irmed
ann el
Ġcontrol ling
Ġlaw makers
ĠĠĠĠĠĠĠĠĠĠĠĠĠĠĠĠ ĠĠĠĠĠĠĠĠĠĠĠĠĠĠĠĠ
Ġste ering
dis continued
Ġpers u
Ch alm
IC O
au x
Ġliquid ation
Com merce
Ġcrit eria
Ġeas ing
ĠGen corp
Ġwid er
grow ing
Ġimplement ation
Ġproceed ings
Ġvir us
bel ow
Ġhist or
Ġye aren
Ġcoin c
import ant
stim ated
Ġprepar ing
Ġremo ved
Ġoilseed s
ĠChem Lawn
Ġult imately
ĠNik ko
ĠAlger ia
Ġsli pped
Chalm ers
) &#
C redit
C apital
G D
L yn
M K
N G
O IL
b on
c ret
l arge
l imited
p ons
s um
s uch
v in
y e
Ġt reas
in vol
re curring
an alyst
en os
Ġf ob
Ġto provide
Ġto acquire
Ġd ied
Ġand Co
ou ard
Ġl ab
Ġn om
ĠR ay
ĠR ow
Ġit agreed
el d
ĠS ir
ĠS hip
ĠS emiconductor
ĠA R
ĠA k
Ġfor ms
ay lor
ch mark
Ġst ick
Ġst ands
Ġg e
Ġg m
Ġ2 86
res ults
ig uel
ĠF er
ĠU p
qu ired
Ġas ubsidiary
ain ts
ĠE s
ĠJ acques
ĠD P
ĠD es
ĠD ynamics
ore an
ĠH all
ric h
Ġag gress
ud den
ĠO w
ex erc
ant icip
ib b
pr int
ok s
ist ure
eral d
ress ing
Ġ17 7
Ġlead manager
Ġ18 9
10 5
Ġdec ree
Ġdec ade
Ġspec ulated
ĠPro fit
ĠPro cess
comm it
Ġfl ag
Ġnegoti ators
ann er
olo g
vol ume
Ġform ation
Ġprot ein
Ġvol umes
eep ing
ient ed
Ġimprove ments
Ġthef our
Ġeng aged
down graded
Ġins ured
leg islation
Ġeas y
Ġadvis er
ĠFl a
Ġautom otive
Ġexceed ing
Ġbreak down
ĠEqu ipment
ows ki
Ġrum ours
acquisition s
ĠDan ish
At lantic
Ad ministration
Ġvess el
Ġjump ed
custom ers
Ġconsolid ation
oen ix
Ġchallen ge
cc ident
Ġsubsequ ent
Ġaggreg ate
ĠFitz water
Ġpict ure
3 20
4 50
C y
D C
I P
M et
M ot
b ody
c arr
c arry
d id
d ens
e ficit
f ers
f ra
f ollow
m al
n il
n ational
r ights
w eg
at ar
Ġw are
Ġf at
Ġf un
Ġf requ
Ġm agn
Ġin side
Ġd amp
ic om
Ġand underwriting
st op
ĠT V
ad ministration
ĠS ons
ĠA ustr
ers on
ĠM un
os h
Ġ2 85
ĠB HP
ot ation
ĠF red
Ġat least
Ġr aid
ĠE PA
ĠH em
Ġun adjusted
Ġ4 25
am in
ub sid
ĠO pec
Ġab arrel
mer z
Ġsp ur
Ġsub mit
sid ers
Ġrec ip
Ġend of
Ġcl ar
Ġcl imate
ugh t
ish er
ons aid
Ġsell s
Ġsell ers
Ġsl uggish
Ġquot e
fin al
Ġpress ing
ĠSh ares
min ent
Ġloc ations
Ġseek s
ĠInd ex
Ġconvert ibles
Ġtel ex
ĠUnder writers
rict ion
Ġinflation ary
Ġindic ator
Ġvice president
curren cies
ett i
bu ild
ĠAG O
rem ier
Ġther ec
Ġdep ends
includ e
ĠDel ta
rep urchase
Ġredeem ed
Ġpubl ishing
ĠPre viously
Ġdraw ing
fund s
Ġreplace ment
Ġbrief ing
Ġdefic iency
imp act
Ġsust ain
Ġinform al
Vol cker
ĠSP OT
Ġconfl ict
Ġlev y
ĠIc ahn
ĠFerr uzzi
ĠGill ette
ĠColor ado
Ġrough ly
OLL AR
ege an
1 40
> '
C F
H o
M onday
O D
P art
a pt
a head
c al
d on
f ound
h abil
n d
r ans
s ession
t awa
v ar
v ir
Ġt ies
Ġt able
Ġs lrs
Ġs earch
Ġs elect
re porters
Ġthe official
or al
Ġb a
Ġb er
Ġd omin
is closed
ic an
Ġl aid
st ud
st ates
ĠC ub
ĠR otterdam
ĠS iemens
ĠS ydney
ĠA ud
Ġv ig
ĠM L
ĠM ills
Ġpro xy
ĠB IL
Ġdlrs a
ĠE ven
ĠE mery
ĠD aiwa
ĠL ine
ore n
ore ign
ĠH ous
ĠH ospital
ĠH oneywell
Ġun ders
ac hes
Ġtr ial
ess ions
ĠW k
ĠW itter
ĠO ak
ag a
ell on
op ter
ĠBank ruptcy
ĠCom panies
Ġ15 6
Ġro ck
Ġro ll
Ġro ute
Ġmeet s
Ġplan e
ss on
Ġrep aid
Ġbuy back
cess aid
Ġ17 2
Ġ18 4
Ġso ared
Ġboard s
Ġtrans ferred
Ġrece iv
Ġsl ower
Ġcr ash
Ġ23 5
ind ividual
Ġem b
att empt
af ternoon
Ġmat ure
Ġmat ures
Ġfact ories
Ġemploy ed
dis on
Ġexclud ed
produ ced
Ġfe ature
Ġclos er
Comm ittee
ĠEng ineering
bec ome
pay able
Ġdifficult y
ĠTrans Canada
RA IN
ram m
ĠEd ouard
Ġdiplom atic
ĠAut o
Ġfeed grains
Ġmach ine
compet ition
Ġnarrow ed
imb ab
Ġtext iles
Ġrail way
resp ons
ĠGree k
Ġmethod s
pers onal
ĠIr ving
Ġpo ly
Invest ment
ĠChrist ian
partners hip
Ġcancell ed
enk owski
ĠTreas uries
B K
C R
C al
E conomic
F ord
O U
S M
S c
Y ou
d istance
g anda
l et
l ight
p o
s elling
w ick
re venue
ed eration
Ġc wt
Ġp ence
Ġf ounder
Ġof B
Ġof m
Ġin L
Ġin adequate
is tration
ic ed
ut y
st reng
ĠT ime
ĠR onald
el and
ĠA MR
ĠI reland
Ġbe ans
ĠM as
ĠRe al
Ġde ath
ate ver
ĠP a
ĠN ations
Ġcon sequ
ĠU s
ĠU ruguay
ĠE cu
ĠE urobond
Ġwh om
Ġhe ard
Ġhe ating
ric e
Ġhas s
pl ies
the n
red eem
Ġwhich would
Ġle verage
ile ver
ĠLtd said
ubl es
Ġwe ap
hold s
Ġappro ached
ater ials
ĠAl aska
Ġbel ief
ĠFin land
Ġact ed
wh at
Ġ27 8
ĠRes orts
cept ion
app ointed
Ġnegoti ation
Ġback ing
etro it
Ġimport ance
Ġob stac
ĠPh armaceutical
Ġdiscuss ing
ĠAt lanta
Ġpost poned
press ed
Ġaccept able
Ġmid day
Ġel sewhere
ĠBr ands
ĠBr ussels
iam i
Ġfourth quarter
ne apolis
olic ies
ĠSup ply
ĠPaul o
eng ers
Ġpremium s
Ġinst alled
ĠMe ans
Ġretal iatory
Ġdoub led
Ġwilling ness
Ġcoll ateral
Ġentire ly
Ġsatisf ied
Ġhav en
Ġdistribut or
TI ON
Ġinteg rated
Ġcoin s
avi er
Ġclimb ed
ĠSoci ete
Ġthous ands
DV SA
Ġartic le
ĠJac obs
agnost ic
Ġtemper atures
cret e
merz bank
imbab we
A ra
O UR
P T
T L
V enezuela
i ques
m b
p it
t op
x i
Ġthe Japanese
Ġp ure
Ġf ill
Ġin formed
ou b
ĠC el
ĠC ORN
ill ings
el ih
ĠS MC
ĠA ires
ĠM em
ce an
Ġ2 75
Ġ19 2
ol ster
ĠP oindexter
Ġy r
oc co
and er
ĠJ o
ĠL ab
ĠG ard
Ġun available
Ġun veiled
Ġun anim
per ty
tr ad
ĠW ays
Ġwould have
Ġare expected
ib ly
Ġle ases
pr ior
Ġper mitted
reas on
Ġstock p
so y
Ġinter pret
Ġme g
ĠCom menting
Ġro utes
Ġbu oy
Ġ20 3
ĠV i
ĠEx traordinary
hold ings
tain ed
tain ing
Ġrep ly
ĠTr ump
Ġcons ensus
Ġ17 8
lo ad
Ġtake overs
Ġsign ing
ret urn
.... ...
ĠSh anghai
Ġmeas ured
dis tribut
Ġcondition ed
orm ous
ict ion
ĠTel ecom
Ġmid night
Ġreview ing
Bank ing
Ġsuppl ied
ĠIN TER
nes ota
Ġrefin ance
tonn e
Ġdiffer ences
includ ed
aut om
Ġjoin ing
En g
Ġviol ated
Ġhealth y
Ġrespond ed
ĠFarm ers
ĠTra il
ĠKing dom
ĠSpr inkel
ĠOffer ing
Ġprev ailing
ĠMarg aret
ĠAlbert a
Ġsour cessaid
Ġsurpr ised
Ġdestroy ed
ĠNab isco
ĠGord on
elih ood
1 80
1 45
4 80
9 30
A b
B ache
D D
E cuador
I FF
M in
M er
O G
R ud
S B
b ow
i as
i ences
j ug
l igation
m ond
p one
t ender
in f
re ars
Ġthe P
or an
or igin
al se
Ġf it
Ġof record
Ġd im
ic he
ct ane
Ġand f
Ġsaid he
st at
st ations
Ġre ve
Ġn ature
ĠC amp
el co
Ġmln dlr
ch o
Ġv an
Ġv accine
le ction
ĠM E
ĠM ary
ĠM iguel
ce p
ĠRe x
Ġst eep
Ġg ilts
ĠB ased
ĠB ob
Ġdlrs for
Ġde valuation
ra ising
us al
ĠN ow
ĠN BC
ĠN issan
ĠF N
ĠF eed
Ġits igned
ect ic
ĠD odge
ĠL ew
ĠH as
ĠH ydro
ĠH oliday
ĠG OLD
Ġhas received
all s
str ike
ell i
ell ers
ib as
Ġcont aining
Ġqu alified
und isclosed
ist ent
ĠSt ep
pro perties
Ġcomp re
ĠK n
Ġover haul
ort on
Ġother wise
Ġ13 9
Ġplan sto
Ġforeign ers
Ġind ications
Ġsix th
fl ows
Ġeconomic s
Ġcall able
ield s
ĠEn vironmental
Ġval id
Ġatt itude
Ġret ired
Ġ22 8
Ġ23 3
inc ent
Ġ21 3
Ġallow ance
ĠNational e
Ġ29 5
Ġsever ely
St e
Ġcompet itors
ĠSp A
ffor ts
IC E
Ġclos ure
ĠNorth west
Ġboost ing
dec ided
Ġregis ter
ĠCar olina
dollar s
ĠCO MEX
sth an
ĠAll is
Ġsat ellite
Se pt
ĠCy acq
RE E
div ision
impro ved
place ment
Ġassum ption
Ġdest inations
Ġtradition ally
Col a
ĠDepos it
Ġmillion s
ĠSuper markets
ĠSim on
Ġlif ting
Ġalloc ation
ĠII I
Ġbear ish
ĠKen ya
Par is
det erm
ĠTan jug
Ġinvolve ment
Ġevalu ate
Ġcere als
ĠStr ate
ĠHot el
ĠHel mut
Ġutil ization
Philipp ines
Ġhear ings
Bel g
ĠRober ts
ĠWag ner
ĠWool worth
L y
L DP
L loyd
N e
N ippon
O CT
P OR
S m
a ired
b ar
c rop
g om
g ain
l ater
p aper
r and
v o
w ing
Ġt ied
Ġt ask
in ting
Ġs overeign
Ġthe stock
es ch
en ced
en ior
Ġc rown
Ġp ipel
Ġd ates
Ġd istrict
ing house
ing dom
Ġ1 87
Ġn one
ĠT om
ĠT ire
ĠC R
ĠC ath
Ġit downgraded
ĠS ud
ĠS af
ĠA li
ĠA sh
ĠA egean
Ġv ac
le m
ĠRe gan
os a
ot ments
Ġpct to
ĠP DVSA
ĠN il
oc ol
ĠE ight
ĠL eb
are as
ĠG TE
ee f
um ers
ud a
red its
ard ed
Ġmarket ed
op ened
Ġres ist
ition al
oll s
Ġim porters
Ġbut ter
Ġunder ground
Ġbo y
arg ill
Ġro y
Ġtold reporters
Ġass istant
Ġsup ervisory
ĠV er
ass oci
sh ow
Ġgrow n
Ġ17 3
Ġ18 2
Ġwhen the
Ġcr udes
Ġdes k
ind ex
comm ission
Ġrel ax
ick el
pre m
att ract
ĠAr izona
AT S
AT UR
ĠPr ivate
Ġimp ossible
Ġexecutive officer
invest ments
Ġsc ope
Ġcou pled
stant ially
ĠAd vis
ĠUN D
rup ted
Ġcal m
ĠMc C
CO A
Ġtore duce
Ġgener ation
Ġut ilities
ĠAll en
Ġmean ing
yl ene
Ġtight en
Ġpan ic
Ġtank er
underwrit ers
Ind ia
Ġrail road
ĠMo ore
product ive
imp lement
Ġliberal isation
ĠHer rington
discuss ions
princip le
ĠDis ney
ĠHen ry
Ġinspect ion
Ġabandon ed
Sen ate
Ġadministr ative
ĠSpec ial
ĠFR N
Comp uter
ĠIv ory
Hold ings
Ġstead ily
ione er
ĠProt ection
preced ented
Ġmagaz ine
gom ery
3 10
A V
B rown
D en
D el
F E
F oreign
I I
M o
M ITI
T o
b an
b road
h ort
m ake
m eg
t le
w er
Ġa res
re fund
re vised
en berg
Ġc y
Ġc ards
ar n
ar ity
Ġp un
Ġp oultry
Ġw ave
Ġw ish
Ġf ish
Ġf iber
Ġd ated
ic ting
Ġand that
et ts
st rain
Ġit was
ad orean
ĠS our
ĠS AL
ĠI ADB
Ġon to
Ġv ulner
ĠM ajor
ĠM ulford
ĠM iami
Ġst ret
Ġst akes
os aid
Ġ2 16
ĠB ag
ĠB ern
ĠP L
ĠP ark
ĠP ty
ĠP AR
Ġ3 25
Ġ3 90
ĠF irms
ĠF leet
Ġat otal
ĠD iamond
ĠL ev
are a
Ġyear ago
ĠH y
Ġ4 22
pl aced
ĠO p
Ġare cord
Ġmon op
Ġqu ake
ĠSt aff
ĠCom inco
Ġcomp ound
act er
Ġexpect ing
Ġthey said
li quidity
ven s
Ġro ut
Ġpart of
Ġ20 5
ash i
ĠRev lon
ĠTh ose
19 90
Ġen forcement
ext ra
Ġus ual
Ġspokesman said
ĠAl uminium
vent ional
Ġsubsid ized
ull ivan
Ġfl our
ĠPl ess
Ġaccord s
pre vent
ier ce
Ġloc als
ER S
Ġpreferred stock
az on
invest igation
Ġca pt
Ġpack aging
Ġmil k
ĠAgriculture Department
ĠAd vanced
Ġeven ing
Ġtarget ed
Ġel se
Ġrepl acing
Ġhard ware
ĠIN RA
Ġur ging
ĠCurren tly
Ġdep th
ĠFore st
Ġtw oc
ivers al
Ġred und
ĠEd elman
prov isions
Ġcarry forwards
Ġexper t
Ġprotection ism
Ġtermin als
Ġsepar ately
Ġorgan isation
OS ING
Ġte a
Ġconsult ing
Ġobject ions
Wh ile
ĠArab ian
br idge
Ġdistribut e
ĠCL OSING
Ġinstru ment
ĠNov a
Industr ial
Ġrain fall
accept ed
Ġpet rol
ĠRepresent atives
cut ting
Cons olidated
proble m
Ġesc al
ĠAlleg is
cript ions
Ġlin ks
Ġexam ine
ĠBas ra
purch ases
Ġalleg es
Ġadvert ising
Ġcandid ates
Ġcanc er
Ġresc ue
Ġhundred s
Argent ina
ĠHung ary
istill ers
Ġfer til
Ġcorre ction
pur ua
ĠRost enkowski
invol ved
ccident al
0 50
1 30
9 50
I K
L and
M ark
S un
T oronto
d espite
f ess
g s
h it
i ors
m at
p ing
p ubl
p olicies
r ising
s elf
u ice
x m
es eed
en ret
or iented
Ġb ound
Ġb omb
al tern
Ġf oster
Ġf riction
as ts
Ġand in
Ġn ames
Ġe fficient
Ġh om
Ġh ur
ĠC attle
ĠC BS
ad en
ĠA S
ay ed
Ġcom posite
ĠM ae
ĠRe f
Ġst ric
Ġpro be
res ol
Ġis not
im istic
Ġex empt
Ġ19 1
us er
ĠF CC
ĠF ernandez
ĠF DIC
Ġwith drew
ec ution
ĠE ric
ĠE lders
ĠD LR
ĠD MK
Ġwh ites
are l
ĠG etty
Ġun expected
em arket
Ġhe lic
Ġ4 30
Ġtr illion
Ġtr ials
ag ger
Ġpl acing
Ġpl astics
und y
vi ol
ĠK ohl
Ġfore st
ĠY EN
Ġoper ational
Ġ20 1
Ġ30 1
Ġ17 6
Ġ18 6
Ġint ens
20 5
Ġsign als
rel iminary
Ġ27 3
ĠCommission er
with draw
comm end
Ġnews conference
Ġduring the
Ġhelp ing
pre p
Ġaff ord
Ġfac il
ĠAr m
sur plus
AR D
ĠPr ince
Ġbrok en
Ġrat ios
Ġthird quarter
Ġindustrial ized
struct ure
CC I
Ġthes ale
invest ig
par liament
IC ES
reg ulatory
Ġden ominated
industr ies
Ġmaintain ing
ĠWe ather
Ġslow ing
ĠGu inness
Ġlimit ing
includ es
Ġcop y
epend ence
ĠMin neapolis
pe ople
Ġinf ring
Ġaffil iates
Ġabs ol
Ġstrengthe ned
Ġcooper ative
ĠBu ilding
Ġdivers ified
Ġpled ge
Ġinj unction
ĠNAS D
Ġdev ice
Ġproced ure
Qtr ly
start ed
Ġrepeated ly
appl ication
minister s
Ġprovin cial
Ġne igh
Ġthr ift
Ġalleg ations
Ġdeg ree
ĠOt tawa
Ġsoy meal
particip ation
ilo ts
warr ants
Ġinquir y
Ġess ential
Ġfri end
ba um
ĠSaud is
mb H
enret te
A c
B aker
C he
C ourt
G re
I AN
J e
J an
M D
M thly
N akasone
R D
W T
a ith
c ure
d ale
f lo
h ing
h app
i us
l am
m ove
m itting
r ont
s hr
w ort
Ġt it
Ġt elling
in z
Ġa pril
er ick
Ġs us
Ġthe department
Ġc ast
at tered
Ġb oliv
Ġw ake
Ġm ills
Ġto continue
Ġan ger
as ked
et us
st ra
Ġre open
ĠT op
ĠC ra
ĠC oll
ĠC row
ĠC ie
ĠC AN
ĠC ustom
ĠR od
Ġit affirmed
ĠI TC
lr oney
ch anged
ĠM ine
ĠM itsui
ĠRe ag
Ġpro ven
Ġg iant
ĠP ubl
Ġ3 70
ĠF ire
ĠF urther
ies el
Ġwith a
ect ions
ĠE dison
ĠD OT
ĠD etroit
ĠG ates
ĠG AO
Ġun w
Ġun rest
ac er
per cent
am ong
ub stantial
ue z
Ġad vers
anc ies
ard ing
Ġac com
ug gest
ib bean
Ġper mits
so on
ĠUn its
Ġlo ading
Ġro s
Ġno ts
Ġen vis
Ġif the
Ġ31 0
Ġcontract ed
Ġdo or
ĠAl f
Ġcost ly
Ġ199 6
Ġatt ached
Ġrecord s
Ġdid not
Ġent ities
Ġrel ating
chedu ling
Ġcentral bank
ĠZ aire
ĠSouth west
Ġofthe ir
Ġinfl ow
ĠInd iana
ĠSp a
cr ude
az a
rict ions
Ġindic ating
Ġprom ising
Ġprocess ors
Ġcap able
ĠBr ian
Ġden y
EN T
pay ing
Ġpact s
icip al
Ġinstitut es
elect ronic
Ġur gent
Ġthep ast
Ġestabl ishing
Ġbroad cast
Ġexch anger
ram ework
acc ounting
Ġdro pping
bur se
ĠHar per
Ġcompar ison
plan es
ĠGr and
position s
Ġassoci ate
Ġhapp y
Ġhapp ened
ĠMont gomery
Ġtreat y
Ġrenew al
Ġwithdraw n
Wh ite
Ġmo isture
allow ed
Col ombia
Ġfeel ing
Ġaud it
accept able
Ġdepart ure
pass ed
Cont inental
establ ished
ĠIR NA
Ġremo val
ĠAp pl
Ġresident s
Ġdeg rees
lein wort
ĠRob in
iot echnology
Ġmand atory
govern ments
ĠIC N
deliver y
hd ad
Mon etary
empor ary
Ġfeas ibility
ĠJa ime
weg ian
Ġcompre hensive
xm ire
1 16
2 95
C ity
C hemical
F und
G ood
L ou
M ill
M ER
S ystem
W hen
b ide
g ood
i and
m all
p oss
r ather
s im
s econd
t own
u rom
w ear
Ġt urb
in i
in st
Ġa unit
he son
Ġs udden
re ater
Ġthe acquisition
en coura
Ġc oconut
at ings
Ġb olster
Ġf re
Ġof convertible
Ġm ounting
Ġsaid in
et ween
Ġre ferred
ĠT in
ĠT em
ĠS ur
ĠS FR
ĠS oftware
ĠA pl
ĠI TT
ve ill
Ġon April
Ġon March
Ġg en
ĠN P
Ġ3 75
ĠF iat
ĠF SLIC
Ġcon dom
Ġr ational
Ġas a
end y
ĠE aster
ĠD ay
ĠL u
ĠL uk
ĠL TV
Ġal uminum
iv ision
ĠH u
ĠH udson
oun ce
Ġhas agreed
ĠO N
ĠO IL
Ġad j
if ting
ant o
ip h
Ġle aves
Ġch ar
Ġch arter
ĠY oung
Ġinvest ing
Ġj ets
ĠV is
ik es
ific ations
ject ed
19 5
Ġ16 2
sh all
Ġagainst the
med ium
Ġoff ensive
Ġint othe
led ge
Ġdec ides
Ġtrans fers
Ġsale of
Ġ27 6
Ġdes ire
Ġ24 5
comm odity
Ġ21 7
Ġrest ore
Ġlaw yer
AN G
Ġob ligation
ĠPar ibas
work ing
Ġemploy s
ĠSen ior
ĠOP G
ĠQ atar
ĠShe l
Ġfar ms
Ġhop ing
ĠCon struction
Ġcustom s
Ġarr anger
ĠOr t
econom ists
week s
Ġdam aging
Ġins ol
Ġlic enses
Ġnor theast
ĠHong kong
Ġclaim ed
Ġwid ened
ĠBar clays
Ġtermin ation
Ġinc orpor
Ġanticip ates
Ġaffil iated
ĠMont agu
Ġharvest ed
ĠST OCK
ĠEm irates
Ġelimin ation
Ġabs ence
Ġsuffer ing
ĠGl ick
Ġstrengthe ning
Industr y
Ġdecreas ed
ĠDu ff
Ġsucceed ing
Ġalloc ated
ĠCD s
Ġjudge ment
ĠCH ANGE
Ġresident ial
ĠEX CH
ĠCap el
Ġmechan ism
Ġdeterior ation
depos it
Ġcorrespond ing
Sp ain
ĠCost a
Ġvolunt ary
Turk ey
ĠZh ao
link ed
ectic ut
. '
3 86
? "
F A
N AS
R EC
S H
S ecurity
T wo
W all
c at
c olm
d irector
j unction
n ish
o is
s ources
t arget
y le
Ġt end
er ox
Ġs ecur
Ġs essions
Ġthe pro
Ġthe agreement
Ġthe Federal
Ġo v
ar ian
Ġp it
Ġp ull
al le
Ġf ired
Ġof P
Ġm ail
Ġm ild
Ġd l
Ġan average
il ot
Ġand D
Ġand its
Ġl a
Ġl ock
ĠT ak
ĠR U
Ġit may
el e
ĠS I
ur ich
Ġfor t
Ġcom fort
Ġv oice
ĠM utual
ĠRe venues
ĠB ig
ĠB alt
ow att
Ġ19 3
ĠN at
ĠF il
Ġcon siders
Ġits common
up port
Ġr ank
ec l
ĠE li
ĠJ enrette
ĠD on
ĠH us
ĠG ra
ĠG mbH
Ġun ilateral
em n
em ln
Ġnot ably
ĠW ell
fer ences
ub e
art o
ex ploration
anc he
ell ow
Ġmarket place
ine a
Ġch artered
clud ed
ĠCom data
ĠK ur
ĠDe partments
Ġapp eals
ĠUn ilever
Ġro l
Ġ20 17
Ġ31 5
Ġ31 6
Ġredu ces
ĠAl can
Ġbecause of
10 2
Ġsur round
plet ion
omest ically
Ġlower ing
Ġ27 4
Ġ22 2
Ġ22 3
rain s
ĠMinister s
att ack
ann on
min ster
enn eth
Ġreal istic
Ġauthor ised
OR E
Ġexpl ain
Ġexpl osion
Ġstrik ing
imin al
Ġtop urchase
sto res
aim ed
Ġbr idge
Ġsw it
Ġrepl aces
Ġcre ation
mark ed
IT S
Ġpot entially
sp ending
Ġslow ly
Com mercial
olic ited
Ġdisput ed
Ġdeleg ate
Ġgener ic
acc ounts
Ġparticip ating
Ġeurobond s
eut ral
Ġnetwork s
Ġprevent ing
RE UTER
consider ing
trans actions
opp osition
Ġtight ening
Ġconsult ations
ĠPort land
Ġsatisf y
ĠRo ger
ĠApp le
develop ing
Ġcurb s
redu ction
redu ced
Ġcompens ate
Ġinj ured
project s
Ġinteg ration
ĠDonald son
Ġple ased
fac ility
Ġvolat ile
ĠHo echst
Ġgrad ual
purch ased
Ġinject ion
Ġsqu are
Bo ard
ĠAN D
Ġfores ee
Ġrestrain t
Ġplun ged
ĠMu lroney
Ġcas ual
ĠMarc os
Ġsun fl
Penn zoil
ĠNev ada
Alli ed
ĠAppro priations
ĠStra it
Ġenh anced
Ill inois
Ġattribut able
Ġareg istration
Ġexperien ced
ĠSud an
C ouncil
D av
G G
J R
K O
K uwait
O ct
S um
W B
b ust
c el
c oll
c rit
c orn
d ro
f air
h aus
k et
l umber
n an
s plit
t l
v ans
Ġ eth
Ġt raining
Ġthe week
Ġthe two
Ġthe board
Ġthe proposed
Ġb ah
Ġw ors
Ġf ly
Ġf amil
Ġm t
Ġto d
Ġto help
Ġd at
Ġd istance
is ter
is ons
Ġan initial
Ġ1 000
Ġl ear
Ġl umber
Ġl atter
st ation
Ġh ast
Ġit filed
ĠA mer
Ġon a
Ġv ary
ers aid
ĠM ack
ĠM ik
ce ived
Ġst ress
Ġg ulf
os hi
ot as
ow e
Ġde fer
ĠP arent
Ġcon crete
qu ality
Ġat a
Ġwill not
ĠJ ly
ĠJ oe
ĠD etails
ĠD OLLAR
ew as
ĠH and
ĠH eller
ĠG i
ĠG ab
Ġun named
ab e
Ġ4 60
ĠO F
ĠO pp
ĠO ff
art el
ag riculture
ag raph
all el
con cent
ign ment
Ġsp arked
Ġthis morning
ors ed
Ġ8 50
inis hed
Ġdis play
Ġse ed
Ġall ies
Ġbo x
Ġro t
Ġafter the
Ġofficial ssaid
Ġtonn age
Ġ20 2
ĠV enezuelan
Ġtonnes of
Ġen quir
Ġpropos es
ĠAn g
Ġ18 1
Ġ18 8
Ġar chitect
Ġar rears
vent h
Ġtrans mission
ths child
ob ject
yn ex
Ġ22 7
ĠPro v
ĠPro xmire
ind ependent
pon ents
Ġdemand ed
ason ally
ĠPl ant
Ġconsider ably
Ġli qu
ĠZ imbabwe
St ar
95 5
Ġreal ity
comp atible
ĠSp ace
Ġunderwrit e
cr isis
az ard
Ġmod er
Ġpost ing
Ġmanufact ures
aff irm
Ġsim ultane
ĠInter mediate
ĠMon ths
Ġbuild ings
Ġlook ed
offic e
ĠEconom ics
Ġrestruct ured
equ ivalent
Ġcre w
Ġcre ating
appro ximately
appro priate
ĠIN c
employ ees
Ġadvis or
bet ter
ynd ication
Ġemer ge
Ġspecific ally
Ġrestrict ive
Ġblock s
Ġreb ates
Ġgreat ly
rece ive
Ġassum ing
ĠAA A
ĠBu enos
project ed
adv antage
Ġdraft ing
overs eas
Invest ors
ĠKe ating
recent ly
Ġspir it
ĠBang ladesh
Ġcaution ed
Ġmicroch ips
Ġavail ability
Ġtent ative
ĠRad io
Bro thers
Afric a
Ġdram atic
ĠLuf kin
opport unities
ĠDa uster
Ġarrest ed
Ġrestaur ants
Mexic o
Ġperman ent
Ġgm t
Ġaggress ively
Ġthefour th
Ġvig or
ĠSAL ES
veill ance
ĠGlick man
4 19
4 10
A pp
B ell
D ata
K G
P H
Q ue
S ignal
V E
V ideo
V OW
Y ear
d ah
e au
g ar
g ive
h ours
i ative
l ending
l ife
n ord
o graph
r ist
r ating
s y
t omorrow
w ind
Ġt urning
in er
in vent
Ġa three
Ġthe bank
Ġthe Bank
Ġthe money
it che
es pecially
ar ation
Ġb ag
Ġb odies
al og
Ġw et
Ġf ares
Ġof H
Ġm ix
Ġin quarter
Ġin April
Ġto its
is che
ic ts
Ġsaid they
ent ral
ou d
ou ver
Ġl anguage
Ġh ydro
ĠC orporate
Ġit st
ĠS qu
ĠS ullivan
Ġfor cing
th ink
ĠM ag
ĠM ellon
os met
ĠThe ir
ĠThe company
ĠB orrow
est ing
im a
im s
ĠP SE
ĠF T
Ġcon ven
and em
ĠD O
ĠL ONDON
ĠL imited
iv idend
Ġwas not
em er
Ġ4 19
pl ants
ĠW ells
Ġwould not
over ed
anc ouver
Ġle asing
Ġcont ingent
Ġup turn
Ġcomm and
ĠCom merzbank
ĠK y
Ġtrad em
Ġfore x
ach us
Ġacc ident
ĠCh artered
Ġ20 4
Ġann um
Ġj ury
ĠV enture
Ġsales of
Ġtax ation
Ġhigh way
Ġen ormous
sh ire
arr ange
Ġus age
Ġcons ervation
Ġter ritory
Ġext ensive
ĠEn hancement
Ġdisc ounts
Ġdisc oura
Ġquot ing
Ġdemand ing
ĠIndustr ie
Ġent ity
ph ere
inter ests
Ġsupport ing
olo gy
ĠSh ort
etro chemical
Ġ35 5
ĠZ urich
Ġuse ful
Ġdealers said
comp ens
ĠSp ot
Ġtel ev
OR K
OR P
33 3
quarter ed
quarter ly
Ġaccept ances
produ ce
Ġfe ared
reg on
Ġcap abilities
Ġopp oses
Ġreview ed
ĠAnd ries
ĠEng ine
Ġpass age
hare holders
sp aper
Ġur ge
Ġbroad er
ĠBanc o
Ġknow ledge
bit ration
ĠtheS oviet
Ġobtain ing
clus ive
Ġtro uble
adjust ment
ĠWith out
Ġgreat est
Ġbull ion
ĠST G
Ġplay ed
ĠApp eals
itch ing
ĠBe fore
idel ity
introdu ction
Ġwel come
exp endit
Ġpop ulation
Iran ian
Ġenviron mental
ĠSpr int
Pl c
Ġcontact s
fac ilities
Ġsqu ee
Ġrepurch ases
Ġcour ier
Ġcoordin ation
consum ption
Ġthin ks
ĠPetro bras
Ġinn ov
ICC O
eder land
Ġeduc ation
ĠMONTH S
Swed en
ĠBU Y
ĠHond a
Ġconvertibles ubordinated
Rud man
prep ared
lumber ger
Ġbah t
VOW G
. ),
1 10
4 22
9 25
C ME
M or
M IN
R C
R eg
S W
Y ugoslav
c uts
g ence
l b
l isted
m un
m arg
s ystem
Ġt ack
Ġs oci
Ġs inc
Ġthe National
Ġthe industry
Ġthe merger
Ġthe Philippines
en f
ed e
Ġf unction
Ġf ramework
Ġm m
Ġin comes
is k
is ch
Ġan x
et able
ĠC TS
ĠC argill
ĠR ates
ĠA SA
ĠI BC
un less
Ġbe end
Ġon its
ch t
le ase
Ġst agn
Ġpro p
Ġpro cure
Ġdlrs or
Ġsh opping
Ġsh orter
im posed
ĠP remier
Ġ3 32
ĠF rom
ĠF FR
Ġcon ventional
ĠU ganda
Ġat wo
ul ing
up ply
ec ker
ĠL ear
ĠL ich
ĠL illy
ew ould
ĠH orm
ĠG RAIN
ast ro
Ġ4 99
ub committee
Ġor ange
Ġad mitted
anc er
Ġres ort
Ġsp ons
Ġle ased
Ġch osen
to gether
Ġqu alif
ia z
Ġpre t
Ġsal ary
Ġman ip
Ġunder the
Ġpay out
air d
Ġj uice
19 92
19 84
Ġk ingdom
Ġbet we
Ġra ises
Ġrep airs
25 5
Ġreg ret
Ġbel ong
Ġref usal
ĠWest minster
ret ail
ran ts
Ġlik elihood
Ġagreed to
Ġ27 2
ĠPro gressive
comm od
Ġdet ect
Ġ21 8
Ġdr ill
Ġmin erals
ĠAss istant
les inger
Ġ29 9
ah y
Ġob serv
enn a
comp ar
Ġdoes not
Ġfe atures
ipl es
ĠNor star
Ġturn around
Ġsit es
utch ison
ĠCol omb
elect ronics
ĠTrans American
ane iro
atist ical
Ġuns uccessful
Ġsom ewhat
EL L
ĠDel hi
sth is
Ġprep are
Ġautom aker
Ġautom obile
Ġattempt ing
Ġfr uit
sup er
Ġprotect ed
Ġdoub ts
ĠChemical s
Fr ank
Ġrap eseed
tel ecommunications
ĠEm bassy
Ġconsult ant
Ġobject ives
Ġproceed ing
Ġhav es
Ġsuccessful ly
Ġcare fully
Man ufacturers
Ġcompon ent
Ġdepend ent
Ġbad ly
Ġdist ort
author ities
Ġprivat ised
Ġinvestig ating
take over
pri etary
Nor way
ĠMor occo
Ġguil ty
Ġcle ared
Ġoutl ets
Ġemph asis
Ġne ither
Ital ian
Ġexc ellent
Ġrepurch ased
Ġtow n
ĠHot els
Ġdiscover ed
ĠOt to
regis tered
borrow ing
pot ential
atisf actory
Ġvict ory
Ġresum ed
rane an
Ġaccum ulated
Ġsens itive
Roy al
iter ranean
ĠChev ron
Sal omon
prospect s
Ġocc up
COR REC
Ġfun ctions
Ġunanim ously
refund able
percent age
ĠLuk man
achus etts
ĠAndries sen
" ,
2 25
4 25
A K
B usiness
C L
C able
F ar
H owever
L S
L ib
M os
M OC
N B
N ov
P rodu
R ich
T otal
W ed
X ON
c irc
k w
m aker
p res
r or
r imin
r anging
s old
w an
w art
w atch
z ing
Ġt ire
er on
Ġthe state
en ith
or f
ed ia
Ġc it
Ġw ood
Ġf alse
Ġm ad
Ġin ev
Ġin principle
ro om
is ys
is hes
Ġan alysis
Ġand re
ent ech
et ics
Ġre con
Ġn ecessarily
ĠC G
ĠC our
ĠR og
ĠR oche
ĠS ources
un certain
ĠM r
ĠM ons
ĠM ATUR
ce ive
Ġg raphics
Ġ2 87
ĠB ack
ĠB ache
est ed
Ġde vel
Ġex ceeds
Ġ19 7
Ġ19 74
ol es
ĠP esch
ĠN ord
Ġr all
Ġr iver
oc ate
ĠD at
ĠD ur
ĠD FL
ĠL in
iv als
ĠG al
ĠG ren
ĠG ramm
ĠG undy
Ġ4 18
Ġhas completed
Ġcts per
pl in
Ġbillion dlr
am ing
ĠW in
ĠW olf
ub ject
Ġwould n
ex cess
Ġ7 20
ong er
Ġup grade
Ġshares outstanding
ĠSt at
ĠSt cks
pro gress
pro grams
ĠHe avy
Ġunder valued
arg est
Ġoil field
ach ie
Ġ11 00
Ġ20 9
ens on
aw k
ide ast
ues e
ext ended
ĠAn ders
ton io
Ġar ising
Ġar my
stand ings
ĠSe oul
Ġdisc ipl
Ġserv es
Ġbudget ary
Ġbudget deficit
Ġ26 4
Ġem bassy
ov an
ĠSh ipping
Ġour s
ĠPr imary
not ed
ĠĠĠĠĠĠĠĠĠĠĠĠĠĠĠĠ ĠĠĠĠ
ĠĠĠĠĠĠĠĠĠĠĠĠĠĠĠĠ ĠĠĠĠĠĠĠĠ
ĠPh oenix
AS H
ler c
Ġtel eph
az da
amp ion
Ġdef ined
Ġdef ended
Ġfe els
ĠTel evision
Ġappl ies
Ġcomb at
gr ades
Ġant itrust
Ġintrodu cing
offer ings
Ġ42 1
Ġele v
Ġslow down
Ġtw op
Ġthep urchase
Ġrefin ers
ĠMal colm
Ġretail er
ĠIs lands
Ġevery thing
Ġlink ing
Ġblock ed
level and
fol k
ĠEqu itable
consider ed
uk i
Ġtro ubled
aps ed
Ġevent s
ĠDen ver
Ġattract ed
ĠBl ock
Ġcritic ized
Ġelimin ated
Ġsche mes
Man agement
Ġsyndic ated
Ġconfident ial
Ġdivers ion
ĠRed stone
Ġke en
ĠReg ulatory
main ly
ĠBer lin
Ġadopt ion
Ġpredict ions
Ġthet otal
Ġoutl ays
ĠSam uel
Ġaccel erated
Ġacom pany
pack age
ĠRATE S
Gold man
Ġmicroch ip
ĠOl iv
ĠNaz er
ĠMerch ant
Ġdin ars
Ġdetermin ation
Ġcateg ory
ĠCommun ist
ĠDiplom ats
ĠGh ana
ĠML N
ĠLew is
ĠStrate gic
ĠMik ulic
ĠMATUR ITY
. &#
4 21
6 60
B l
J AN
J ames
P ort
Q U
R o
R obert
S an
W L
Z L
d ated
d oor
f ailed
s erious
z o
Ġt reated
Ġa result
he avy
Ġthe group
Ġo z
it ored
Ġc oco
ar se
at ured
Ġb all
Ġb eneficial
al most
Ġw arm
Ġf el
Ġf ib
Ġf reedom
Ġin which
Ġin Washington
Ġto discuss
ro te
is ms
Ġan increase
Ġan imal
ut o
Ġand S
ent ered
et imes
ĠT W
ĠR oss
Ġit had
Ġit received
ĠS orghum
ĠA PI
Ġfor th
ĠM ain
ĠRe cent
Ġst ory
Ġis likely
ĠP oint
ĠF E
ĠIn flation
ĠE vans
ĠJ ournal
ĠL es
Ġal li
Ġal etter
ĠH art
ĠH oll
ĠH ilton
oun ced
Ġ4 75
Ġtr im
ĠW at
ĠW eek
ĠW endy
od ed
art a
con version
Ġper form
Ġshare d
for th
Ġ9 50
oll o
Ġup from
Ġaf urther
Ġabout the
vi an
Ġcomp atible
act ivity
ĠK enneth
Ġthey were
ĠMar io
ĠMar lin
Ġunder stood
Ġbo om
iz sa
Ġend orse
Ġcl ub
ach a
Ġ20 8
we ighted
ĠComm odities
ĠV ern
anad ministration
sh ar
25 7
Ġdecl are
Ġfund ed
10 4
30 9
de fin
ĠNO V
Ġopt ical
ceed ing
40 3
Ġatt ending
Ġret urning
Ġ23 8
ĠPro duct
Ġfl u
Ġ21 2
ann ually
ĠSh arp
min ing
ĠAir craft
Ġtender offer
Ġimport ing
Ġ29 7
Ġproject ions
lear ing
ĠPresident ial
DA Y
Ġprot ests
Ġbl ow
Ġcomment ing
Ġsc rap
Ġwar ships
aun ch
Ġprom ise
Ġsim pl
ient ists
ĠAc cept
ĠNor wegian
Ġtot ake
Ġpass engers
cons olidated
Ġbig ger
Ġ57 20
Ġbre ach
Ġwrit ing
An y
ĠMc G
Ġsuccess or
Ġrefin eries
Ġpoll ution
Ġsol utions
Ġgener ating
ĠCO MP
ĠCO PP
Ġsom etime
ĠMin nesota
Ġcompl ained
ĠBanc shares
Ġtrust ee
US Air
En ter
viron ment
fund a
ĠSc iences
Ġren tal
ĠPartners hip
ĠWar ner
Ġty p
redu ce
ĠGl ass
Ġdepend ence
ama ichi
ache v
Ġconcent rated
conf idence
Ġdev ices
orb achev
ĠIr ish
Law son
ĠMil an
expan sion
ĠBas in
ĠMat heson
ĠPat rick
ĠNe ither
charg es
charg ed
Ġcandid ate
Philipp ine
ĠGrow ers
rack ets
Ġben chmark
ĠCas par
ĠPers onal
Ġprosecut or
Ġcho ose
ĠCommon wealth
ĠPS BR
purpos es
Ġpersu ade
Ġboy cott
ĠReag anadministration
ĠSTOCK S
osmet ics
Ġpret ty
ĠCOPP ER
0 40
1 15
2 30
3 25
5 50
B ur
B anque
C D
C a
C or
D ixons
G reat
H eal
I v
L D
M y
O ver
P S
R O
S oci
T ON
b or
b est
b ach
b ring
b ills
c ity
f ederal
g am
h n
i est
i ag
i ances
m atur
s om
s ystems
s ector
t ank
u ant
w id
Ġt act
Ġt ension
on ial
Ġs cr
re tal
Ġthe EC
it ively
es sthan
en ominations
ed o
Ġf erry
Ġof which
Ġof interest
Ġof America
Ġin London
as ters
Ġand t
Ġl ender
Ġl essthan
Ġh in
Ġh aver
ĠT ower
ĠC all
ĠC av
ĠC arter
Ġth os
ĠR est
Ġit plans
el ve
ĠS UG
Ġfor g
Ġmln barrels
Ġbe completed
le aded
le aders
ĠB ab
ĠB rent
est ate
Ġsh ock
pan d
im mer
Ġ19 77
Ġpct and
ĠP IK
ĠF argo
ĠF ox
Ġcon stant
qu ota
qu otas
Ġthat it
Ġfrom discontinued
ec ont
Ġas well
ĠE ver
ĠE UR
ĠD ie
ĠD istillers
Ġal ter
ĠH al
ĠH ills
em ala
ak ed
ak arta
tr ust
our i
ĠO regon
ree k
over all
the less
Ġbank rupt
der ed
Ġch ild
und ers
ist ol
Ġ8 75
Ġbut the
ĠCo hen
ĠSt one
Ġtwo years
Ġpr inc
ix on
Ġacc ur
Ġ20 7
Ġinterest payments
Ġcould be
ass istance
Ġfinanc es
Ġtotal s
Ġcons isting
ĠAn alyst
Ġany one
ffect ive
10 9
Ġar tific
Ġfinancial ly
bank en
16 5
Ġboard declared
stru ment
Ġatt ended
rel l
Ġ22 1
Ġ22 9
Ġ23 4
Ġ24 1
Ġshort ages
Ġexp ress
Ġannual meeting
comm un
Ġfil m
ĠPl us
ĠPresident Reagan
Ġcompet itor
Ġste am
Ġbl oc
Ġconf ront
Ġhead ded
ME AL
Ġ34 7
AL S
33 4
Ġcou ple
ĠAd dition
Ġlet ters
Ġprom oting
ĠBr ad
ĠBr un
ĠPhil ip
Ġarr anging
ĠAc cord
Ġgre en
UN D
UN CH
ĠSE LL
ath on
Ġreject ion
Ġthep ublic
ĠSch ro
employ ed
ĠRepublic Bank
ĠMin or
oe ing
Ġattempt ed
ĠLoan Association
Ġwor se
Ġmax im
Ġdefin ition
ĠMet als
Ġce ment
Ass oci
Ġtro y
Ġstand ing
Ġstand still
Ġmargin al
Ġharvest ing
Ġreschedu le
Ġplay ers
Ġz ones
ĠRo thschild
Ġhav eto
Ġdivers ify
ama ica
Ġaud itors
Ad vanced
ĠThom son
Ġthel argest
Ġconclud e
Ġwind ow
Ġaccel erate
whe el
beg an
beg inning
pet ual
Ġweaken ed
ĠRet ail
Ġreserv ed
emon ths
Ġassur ance
ĠInit ial
ĠRail way
Ġaver aging
Malays ia
ĠMic hel
zan ia
Ġtreas urer
ĠinL uxembourg
ĠCel anese
ĠMary land
ĠStep hen
ĠCath ay
ĠBag hdad
ĠEric sson
sy ch
ĠOliv etti
izsa ecker
ĠSUG AR
) ."
1 19
2 20
2 75
6 40
7 80
B ang
B OT
E uro
F I
F ree
I UM
L iber
N D
O il
O ffic
O ECD
S P
S ome
V al
Y eutter
a q
b urn
e op
g reen
h o
k es
n a
s ale
w on
y ou
y pe
z z
Ġ err
er tain
Ġs yn
re fin
an i
Ġthe last
at i
at ethe
Ġb ureau
Ġof Japan
Ġof common
Ġof directors
Ġin ch
id ency
Ġto improve
ut r
ou p
Ġl ag
Ġe lement
ĠT tl
ĠC ord
Ġit acquired
ill a
el imin
ĠS on
ĠI to
un likely
Ġbe aring
Ġon T
ch i
Ġv end
Ġst ages
ly n
ĠB V
ĠB race
im ilar
ra f
ol t
ĠP RE
ĠP eps
ĠN ich
Ġcon strain
qu ick
ĠIn s
ec ip
Ġas pects
ĠE state
ĠD C
ĠD EL
ĠD omes
ĠG ro
ĠG ould
Ġun willing
ak ota
ac ility
Ġ4 35
tr aded
ag ain
the m
if ers
Ġwhich will
Ġres ale
ib r
Ġch ann
Ġmon itored
Ġthis week
ap y
Ġone of
Ġcomm issions
urren cy
Ġfin ally
ĠK ay
ĠK ey
ĠK leinwort
Ġover r
Ġman ner
onn ais
ĠMar shall
ĠHe y
Ġapp ointment
ĠUn til
Ġoil and
ĠY amaichi
Ġ20 6
ountr y
ĠTh er
part ies
Ġind enominations
Ġspokes men
Ġ17 9
Ġsix months
urn iture
Ġar med
fl u
bank ruptcy
ĠSe emala
Ġserv ing
Ġsl ack
Ġbas es
yn e
Ġ22 6
Ġ23 2
ĠPro perties
Ġ24 8
comm unications
Ġ21 1
Th ailand
ov ich
ĠSh ad
ĠSh ow
vol ution
Ġpar allel
Ġconsum ing
AN C
17 9
14 7
ĠIran ians
Ġmet res
Ġste pped
Ġjoint venture
orn e
Ġpresent ly
Ġindic ates
stock holders
Ġsee ing
ĠMon ier
Ġtest ed
Ġarr ived
ĠOr ange
cons ult
new s
sub stantially
ĠCar bide
Ġprospect ive
Ġins ist
Ġthep resident
Ġquestion ed
ĠPaul Volcker
Ġautom atic
........ .
ĠBar ber
consider able
fund ing
trans fer
Ġce ase
rect s
estim ates
Ġcare ful
sw ick
ĠShare holders
Ġappeal ed
Ġamend ments
Ġshut down
Ġsaf egu
Ġlabor atory
Ġarg ue
ĠWal ter
do es
law s
ĠSep ar
det ails
IV E
Ġcontain er
Ġadvert ise
Ġinsur ers
Ġimm unity
CP B
Ġtool s
Ġflood ing
Ġfranch ise
claim s
ĠRain bow
Ġsupplement ary
broker age
ĠSOYBEAN S
ĠSat oshi
Organ ization
Ġmess age
heim er
ĠTH REE
Ġgather ing
anticip ated
fra me
ĠEcu adorean
oran dum
prem ium
extra ordinary
Ġadvers ely
ĠBUY ER
ĠGren fell
. /
1 35
2 70
2 17
4 40
5 60
7 20
C ard
E gypt
G DP
G NP
M itsubishi
N EC
R W
U D
Y R
c ethe
d ner
e k
g ests
h us
i ar
m aining
n umber
p op
Ġt ak
Ġs ports
re view
Ġthe H
Ġthe h
Ġthe international
Ġthe previously
Ġthe transaction
Ġo ctane
es co
en cing
Ġc ounty
Ġp ilots
Ġb arge
Ġf aith
Ġm ist
is er
ic it
Ġand c
Ġand priced
ent ire
st ated
Ġre porter
00 8
Ġn aval
ĠC iba
ĠS H
ĠS ol
ĠS ait
ĠS yr
ĠS outheast
ĠA LL
ur on
ur ance
Ġbe ent
Ġv ast
ĠM ats
ĠM ountain
Ġst orm
ĠB ourse
res cheduling
res dner
ig aret
Ġis ol
ot us
pan ied
Ġ19 4
Ġ19 76
ĠP en
ĠP ick
ĠN ob
ĠN oting
Ġ3 45
Ġcon vers
ĠIn n
ĠIn land
Ġwill have
oc ation
end ous
ĠJ eep
ĠD ub
ĠD ayton
ĠD iaz
ore st
Ġyear ly
ew ay
ĠH enders
Ġun quoted
ric es
fic iency
Ġ4 40
Ġbillion francs
ĠW ater
od es
the tic
ex am
ex porters
con gress
con cession
Ġwhich has
ell ular
Ġac commod
Ġpl atinum
ren e
Ġsp oke
ib ilities
pr im
reas e
Ġcont ext
ok ed
Ġim age
ĠCo Inc
ĠK uro
av ir
Ġunder taken
Ġend orsed
ĠCh ad
Ġ30 5
Ġam ort
Ġstr ugg
Ġk w
Ġpropos ing
Ġtotal ly
Ġprov id
Ġcent res
Ġset back
In surance
Ġ50 2
Ġanalyst ssaid
Ġmay be
ĠFin nish
16 8
Ġdel iber
ob a
rel ations
wh olly
ound ation
Ġ27 1
Ġdid n
ĠPro ject
Ġ24 2
Ġsuch as
Ġdet ail
Ġ40 5
Ġ21 4
Ġsen ators
45 5
ĠPr att
Ġmet ers
contin ental
Ġconcer ted
Ġshar ing
Ġpe ace
Ġpost pone
ĠCent ers
reg ular
Ġant ib
ĠNor folk
Ġtraded eficit
Ġgovern ing
Ġrespect ive
Ġpolitical ly
Ġ--- -
Ġview ed
Ġdiscount ed
Ġfind ings
Ġintent ions
ĠMid west
ke pt
ĠIs lam
bur gh
Ġstabil isation
Ġlaws uits
Ġautom akers
Ġdeposit ors
eng ine
Ġmiss ing
Ġviol ation
Ġtechn iques
Ġhim self
Ġorgan isations
Ġwer en
gu ilders
Ġassoci ations
disc ount
ĠEnter prise
Ag ency
control s
bl ock
Ġuncertain ties
run ning
ĠSub committee
represent ing
ĠCos aid
pers on
sen ior
process or
ĠOut put
Ġassess ment
Ġreact ed
ĠWal ker
Net herlands
des ign
des igned
Ġmar ine
itr us
Ġplat forms
AG O
ĠIsrael i
Ġevalu ating
strate gy
regis tration
Ġroad s
Ġthous and
dum ping
ĠConn ecticut
Ġbarg aining
need ed
conn ection
ĠConra il
guarant eed
Ġargu ment
Ġprofess ional
Ġconsequ ences
Ġpipel ines
Ġfriend ly
Ġchar acter
Ġprocure ment
ĠBack log
eop ard
1 85
1 17
2 80
4 32
B H
E Y
N iger
P M
P W
P akistan
P ZL
S ep
b in
b ell
c ase
d rop
f lect
f ull
g ard
m ary
n ear
n ual
p son
s aying
t ro
u or
u ce
w inter
Ġt ick
Ġt rees
in ational
Ġa st
Ġa ided
er ner
on i
Ġs n
Ġs own
Ġs hed
Ġthe financial
Ġthe period
it age
it ney
or able
or ms
or thern
Ġp ark
Ġp apers
Ġw rote
Ġin struct
Ġin October
is an
Ġan in
il er
ic able
ut ility
Ġand Tel
ent y
et as
Ġl aser
Ġre ly
Ġre valuation
Ġn eutral
ĠT ob
ĠC ut
ĠC ATTLE
ĠR om
ĠR os
ĠR osen
el ess
th ony
ch or
ĠM ideast
ĠRe port
ĠB i
ĠB il
ig y
Ġsh ape
ra c
ol and
ĠP ork
ĠP ack
ĠN ors
ĠN og
ĠN ederland
Ġ3 85
ĠF EC
Ġas p
Ġas pecial
ĠJ oint
ĠJ ordan
Ġwh atever
Ġwh iche
ĠL eg
ĠL akes
ĠL easing
ĠH ock
ĠH ard
ĠH ernandez
ere x
ĠG a
ĠG RAD
ĠG orbachev
Ġun clear
Ġun acceptable
ab ling
Ġ4 70
Ġbillion yen
Ġbillion marks
ĠO ats
ĠO ptions
man ufacturers
port ation
port fol
Ġ6 40
Ġad ec
if ted
ell ets
Ġres cheduled
Ġres idual
ug al
Ġloss carry
Ġch art
Ġstock market
Ġthis month
ust ed
Ġup coming
Ġup graded
row ave
ĠCo al
ĠCo Ltd
ake over
iss ory
Ġ12 00
own s
li e
Ġcl o
Ġass ured
Ġthree years
Ġ30 2
Ġ30 8
19 89
sh aring
Ġind ict
25 4
Ġ31 3
Ġrem ark
Ġ50 8
Ġ25 8
10 3
fl ag
fl ight
ember ton
off set
cont ra
Ġbas ket
Ġco arse
Ġcr iminal
Ġ24 4
Ġexp ed
Ġmoney market
comm itted
vert ising
Ġnews print
Ġbid ders
Ġdr astic
ĠPl aza
Ġ28 2
Ġ28 4
Ġbasis points
Ġadv ice
Ġtender ing
IN C
ĠFinance Minister
Ġloc ation
stitut es
uc r
13 8
Ġform a
Ġform ing
95 1
enn is
14 1
14 9
Ġste ers
Ġbl ast
22 4
Ġauthor ization
Ġsc ientists
pec ific
ict ures
int ex
int osh
Ġfar mer
Ġ33 7
abl eto
Ġarr ive
ste el
ett le
29 8
Ġcharg ing
bu ilt
Ġsw ing
Ġliquid s
share holder
sub s
sub ject
sub stantial
ĠCar ibbean
Ġele ments
ĠGold en
Ġbre aking
Ġdon ors
Ġther est
Ġtw om
Ġins ufficient
Ġlic ence
ĠPrime Minister
Ġuns olicited
Al leg
ĠDel egates
Ġtermin ate
ĠDav is
Ġoc cas
Ġwor ry
US DA
ĠMe at
ĠSc ientific
Ġed ible
BB ER
Ġsuper computer
ĠWith in
Ġkil owatt
ĠBl ue
ĠX erox
UM IN
ĠFrank lin
As ia
ĠEuro dollar
Ġregard ed
ĠOPEN ING
Ġadequ acy
Ġprec ious
Ġfinis h
ĠHen ley
custom er
ĠLib yan
ca used
Ġcere al
Ġdiscover y
Ġmonitor ing
consum ers
Ġinsur er
ĠtheB undesbank
Ġgall on
Ġgall ons
quest ion
Democr atic
Afric an
ĠPont iac
Ġhospital s
ĠAL UMIN
lim it
priv ately
Ġriy al
annes mann
Ġmention ed
Ġleng th
Ġindebted ness
ĠAustr ia
ĠCub a
ĠEurobond s
ĠVi enna
Sm ith
ĠCustom s
Ġaccom panied
ĠRU BBER
Que bec
ĠHorm uz
ĠColomb ian
ĠSepar ately
ĠHenders on
ĠKuro da
Ġkw acha
. (
0 45
1 75
2 40
2 60
3 32
3 94
4 30
6 80
7 85
8 40
B D
B oeing
F uj
K ong
L IBOR
M obil
P an
P aul
S terling
T oday
X L
b ig
c ock
c ars
c redits
e vent
e fficient
f ire
f ood
g ains
h aving
h olm
k eep
l ish
l ittle
m ortgage
s ell
u o
Ġt or
on a
Ġs il
an ium
an abe
Ġthe American
Ġthe administration
it o
Ġp ra
Ġp eg
Ġp ilot
Ġb att
Ġb rackets
Ġf illed
Ġf uels
Ġof D
Ġin g
Ġin Japan
Ġto l
is d
il itary
Ġand M
Ġre fer
Ġe valuation
ĠT a
ĠT ok
ĠC rop
ĠC oca
ĠR h
el ed
el evision
th a
ve hic
Ġon emln
ch aft
ĠRe eb
Ġst opp
Ġpro prietary
ly m
ĠB all
ĠB ase
ĠB AS
ĠB eth
ĠB enson
res erve
ig s
ol i
ol ester
ĠP apan
ĠF o
ĠF TC
Ġcon ced
Ġcon vention
Ġthat would
Ġr ush
ec ause
oc ra
ĠJ akarta
ĠD AY
ĠL ind
ĠL atest
ĠL ucky
ĠL IFF
ĠH utchison
ĠG ener
ĠG race
Ġun known
em i
em pl
ac om
Ġ4 90
am end
ĠW ash
ĠO m
ĠO re
ĠO cean
ag le
oss ibility
Ġad her
Ġwhich is
ant ages
pect ed
pr ime
to o
und a
eek s
Ġim porter
ia h
Ġout standings
Ġsal aries
erv ed
Ġse a
Ġexpect ation
iz za
Ġ15 00
Ġoil prices
ang o
ĠCh arter
ens land
ĠV entures
ĠV ancouver
Ġam bassador
19 4
ass ociation
Ġwe igh
Ġfive pct
Ġfive years
Ġsome one
tain er
Ġra re
inistr ies
25 3
In t
In stitute
Ġrem ed
Ġ50 3
Ġdown from
put e
86 4
Ġrise in
stand ard
Ġbefore the
off ers
Ġmark ka
15 7
Ġ23 6
Ġ23 9
Ġ24 7
Ġ24 9
Ġmer ely
Ġpriv ates
Ġannual ized
ĠSecurities and
Ġsecond quarter
Ġrel ation
inter view
Ġrest art
12 3
ov es
ĠAir port
35 8
Ġ29 4
Ġ29 6
13 4
ator ial
Ġstake in
ĠTreasury Secretary
ders ecretary
Ġ45 5
Ġmod ified
55 5
De utsche
IC H
produ cer
27 1
gr ading
gr anted
ĠEng lish
olid en
erm o
Un iversity
Ġenter ing
Ġeng age
FF EE
Ġfav oured
Ġther ight
Ex press
Ġvis ited
ĠSch lesinger
Co ast
ĠCO COA
ĠCO FFEE
Ġsom etimes
Ġcompl aints
Ġautom atically
ĠSm all
Ġbook ed
ĠAb dul
requ ired
rec iation
Ġstim ul
bro s
Ġcol le
Ġrum ored
Pr udential
ereg ulation
Ġtim etable
Ġbonus es
ĠPC GG
Ġissu ers
ĠCr uz
redu cing
Ġportfol ios
Ġregard less
ĠSub s
ĠBond s
Ġpick up
Ġiniti atives
mid t
dividend s
Ġprec ip
Ġnorth west
ĠMiss ouri
amer ica
Ġdeep ly
Rep resent
Cont rol
Ġdefend ants
Ġhed ge
def ense
Ġdisapp ointing
ĠPortug uese
Ġinstall ation
Ġweaken ing
provision al
Ge igy
increasing ly
depos its
Ġindirect ly
AX P
Ġassur ances
priv at
ruct ure
Ġgl ass
ĠHans on
ĠNicaragu an
pract ices
Ġgues stimated
habil itation
Ġweap ons
Ġvulner able
ĠPless is
Ġredund ancies
Ġfacil itate
Gre enspan
Dav id
CORREC TION
Ġrall ied
Heal th
olester ol
ĠLIFF E
0 10
4 90
I W
N L
P E
S D
S o
S ales
b ed
c offee
g ments
g iven
h op
i ere
i mental
l ot
l ightly
l etter
m illion
n early
p ath
x ide
Ġt ora
in y
in stead
Ġa vert
Ġa iling
er a
he aring
Ġs cept
re commend
Ġthe ire
Ġthe third
Ġthe development
it ts
Ġc itrus
ar ch
Ġp etrochemical
Ġb le
Ġw omen
Ġf ails
Ġf ishing
Ġof R
Ġof U
Ġof t
Ġm ores
Ġin connection
Ġto meet
Ġd iver
Ġd omestically
Ġan additional
Ġan indicated
ic ian
ut ory
om et
Ġand B
Ġand m
Ġand non
Ġand development
Ġand Industry
Ġl ent
st able
00 5
ĠT am
ĠT MOC
ĠC AR
ĠC lerc
ĠR ica
ĠA CT
ĠA IR
ĠI van
un n
un is
un employment
th ur
Ġdlr sto
Ġg iv
Ġg ame
Ġ2 19
ĠB os
ĠB ANK
ĠB anner
ĠB aird
res earch
ig ure
ear le
Ġ19 75
ĠP as
ĠP ioneer
ĠN av
rom e
Ġ3 35
ĠF re
ĠF ro
ĠF idelity
qu ity
Ġits shareholders
Ġwith holding
ĠD h
ĠD airy
ĠL IT
Ġyear and
ĠH esaid
Ġun identified
Ġun profitable
Ġun precedented
em y
ric ts
Ġnot ified
Ġag ents
ĠW ales
ag ues
the astern
lt o
if ferent
ell a
op ters
Ġres ource
ug he
Ġsp ell
Ġstock brokers
ight ened
ors che
pos itive
Ġim minent
row th
ĠBank of
pro ceeds
vi ate
Ġcomp are
ĠK l
rit on
ie ce
Ġnet income
Ġass aying
Ġsup erv
aw att
Ġ0 8
ific ance
Ġk new
fore casts
Ġthere g
ĠAn tonio
Ġwork stations
Ġcut backs
Ġcontract ors
lo be
Ġsur ged
ech an
Ġtrans ition
15 6
Ġret ro
Ġ22 4
Ġ23 1
Ġdirect ed
oper ative
ĠEC GD
Ġfil ings
Ġfirm ly
Ġdr illed
Ġgu ess
Ġ28 9
Ġmin imal
ustr ation
Ġsug gests
ĠFinance Ministry
co gn
Ġob viously
ĠPr inting
11 1
Ġbl ue
ev itch
Ġspecial ist
eas ures
etrole os
Ġsc re
Ġsc ientific
Ġrev ise
Ch inese
IC K
IC AGO
Ġsuc ceeds
ĠLe on
ĠLe ahy
ĠInter im
Ġcompleted the
Ġreview s
au ction
ĠElect ro
ĠFund ing
econom ist
Un der
Ġaccording to
ĠNor c
cons istent
Ġhard er
sp ace
ĠTrans co
ux ury
ĠMc K
Tr ading
Ġins isted
Ġdiffer ential
Ġph one
Ġcop e
Ġunderwriting combined
fall ing
prov iding
urb an
ĠWall is
eng ineering
Ġthreat en
Ġthreat ening
Ġevery one
Ġcompar isons
iro z
Ġprevent ed
ĠGre y
Ġident ical
ask evitch
credit or
Ġdefin itely
Ġconn ect
ĠMet ropolitan
tel ephone
ĠIts aid
Ag reement
Ġtheb udget
Ġcalc ulating
ĠMac ao
Ġexecut ed
uh arto
Ġimpos ing
Ġestablish ment
general ly
process ing
Ġlay offs
uccess fully
ship ments
Ġple ase
start ing
Ġtap e
ĠCor azon
appl ications
Ġwritedown s
dif ferent
Ġlicens ed
Ġdisapp ointed
Ġreluct ance
ircu its
Gen Corp
hand le
Ġcour ts
Ġcontinu ous
Ġhog s
Ġhon or
Ġpopular ity
Ġsubsequ ently
Ġswitch ing
Ġplun ge
HL BB
Pe ople
ĠRock well
ĠAz purua
Ġexact ly
iang le
gener ation
Ġword s
ubs cribed
ĠAtt orney
Malays ian
ĠRud ing
Ġriy als
lev ite
ĠAcc ounting
Ġjun ior
Ġwit he
exerc ise
Ġrecip ro
Part ners
trad itional
ĠRex nord
Ly ons
Ġstret ch
NAS DAQ
ĠGab elli
ĠLich t
shar ply
Ġconfront ation
ĠIslam ic
ĠReeb ok
0 25
0 75
0 90
2 10
A pl
B e
B al
E F
E conom
F T
G O
H igh
H ome
H ughes
I DA
L B
L a
L ambert
M T
M art
P ublic
P etro
R T
S tr
S ocial
S uper
b as
b ey
b earing
d eter
d win
h al
h ound
h ind
j et
j oin
k ill
m ons
m iles
n ormal
o a
p etroleum
s qu
s oft
u um
v ices
z y
Ġ ,
Ġt ur
in ancial
Ġa one
Ġa wards
er ver
he alth
Ġs pl
re b
re li
re form
re organization
Ġo ats
en heimer
Ġc ircuit
Ġp ellets
Ġb inding
al c
al o
al ong
Ġf ur
Ġm aster
Ġm inistries
Ġin coming
id an
id man
Ġto have
Ġd ipped
ro to
Ġan im
ut ely
om ed
et in
Ġl ives
Ġl ira
Ġre affirm
Ġh ike
ĠT im
ĠC z
ĠC ountries
ĠC leveland
ĠR y
ĠR ose
ĠR ING
ĠR hod
ĠS ony
ĠS econd
ĠA ust
ĠA DB
ĠI G
Ġbe com
Ġcom merce
ĠM aize
Ġst rict
Ġst ems
ĠB lo
ĠB oyd
ĠB oren
ĠB etween
res igned
res ponse
ow ell
Ġsh ake
pan e
Ġ19 72
ĠP A
ĠP ipeline
ĠN Z
Ġ3 19
Ġ3 86
Ġcon junction
ĠIn struments
Ġits s
Ġwill continue
up graded
Ġas pokesman
ĠJ aneiro
ĠD E
ĠD am
ĠD akota
ĠD resdner
ĠL ord
ew ere
ĠG elco
Ġhe ading
ab s
ab ama
ac r
Ġ5 20
Ġ5 45
Ġnot be
Ġbillion s
igh th
ess aid
ĠW ind
ĠO NE
the ns
Ġ6 30
se at
Ġwhich was
Ġ7 37
mer ch
pr us
ok u
ap h
Ġinter mediate
ist on
Ġ8 70
Ġone billion
Ġout flows
iss en
ax ter
ĠK anon
av ed
ĠMar athon
li abilities
ĠHe inz
Ġapp arel
ang ible
Ġofficial said
Ġ20 16
we ight
Ġass emb
ĠComm ons
ĠV a
Ġam eeting
ass um
Ġwe alth
Ġen hancement
ext ile
25 6
Ġ31 8
ater ial
Ġ25 1
Ġ25 5
Ġ25 6
ever theless
Ġcapital isation
ĠWest inghouse
Ġspec ified
Ġunit of
Ġ199 8
ĠSe attle
Ġopt ional
Ġsl ash
80 8
Ġbas ically
ery l
Ġ27 9
Ġdes crib
Ġsecurities offerings
85 2
Ġmer it
60 3
Ġfl otation
Ġfarm ing
Ġpress ed
Ġnegoti ator
min ute
ĠSouth mark
17 7
St oltenberg
Ġinternational ly
enn e
14 3
Ġgr ading
Ġ200 7
Ġreal ize
Ġrepresent ation
Ġtraders said
Ġhead quartered
Ġthes ystem
bo ok
orm ally
Ġpresent ation
Ġpost s
ents en
Ġ32 8
ĠShe ikh
Ġprom issory
27 3
reg ulations
expect ations
uck aby
ett led
ĠOr ders
ĠVol ume
39 8
set ting
Air lines
Air bus
ne ider
Ġmonetary policy
ivers ified
road s
announ ce
Ġclass es
06 2
Ġsuggest ing
Ġsuggest ion
Ġche cks
Ġemer ging
ĠMed ia
Ġknow s
capital ization
agn ie
Ġinst al
Ġmult iple
complet e
Ġhouse hold
Ġviol ating
Ġprotect ing
54 3
din and
Ġed ge
ĠMet all
Ġevent ual
long ed
Ġrig id
world wide
Ġcoll apsed
Ġdesign ated
Ġfoc used
agu ar
Sw itzerland
ĠCa isse
Ġdistribut ors
ĠPR ICES
real istic
Ġsouth west
ĠChe ung
Ġentit le
Ġsucceed ed
ĠWal sh
Ġwind s
ĠBec or
yr d
Mc Donnell
Car thy
etr ading
Ġesc ort
ĠHaw k
expan d
Ġthr ust
Ġexclus ively
ĠLib or
BO E
sl ightly
Ġconsolid ate
Ġprin ters
Ġprin ting
Ġprohib ited
Im port
ĠInt elligence
ĠGrow th
Ġspir its
Ġreserv ations
Cit ibank
Ġinquir ies
Ġvo iced
ĠDisc ount
uer to
Ġlegisl ative
Ġrenegoti ation
fact or
ĠOs aka
Ġbecaus ethe
ĠNicaragu a
Ġindefin itely
Ġpurchas ers
Ġpromot ion
ĠJeff rey
laun ched
Ġpreced ing
ĠVict or
Lyn g
ĠPharmaceutical s
Ara b
reason able
Ġbuoy ant
attract ive
agger ated
Ġboliv ars
poss ibly
ĠShel f
Ġinsol vent
ĠSI MEX
itche ll
Ġqualif y
ovan ovich
Ġprinc iples
ĠSELL ER
ĠNog ales
Ġtora ise
ĠClerc q
2 86
2 92
2 34
2 99
3 15
4 60
5 20
7 12
E l
E very
F eb
F BC
K e
M L
M at
M ost
M ont
M any
S yn
S avings
S outhern
S ervices
Y O
b re
b ad
b urs
d ist
d one
k ind
m oil
o es
r ade
t ier
w or
in ar
Ġa joint
Ġs ow
Ġthe D
Ġthe M
Ġthe three
Ġthe exchange
Ġthe British
en ough
en cer
Ġc urt
Ġc osmetics
Ġc igaret
Ġp ess
Ġp osed
Ġp ath
Ġb ra
Ġw ine
Ġof American
Ġm un
Ġm ount
Ġm illing
Ġm obile
Ġin U
id uc
Ġto uch
Ġto ler
Ġto develop
Ġto prot
Ġd iesel
Ġan on
il s
ic ism
Ġand financial
00 1
00 00
Ġn ickel
Ġe cho
ĠT RAD
ĠC ase
ĠC ass
ĠC ORP
ĠC learing
Ġit raised
ad ministr
ad opted
ĠS pect
ĠS ie
ĠS ym
ĠS IX
ĠA EG
ur isd
Ġfor its
Ġbe er
Ġon Friday
le ming
ĠM ount
ĠM ile
ĠM azda
Ġst iff
Ġg rants
ĠB es
ĠB ou
ĠB ott
ot ment
ot ronics
ot ype
ir s
ir ut
Ġsh ifts
Ġsh ifting
ol esale
Ġpct interest
Ġpct stake
ĠF irm
ĠF OUR
ĠIn cludes
oc ations
and o
Ġas part
ain tain
ĠE urop
ĠD om
ĠD ai
ĠD iet
ĠL au
ere als
Ġun paid
em en
ac cess
Ġ5 30
Ġ5 40
ud ent
od d
od ore
cl es
ag encies
man t
Ġare n
ex changes
all eng
con tribut
Ġad apt
ard ian
Ġac compl
ign s
Ġres ur
Ġsp are
pr imary
Ġper formed
Ġlast ing
ap le
Ġout flow
vi ed
ĠCom b
ous ands
eb uck
Ġcomp lement
ĠK LM
Ġrec all
Ġapp oint
ĠUn isys
ĠY ORK
Ġ20 11
Ġtold the
Ġ13 00
Ġquarter and
aw as
Ġno on
ass et
okes woman
ss en
Ġk ern
gra v
ied t
ĠAn thony
Ġow ning
Ġreg ime
Ġdecl aration
Ġter med
Ġ50 4
Ġdown graded
rol et
30 1
Ġgain ing
ĠEurope anc
ĠSe idman
ted ison
40 8
ĠAv ailable
Ġthem ajor
other mal
ordin ate
Ġ23 7
Ġ24 3
ind ic
Ġav g
Ġpublic ation
comm odities
Ġbid der
ĠPl atinum
Th om
Ġaccord ance
Ġrest ored
12 6
12 8
Ġbar red
Ġsubsidiary of
Ġsen iors
ĠSh opping
vol at
ai ro
min ation
32 2
13 3
ĠPh arm
ER C
Ġbl ame
Ġ45 4
Ġpers ons
Ġcondition al
Ġdef ensive
Ġdef eat
ĠSoviet Union
ĠBro ok
bo at
Ġsc reen
int ends
Ġcrude oil
Ġforecast ing
Ġstud ied
34 1
Ġmid session
64 9
37 2
ste am
ste ady
eth rough
47 2
Ġaim ing
rem ained
Ġsw eeping
36 9
Ġproper ly
interest ed
ush ita
Ġsusp ending
Ġhand led
ĠVol vo
ĠChr is
Ġflo ated
elect ions
ĠCons umers
ĠWe izsaecker
OL IS
Ġcred ibility
ĠSal t
ĠCit izens
zer ian
Ġvis ible
Ġsuit able
ĠCont ract
04 2
ĠCO M
Ġrather than
........ ....
ĠHar old
Ġinc ash
ony m
CA WL
gl om
Ġconn ected
ĠSc ot
Ġanticip ation
ĠDen ominations
aus es
Ġpres erve
ĠST ATE
ĠJe an
Ġdesign s
AP OLIS
ĠX uto
omb ard
Ġissu er
Ġfra ction
ĠPol ish
ĠVal ue
ĠAff il
ĠAff irmed
Ġinvestig ate
conf irmed
Ġprec ise
Ġlay off
Ġtrades urplus
amb re
Ġpo ison
do ing
Ġmis leading
Ġvirt ual
rovers y
fort un
Par liament
ris k
ĠSocial ist
Ġmem orandum
ĠMore over
Ġtrip le
Ġsettle ments
ĠMel amed
ĠLib ya
Ġprepar ation
Ġdanger ous
strate gic
ais er
Ġcontinu eto
ĠSoci ety
Ġrevers ed
Ġrevers al
ĠHam burg
ĠTR W
Ġexist ence
Ġtost abil
affil iate
ĠConra c
Mich ael
Ġpul p
Ġid le
Ġham per
ĠMax well
ĠRefin ing
ĠandL oan
commit ments
Ġhass igned
Ġobstac les
Ġstockp ile
ĠINTER EST
ĠCamp eau
associ ated
ĠPAR IS
Ġrout ine
altern ative
ĠCra xi
Ġenvis aged
ĠVis a
Ġsurround ing
Ġsunfl ower
Sum itomo
Ġfamil ies
Ġsimultane ously
ĠBorrow ing
Ġanx ious
Ġbetwe enthe
kw orm
Ġours elves
iag ara
ĠBab cock
ĠDie go
ĠHey man
Ġadvertise ment
itts burgh
iduc iary
alleng es
" .
0 20
1 88
1 32
2 19
2 85
2 35
2 11
2 66
2 38
3 17
4 95
4 92
5 80
5 15
5 65
5 78
5 77
6 95
7 67
9 60
9 45
A ff
A IDS
B u
B ond
C offee
C PC
D OS
E AD
E cus
F ort
F EB
I MA
M H
N ow
P G
P ower
P ont
R ay
S eries
S cott
T D
T her
T enn
W al
X Y
a ise
b ear
c re
d re
e urobond
f ixed
g ave
i esto
k il
k ee
l ers
m ail
m icro
m aterials
n atural
o ans
p oen
r ison
s k
v ote
Ġ )
in j
Ġa U
he ct
Ġs ending
Ġs aving
Ġs outheast
Ġthe G
Ġthe in
Ġthe out
Ġthe offer
Ġthe price
Ġthe debt
Ġthe issue
Ġthe deal
Ġthe Gulf
Ġthe central
Ġthe Netherlands
Ġc arm
Ġc ounts
Ġc artel
ar ia
Ġp sych
at on
Ġb are
Ġb ure
Ġb iotechnology
Ġm th
Ġm ak
Ġto finance
Ġto prevent
Ġd ial
Ġd ip
Ġd ominated
is ers
is anti
il uted
ic ide
ic ks
ut ation
Ġand un
et ch
et ax
Ġre consider
Ġn umer
Ġh un
ĠT alks
ĠT aylor
ĠC ro
ĠC reek
ĠR af
ĠR ico
ĠS l
ĠS el
ĠS us
ĠS yn
Ġfor undisclosed
ĠI CI
Ġbe used
Ġbe made
ch ance
Ġv ill
le ans
ĠM agn
ĠM TI
ĠM annesmann
ĠRe form
Ġg un
ĠB ever
ĠB entsen
res ources
ig ence
ot el
ir ty
ow ards
Ġex ists
Ġex emption
ra ise
ol as
Ġpct rise
ĠN ot
Ġ3 66
ĠU K
Ġr id
ĠE du
ĠE TL
ĠJ ovanovich
ĠD rew
ĠL B
ĠL ate
ĠL ock
Ġ" (
ĠH av
ĠH uckaby
ĠG all
ĠG obert
Ġun q
em ands
Ġ5 15
Ġbillion in
ĠW ould
ĠO VER
old ers
Ġor al
con verted
Ġad efin
Ġ7 67
Ġsp ect
50 7
50 8
pro perty
li ver
its elf
Ġunder mine
ang ers
Ġeconom ically
ĠCh iles
ract ed
ens ing
we ak
Ġ30 7
Ġprice of
aw arded
ĠEx cludes
ior g
Ġsu ed
Ġam in
Ġforeign currency
Ġk it
sh ave
Ġtotal outstanding
Ġbuy s
be ans
Ġus da
Ġcent ury
ĠTr uck
Ġow es
Ġow ing
Ġreg ain
Ġcontin ental
Ġsell er
10 7
rol led
Ġsign ificance
Ġfinancial institutions
Ġeconomic growth
Ġsur veillance
ĠInternational Monetary
16 7
Ġtrans l
Ġrece ives
ĠSe aly
ĠFr y
Ġthem eeting
stit u
Ġmoney supply
60 2
app ointment
Ġnews letter
Ġ26 8
Ġ26 9
Th ursday
Ġ28 1
Ġmin ute
reat ment
iver y
Ġadv ise
Ġamount ing
32 7
32 8
IN ES
Ġproject ion
af ety
co operation
Ġpreviously announced
14 8
Ġap ossible
ional e
Ġspecial ists
Ġ45 6
Ġput s
18 1
18 2
18 3
Ġca ught
Ġborrow ed
Ġpost ings
ĠQ U
ĠQ tr
Ġexpl an
ĠCent ury
tax es
66 6
og en
24 8
Ġprocess es
Ġprocess ed
Ġthink ing
ĠLe igh
Ġ38 1
ĠCon ference
ĠCon oco
Ġprincip ally
ĠInter ior
ĠBr istol
ĠAnd rew
ett a
Ġrepay ing
26 2
hare holder
Ġsum mary
sp eed
ĠMc Le
ĠMc Carthy
ĠGu inea
Ġtw elve
Ġsuccess ive
Ġthep ossibility
Ġtore place
Ġtra v
Ġclaim ing
irc le
prov in
04 1
ĠSch lumberger
Ġprem ature
lin er
ĠRich field
ING TON
ĠGen entech
Ġpat ents
Ġautom ated
Ġsuggest ions
Ġbuffer stock
ills bury
Ġinst ability
ĠGr ande
rest rictions
rec overy
Ġreb ound
ED ER
Ġed itor
Ġstim ulating
Ġalle ging
Ġwater way
Ġdebts ecurities
Ġsuper computers
Ġnomin ation
Ġtank s
underwrit er
unt a
Ġev ident
group s
Ġals osaid
Ġprompt ly
Ġdead lock
Ġpurs uant
Ġalleged ly
Le ad
ĠSub roto
owers eed
ĠLiber ty
adv anced
Ġconv ince
ĠSim s
Ġcontribut ions
Ġannounce ments
NY SE
ĠHealth care
olm es
Af ter
Ġbarr ing
immed iate
ĠHaw ai
Ġhour ly
ĠOver all
Ġworr ies
Ġmar ch
ĠBay er
Ġpen al
Ġpen alties
ĠAT PC
deal ing
Ġinspect ors
establ ish
ĠAp ollo
Ġinstall ations
account ed
ĠLy onnais
ĠClayton Yeutter
ĠIND EX
Ġstem ming
atisf ied
Ġvict ims
Ġabol ished
concer ned
ĠTR EN
Argent ine
Ġded uct
meet ings
Ġvo ters
Ġprob able
ĠDar man
Ġsubscrib ers
Mot ors
var ious
Ġdomin ant
streng th
ĠLab att
Lloyd s
ĠLeb anon
Ġcy cle
publ ished
resol ved
Ġneigh bour
Je fferies
ĠRobin son
urom arket
Ġsecur it
Ġswit ched
dro pped
ĠSqu ibb
ĠMag ma
Ġsinc ethe
Wed nesday
Ġcit izens
ĠCG CT
Ġdevel oper
Ġdiscipl ine
Ġforth coming
ĠWat anabe
Ġchann els
ĠSait o
ĠPick ens
PW J
Alleg heny
ambre cht
0 70
0 55
0 64
0 28
0 29
1 12
2 90
2 88
3 90
3 18
5 38
5 36
6 14
6 82
7 25
7 75
9 20
9 95
9 78
> (
C hem
C orporation
E d
J un
K h
K an
K line
M J
M ac
M ach
M icro
O MC
O US
O kl
P emberton
R otterdam
S EC
T ech
V R
b bl
d aily
e fforts
f ar
f ired
f lex
f aced
h ill
h im
h owever
i anc
j ens
k ens
m ir
m ult
p ill
p ire
t ons
v age
v ador
Ġt ensions
er ec
he ed
Ġo xide
or io
ed el
ar an
Ġof d
Ġof debt
Ġm ailed
Ġin com
Ġin ability
Ġin early
Ġto ll
Ġto close
Ġto support
as c
Ġand G
Ġand W
Ġand is
Ġand to
ou f
et ies
Ġl ump
st ad
Ġn ol
Ġe ager
ĠT s
ĠT ur
ĠT HE
ĠT EX
ĠC at
ĠC ON
ĠC IF
ĠS ul
ĠS earle
ĠS uharto
ĠA BC
ĠA thens
ur as
Ġfor um
Ġmln bpd
un k
ĠM us
ĠM embers
ĠM yers
ĠM ET
ĠM CI
Ġpro pane
Ġg ets
ĠB ID
ĠB eef
ig hed
est he
ir able
im ported
Ġex ha
ra v
ol itical
ĠP in
ĠP alm
ĠP erry
ĠP ipe
us ers
ĠN ebr
ĠF CA
ĠF uk
ĠF reight
ĠF IX
ĠF oundation
ĠU AE
ĠU CPB
ĠIn ns
ĠIn stead
ĠIn cluding
Ġat m
Ġby a
up plies
ect ors
Ġas econd
ĠJ LY
ĠL uc
ĠL ane
ĠL otus
ĠH um
ĠH omes
ĠG CC
Ġun t
Ġun leaded
em in
ac re
ast ructure
Ġ4 85
Ġ4 13
Ġ5 10
Ġ5 80
Ġ5 27
Ġcts a
ĠW orth
ĠO k
ree ce
Ġ6 10
Ġad minister
red emption
Ġ7 38
Ġab l
Ġsp ark
Ġ& #
ition s
Ġper ception
pos e
pos it
Ġaf ive
50 1
50 3
50 6
ĠSt al
ĠSt ill
Ġdis position
Ġear ning
Ġout line
ax imum
Ġcomp act
ĠK an
ĠK ir
Ġover come
Ġthey en
ĠUn ocal
eg as
ĠCh ampion
Ġj ung
Ġj eopard
Ġass ure
Ġen abling
Ġ-- &#
ext remely
arr anged
Ġus er
Ġthere port
Ġcontin uation
Ġwork er
Ġbusiness man
Ġproduct ive
Ġ50 1
ĠCanad iand
Ġ25 2
Ġdo ors
Ġint elligence
20 8
Ġbel t
isc uss
ĠFin anc
16 1
Ġshould be
Ġtrans it
40 7
io v
Ġsl ated
cont roversial
ĠOn ce
ĠAg r
60 5
Ġfirm ing
Ġent hus
Ġ26 1
90 5
Ġdomestic demand
Ġconsider ations
32 1
Ġlikely to
Ġ29 3
ah an
ĠZ enith
Ġinfl ows
Ġfact s
13 1
13 6
95 9
Ġthen eed
Ġimp ress
enn y
14 2
Ġreal estate
ys ics
ys kens
11 8
Ġselling concession
Ġthes pokesman
Ġthes ituation
amp shire
Ġlater this
Ġdepos ited
Ġ34 8
Ġfiled with
Ġrev isions
Ġexpl oring
Ġfederal ly
ĠAm bassador
66 4
24 2
Ġdeliver able
under standing
Ġtom aintain
Ġclos es
ĠCon cer
ĠCon cep
ĠCon tainer
Ġcomb ine
64 6
ĠAnd re
Ġarr ival
ĠElect ronic
29 4
ĠOr leans
ĠFund s
Ġ36 2
Ġnational ly
Bank s
Ġsusp ic
ours es
down s
Ġship building
39 3
Com mon
ĠHold ers
Ġtore ceive
Ġgrant ing
ĠHong Kong
Ġbroad en
Ġstrate gies
ĠPenn ey
prov ided
ĠSch midt
Ġjob less
ĠSte ven
Ġoverall otments
ĠEast man
Ġwid ening
ĠMed iterranean
Ġinc ident
plan ning
ĠGr ay
complet ion
Ġorgan izations
Ġanticip ate
Ġimplement ing
Ġpes o
Ġpes etas
Ġsuper ior
ĠJUN E
yndic ate
sequ ently
Ġfoc using
Ġregistration statement
ĠRo ebuck
field s
Ġstat utory
Ġdivers ification
condition al
APR IL
Le hman
ĠQue ensland
Ġentit les
Ġsubs cription
Ġinvestig ations
Phil adelphia
init iative
ĠSpr ing
Congress ional
Ġrecogn ition
Ġrecogn ized
Ġsocial ist
ĠHaw ke
law n
ĠMil itary
Ġdi agnostic
ĠFuj i
Gu inness
ij i
concer n
Democr ats
col ab
ikh ail
Ġcateg ories
belie ves
Ġquant ity
manufact ured
ĠMass achusetts
Ġsch ool
prom pt
William s
Ġsubscrib e
Ġtrem or
Ġdisrupt ion
pred icted
threat ened
Mot or
Ġware house
ĠEPA C
ubsid ies
ĠAud i
ĠHous ing
Ġpure ly
distribut e
Ab out
Ġroy alties
ĠCrow ley
Ġcondom s
Ġrol led
Yugoslav ia
Mos cow
ĠCour ier
ĠRog ers
ĠStat oil
Ġfel lto
ĠAccept ance
matur ity
Ġscr ut
immer man
Ġaccur ate
ĠBrun swick
Ġpra ecip
ĠPapan dre
ĠSubs criptions
iroz entral
acr ific
Ġadefin itive
0 30
0 11
0 33
1 14
4 23
5 10
5 98
6 86
6 35
6 92
7 22
7 64
7 47
8 30
C an
C ounty
C MB
C ATTLE
D rexel
D ivision
F ood
G TE
K YO
M ore
N V
P iedmont
R ain
S ervice
T oshiba
U P
W ood
b ound
b ott
c ia
c ane
c rowns
e valu
f an
f ew
f oot
g ary
g ross
j in
j ud
k ok
k awa
l it
l atest
l ining
m ers
m ach
m oving
n est
n eg
p arent
r ia
r igation
t or
t rend
u art
u ous
w ant
y et
Ġt ract
Ġt rain
Ġt echnologies
in stitutional
Ġa w
Ġa ug
Ġa ides
Ġs ight
re jected
Ġthe sh
Ġthe trade
Ġthe Fed
en z
en vironment
Ġc atch
Ġp ur
Ġp ain
Ġp umping
at iv
Ġb ell
Ġw ary
Ġf lying
Ġf ault
Ġf ederation
Ġf ierce
id n
id ance
Ġto res
Ġto dis
Ġd ig
Ġd raf
ic opter
om panies
Ġand investment
Ġand there
ent ucky
ou pling
Ġl uxury
st en
st ability
00 3
ĠT RE
ĠC arr
ĠC ros
ĠC BOT
ĠR T
ĠR ome
ĠR ice
ĠR oman
ĠR SS
Ġit str
ill es
ad i
ĠS ay
ĠS weet
ĠS DR
ĠA y
ur ated
Ġfor management
Ġmln in
ĠI P
ay a
ch w
ch ip
Ġv enezuela
le b
le ased
le hem
ĠM S
ĠM CA
ĠM aine
ĠM odel
Ġg ro
os hes
ĠB EL
ĠB CI
ĠB YR
ĠB yrd
ig a
ot ion
Ġsh ot
ear ned
Ġex chequer
Ġex aggerated
Ġpct increase
ĠP H
ĠP ak
ĠP ap
ĠP az
Ġy ards
ĠN L
ĠN ar
Ġ3 64
ĠF ell
ĠF MC
Ġcon clusion
ĠIn g
Ġr ss
and in
ĠD ing
ĠL BO
ore x
ew art
ĠH un
ĠH ay
ĠH ab
ĠH ess
ĠH ahn
ĠG and
ĠG ynex
Ġ4 64
Ġhas acquired
pl acing
our ned
ĠO man
ĠO ccidental
man aging
the on
oss es
ex ecut
all ocated
lt on
anc o
if orm
Ġab ov
Ġle vied
Ġch allenges
Ġcont ing
Ġstock holder
to ok
ist a
Ġdis rupted
Ġear th
Ġout break
Ġse venth
Ġse gments
ĠK ell
ĠK aiser
ident ial
rop ical
Ġapp lying
ĠUn dersecretary
ang yo
ual a
ens ure
Ġ30 3
19 8
19 83
Ġen abled
Ġagreement with
Ġk n
sh ad
sh ipment
ĠTr iangle
Ġ17 00
Ġ50 5
Ġ25 4
ĠAl v
Ġincrease in
20 6
10 8
ever y
Ġsign up
Ġref using
Ġequ als
ĠInternational Inc
16 3
16 4
vers us
Ġspec ulate
val ues
Ġext reme
ob tain
ob lig
80 4
15 2
15 5
rel atively
Ġtal ked
Ġdes pit
uch i
Ġpublic offering
Ġexp iring
Ġdem ocra
Ġ26 6
Ġdr ives
Ġdr iving
Ġgu errill
inter vene
Ġfarm land
ick en
Ġmin icom
12 2
12 9
ĠAr thur
32 3
Ġfiscal year
35 5
AN S
AT O
45 3
ĠSouth Africa
ĠMan aging
St anley
company ing
13 7
95 2
ĠĠĠĠĠĠĠĠĠĠĠĠĠĠĠĠ ĠĠĠĠĠ
Ġless er
22 2
22 3
ĠWorld Bank
Ġbased on
ĠWh itney
empt ions
ĠSen ator
Ġ34 1
Ġ34 2
Ġsc en
int ent
ĠCent re
SE ED
Ġaccept ing
Ġjust ify
24 3
reg ulated
ĠLe vel
Ġ38 4
Ġaffect s
uck er
eth is
47 6
05 9
aim ler
Bank America
rem ains
36 1
Ġprovision ally
Ġ47 2
Ġbre ad
89 6
sp ons
Ġur anium
Ġdep ended
04 3
Al though
istic ated
New mont
Ġstabil ising
Ġfound ation
Ġpartnership s
Ġpubl ish
Ġengine ers
ĠShearson Lehman
Ġmult inational
ĠSan ford
ĠSan wa
Ġwer es
Ġdoub ted
Ġvisit ing
Ġed ged
Ġmean while
ĠQu est
Ġrad ical
Ġassoci ates
bus hel
rew s
Ġsuper conduct
Ġmargin ally
Ġcol or
Ġpres idency
ĠSum mit
underwrit ten
agu a
Ġspread s
ĠRo ach
run ner
ĠPR O
turn over
ĠCr ay
ĠPol itical
cor rect
Ġwrite off
Ġwin ning
represent s
represent atives
cover ed
ĠNiger ian
Nor thern
Ġsaf e
Ġcontr ary
Ġalloc ations
ĠReg ional
Ġimpl ied
Ġpo orest
Ġarg uing
Ġcontact ed
ĠGuarant ee
ĠKen yan
amer a
Ġrup iah
pass enger
ĠTan zania
ĠAF TER
ĠCH ICAGO
Ġweight ed
ĠIR S
Ġcautious ly
Ġdemon strate
oph isticated
ellig ent
yield ing
Ġhon our
Ġstem med
Vol kswagen
ĠGood year
roll ment
Ġabol ish
ĠIv orian
Cit icorp
need s
Fl orida
ĠPress ure
Ġfix ing
season ally
Ġspin off
Ġdetermin ing
Ġcrush ing
Ġcrush ers
Ġquant ities
ooth ill
Ġfulf ill
Aut om
Ġsof ten
reflect ed
significant ly
ATION S
Ġprofess or
Ġtrem endous
Ġenjoy ed
aux ite
Ġstick ing
ĠProfit s
Cy clops
Ġmagn itude
Ġdamp en
Ġrock et
Ġreceiv ables
soy bean
Ġreve al
determ ine
Belg ium
Ġdesk top
Ġmonop ol
fess ional
Ġhelic opter
happ y
ĠColl ins
Lou is
Mill an
Ġincorpor ated
ĠDepartments aid
ĠOff shore
dah o
invent ory
compar able
Lib or
Rich ard
Ġinev itable
ĠAnders on
Ġalli ance
Ġtact ics
Ġchild ren
Associ ates
quick ly
ĠFEC SA
Ġscept ical
unis ia
idan ren
burs ed
iedt ke
glom erate
iorg io
Ġexplan ation
ĠPapandre ou
irozentral e
CATTLE APR
0 80
0 35
0 95
0 14
0 65
0 36
3 87
4 70
4 66
4 34
6 20
6 85
6 65
6 23
7 10
7 30
7 60
7 70
8 19
8 80
8 37
9 22
9 33
9 67
A I
A MR
B y
C are
C BS
D an
D ou
D ome
D ollar
D elt
F air
F ranc
H ill
H aw
H og
I chi
J ul
J ersey
L U
L atin
M G
N N
R ev
S Z
T oy
U AL
a ed
a ub
b ags
b uster
c opper
c reated
d n
d ess
e en
f G
f us
f igure
g iving
g reater
i ad
i etta
l as
l ocal
m is
n g
n am
n ote
n arrow
o ete
p ace
p hen
r ig
s at
s cheduled
s ecurity
t ot
u ance
u ced
w au
y g
z ab
Ġt umb
Ġt ighter
in ary
in struments
er ating
he ther
Ġs id
Ġs yndication
re aching
an o
an ing
Ġthe E
Ġthe im
Ġthe con
Ġthe dis
Ġthe tax
Ġthe long
Ġthe London
Ġo lein
Ġo ught
it on
it ime
it ron
en as
or ial
or atory
ar ms
ar ied
Ġp hen
al gam
Ġw il
Ġw alk
Ġf ighter
Ġf abric
Ġof an
Ġof government
Ġof foreign
Ġof credit
Ġm ile
Ġin order
Ġin September
Ġin recent
Ġto u
Ġd ict
ro ft
Ġan un
as se
om ac
Ġand said
ent iment
ou ble
et al
et ton
Ġl os
st an
st ance
st ep
00 2
Ġn av
Ġh orm
ĠC op
ĠC ents
Ġth ate
Ġth row
ĠR CA
ĠR ha
ĠR MJ
el son
el issen
ĠS i
ĠS id
ĠS ab
ĠS ynd
ĠA V
ĠA PT
ĠI l
le ft
ĠM M
ĠM P
ĠM ak
ĠM itchell
ĠM ikhail
ce iling
Ġdlr sthrough
Ġst ip
Ġst aged
os uez
ĠB A
ĠB ow
ĠB ush
ĠB axter
Ġis n
ot ted
ot ential
ra ined
ate ment
Ġpct owned
ĠP EL
ĠP illsbury
ĠN a
Ġ3 87
ĠF iscal
ĠF ah
Ġcon d
ĠU BS
qu alified
Ġat tain
Ġfrom its
Ġwith its
oc l
oc us
oc cur
and y
Ġas enior
Ġas hort
ĠE L
ĠE st
ĠE yskens
ĠJ orge
ĠJ uan
ĠD ennis
ĠL og
Ġal oss
iv et
ere qu
ĠG ov
Ġun like
Ġhe at
Ġhe would
Ġhe ifers
ab road
ac as
Ġ4 95
Ġ5 17
ee fe
um a
ud ley
Ġbillion stg
ĠW ASH
Ġwould probably
ĠO ld
ex c
ard o
Ġ7 85
ĠInc o
Ġpl astic
of ten
mer ical
Ġper tonne
Ġper petual
Ġcont empl
Ġinter state
Ġup wards
ist ar
ings ystem
Ġim position
Ġcomm uter
pro p
Ġdis eas
Ġear li
Ġtwo billion
ail ure
ax o
ĠK ans
Ġover head
Ġover time
Ġsub poen
Ġthey are
Ġthey would
Ġiss ubject
li fer
ven ed
Ġdebt crisis
ĠUn iversal
ĠCh ang
ĠV askevitch
Ġtax able
Ġtax pay
Ġsu its
19 1
part ly
che me
Ġra m
Ġdeal t
Ġthere by
Ġthere maining
Ġrem ote
Ġcredit watch
Ġsix pct
Ġdo zen
ĠAl abama
Ġop ens
Ġint ense
30 7
Ġar bitration
fl uctu
Ġnext year
86 2
86 5
86 6
Ġequ ipped
16 6
ret ion
Ġspec ulators
form al
ĠEn cor
ĠNO M
Ġval u
40 1
15 8
85 5
85 7
inc inn
Ġannual ised
ploy ment
app ing
Ġfil ms
Ġsame period
Ġused to
Ġplant ations
ph is
hip s
Ġ28 8
Ġcomplet ing
pre ference
Ġrest raining
12 4
ann ot
ĠAr t
Ġpar agraph
min or
Ġvalue of
32 6
32 9
omin ion
17 2
17 4
Ġsever ance
Ġob vious
St ep
St reet
St atistics
ron ts
Ġsm ooth
95 4
ĠĠĠĠĠĠĠĠĠĠĠĠĠĠĠĠ ĠĠĠĠĠĠ
ĠĠĠĠĠĠĠĠĠĠĠĠĠĠĠĠ ĠĠĠĠĠĠĠĠĠĠĠ
Ġgr and
ĠSw ire
echnolo gical
Ġminister ial
Ġsupply ing
ĠWh at
Ġthes ources
Ġelect ro
eas ure
uct uation
33 6
Ġrev s
55 6
int eg
Ġexpl o
ffor t
Ġ33 6
Ġ33 8
66 7
abl et
erc ules
Ġprocess or
rup p
34 4
64 8
Ġsim ple
Ġagree ing
37 3
37 6
gr y
gr ad
Ġtarget ted
au ge
38 4
ĠPart ly
orpor ations
05 3
05 4
29 3
29 6
ĠOr ion
Bank ers
78 4
ef on
TT ON
94 8
Ġhard ly
Ġovers ubscribed
ath an
Ġvar i
ĠHold en
Ġtore port
high ly
Ġretail ers
te k
Ġvis its
Ġdeleg ations
ĠCont in
ĠSch ool
ĠCO TTON
Ġadvis ors
ĠMin n
Ġcompl icated
profit ability
........ ........
Ġachie ving
ĠBanc a
look ing
46 1
call ing
Ġinc orporation
96 9
Ġtechn ically
ĠSalomon Brothers
Ġreli e
Ġreli ance
can o
Ġwer ere
Ġcirc ulated
dam age
Ġinf r
Ġinf usion
Ġhapp ening
tel evision
del egates
Ġtim ber
Ġplay er
Ġnarrow ing
Ġcounter parts
Ġcommun ist
miss ions
Ġhope ful
ĠFranc o
Ġcalc ulations
Ġregular ly
aint iff
introdu ce
ĠWork s
EP OS
ĠSim mons
Nor anda
bitra ge
Per u
Chr ist
ĠHer itage
NE APOLIS
ĠSoybe ans
etr ans
ĠCal ny
Ġrecogn ize
ĠLand esbank
Ġpen alty
ĠBah ia
fe et
ĠAutom obile
ĠAutom otive
ĠFour th
Ġcount ies
Ġprohib it
fr ont
particip ate
borrow ings
Ġadministr ator
ĠTenn eco
ĠMur ray
Ġdocument ation
Ġbarg ain
Ġwatch ing
ĠMerch ants
ĠGar n
ny der
owners hip
ĠECU s
Ġdepartments aid
Ġsurv ive
Ġsch illings
Ġdur able
ĠEmploy ment
Ġpolit icians
Ġargu ments
ĠMoh awk
Ġlobby ing
Lyn ch
ĠAR G
ĠFer dinand
commit ment
follow s
stud y
Ġobstac le
Eng land
Ġdim inis
determ ined
Ġescal ation
flo or
Ġros eto
iph eral
Ġcomfort able
Ġcasual ties
ĠGi ul
ĠDO E
Ġtelev ised
enf abr
ĠRoche ster
Ġfib re
ĠTW O
funda mentals
best os
ĠPeps i
Ġconstrain ts
Ġsafegu ards
ĠSyr ia
ĠTob acco
Ġindict ment
vehic les
Ġconced ed
Ġcolle agues
Ġsuperv ision
ĠNorc ros
Ġseniors ubordinated
ĠNebr aska
Ġjung le
Common wealth
andin av
wau kee
Ġhorm one
ĠWASH INGTON
0 85
0 31
3 70
3 13
4 87
4 88
4 45
4 18
4 37
4 99
5 40
5 34
5 64
5 28
6 75
6 12
6 27
7 88
8 28
A pr
A DA
B oston
B org
D at
D is
D uff
M iss
N ES
O ccidental
P aid
R I
R S
R JR
S iemens
U C
Z ealand
b s
b ul
b ara
c oun
c op
c ampaign
d rug
f ile
f ederation
g on
g ap
h art
k el
n ik
o thers
p oll
p lex
r aid
t imes
t emporary
v ests
v ethe
w ent
w hel
y ssen
Ġt ub
Ġa h
Ġa viation
er tific
on om
Ġs olic
re ach
Ġthe quarter
Ġthe foreign
it ro
it ol
or ough
Ġc ur
Ġc ath
Ġc rack
Ġp ill
Ġp ave
at en
at el
Ġb atter
Ġf are
Ġof oil
Ġof this
Ġof customer
Ġm ood
Ġin an
Ġin Europe
id ian
Ġto pped
Ġan annual
Ġan onym
il ings
Ġand H
Ġand d
Ġand production
st abil
00 4
Ġh ired
Ġh ole
ĠT erm
ĠT akes
ĠC olo
ĠC EN
ĠC rown
ĠC abinet
ĠR ank
ĠR olm
ĠR olls
ĠR BD
ill o
el ecommunications
ad ia
ĠS oy
ĠS AS
ĠA bu
ĠA US
ĠA SC
ĠA WB
ment ally
ĠI EA
ĠI XL
Ġon Monday
Ġv on
Ġv ide
ĠM a
ĠM ason
ĠM ah
Ġst rains
ĠB at
Ġis offering
est in
Ġsh illings
im ore
Ġex ecution
ra is
ol edo
Ġpct convertible
Ġpct coupon
ĠP ass
ĠP erm
ĠP iers
ĠP unta
ĠN RC
ĠN ATO
Ġ3 88
Ġ3 65
Ġ3 67
ĠF ish
ĠF uel
ĠF igures
ĠU r
ĠIn ternal
ank er
ul s
ul ates
ul ous
ul ator
ul uth
Ġwill receive
Ġr ich
oc om
Ġas ubstantial
ĠE IA
ĠJ er
ĠJ oh
ĠJ ne
ĠJ aguar
ĠD ig
ĠD irect
ĠD emand
ĠD rey
ĠD ebt
ĠD ixon
ĠL av
ĠL isting
ĠH ait
ĠH OG
ĠH olmes
ĠH ampshire
ĠG R
ĠG ot
ĠG ary
ac cur
ac ilities
Ġ4 10
Ġ4 11
Ġ4 24
Ġ5 25
Ġ5 85
ee b
am s
ĠW el
ĠO thers
ag ram
ant a
ant ly
Ġ7 60
Ġmarket conditions
op inion
der ing
ign ing
ug ene
com ponents
ange mann
ok a
Ġlast night
Ġlast September
Ġup held
ĠRE S
Ġaf our
pro ced
Ġear marked
Ġout we
ian i
Ġse ized
ĠK el
Ġover t
Ġsub mar
ĠMar ietta
li quid
ĠDe vices
Ġdebt and
Ġall of
Ġall oy
Ġunder m
ie ber
ĠUn adjusted
Ġ15 30
Ġlo oph
Ġpay roll
air line
ĠY ou
ĠY ield
ual ty
cy cle
Ġcl oud
ach i
ĠCh ern
resident ial
itt ees
Ġ30 4
ĠEx cluding
ik o
19 2
Ġagreement to
sh owed
Ġfour pct
ĠNew Zealand
Ġ31 4
Ġ25 7
ĠAl uminum
Ġcost of
Ġar ise
86 0
Ġsur face
ĠInternational Ltd
Ġdevelop s
off man
off rey
Ġrece ption
Ġact s
Ġmain frame
80 5
15 1
15 4
ĠAv on
ound s
Ġbudget ed
Ġoperations of
oper ated
60 9
Ġshow ers
ĠGroup Inc
Ġ40 1
Ġ40 9
Ġprior ities
writ edown
Ġtalks with
Ġ26 7
ĠPl ains
Th ai
Ġmin im
12 1
ĠSh aw
ĠAr k
min imum
Ġsect ions
Ġimpro per
Ġ35 6
oh ol
ĠZ INC
17 3
co al
Ġgeneral corporate
Ġthen ation
ĠĠĠĠĠĠĠĠĠĠĠĠĠĠĠĠ ĠĠĠĠĠĠĠ
Ġprot ocol
Ġadjust ing
Ġcalled for
ĠWorld wide
ders ohn
pric ing
ins ky
92 8
Ġdef ending
Ġyield ed
ĠSen g
ĠSen egal
Ġsc attered
Ġ75 2
ĠCongress men
Ġ32 3
int egrated
Ġfail ures
Ġstrik ers
66 9
IC I
og g
09 9
24 6
27 7
Ġcomb ining
Ġregul ated
month ly
ession als
37 4
ĠBr uce
Ġtop ic
28 9
ĠCl osing
47 4
eph ard
Ġwhere by
ĠEconom ist
rem aining
Ġworking capital
cons ervative
94 1
ĠCar ney
Ġ46 9
Ġbre ached
ĠSwiss air
44 6
Ġmaintain s
ĠCons ervation
39 1
ĠCentral e
Ġbroker ages
ivers ary
Ġflow ing
Ġland ing
iy ad
Ġexch ang
76 3
Ġsol ved
Ġclass ified
ke i
ING AP
ĠDel ors
oe u
UR ES
Ġfound ed
Ġautom ation
Ġdil ution
Ġengine ered
ĠPer t
Ġcompar ative
US SR
Ġinst ance
Ġblock ing
fund ed
Ph ysics
Ġoffset ting
bro king
Ġnote holders
ĠLatin American
ĠQu ist
ĠQu aker
Ġtight ened
del eg
control ling
Ġassum es
Ġassum ptions
ert z
miss ile
Ġpossib ilities
LE TS
Ġoblig ed
ĠBe ach
ĠBe irut
Ġdistribut ions
ĠNY MEX
aur ant
ĠBal dwin
Ġaud itor
Ġdist ill
Ġwrite offs
Ġban ned
Res earch
adv ance
mid dle
ĠMach ine
Ġteam s
conf irm
Ġadequ ately
process ors
Ġreact ing
main tenance
Ġcli ent
Ġelabor ating
ĠMor ris
stim ating
Elect ro
Ġquiet ly
HK G
larg ed
net work
ĠSam jens
ĠPet ers
ĠPet rol
Ġprefer ential
Ġexc ise
Ġdoubt ful
Ġprin ted
Ġcoordin ate
Ġcommitt e
Ġprohib iting
Im perial
IF O
ĠCham plin
key e
sm all
ĠHam bros
Ġrestrain ts
Ġmatch ing
Ġcollect ive
protection ist
Ġbottom ed
warr ant
Ġtent atively
post ed
NO V
Ġess entially
Mid dle
Ġwa iver
exper ience
har vest
Ġemphas ized
belie ve
Republic an
ĠNigel Lawson
Is rael
Swed ish
ĠChev rolet
Ġleng thy
ĠBrasil ia
ĠGerhard Stoltenberg
Ġign ored
Ġgues stimating
Ġcoinc ide
follow ed
Ġfrequ ently
soy beans
origin al
Ġroy alty
Ġmonop oly
Ġexpert ise
Ġabsol utely
encoura ge
ĠNP PC
ĠEli zab
Ġvary ing
MIN NEAPOLIS
Port ugal
ĠHoll and
Bur lington
Bang ladesh
Liber al
Ġoverr ide
pop ular
Niger ia
portfol io
Ġclo thing
ucr ative
ĠALUMIN IUM
ĠFo ley
Represent atives
Ġpess imistic
Ġtoprot ect
Ġecho ed
administr ative
ĠBes ides
ĠAffil iates
Ġnumer ous
ĠPin ola
Ġsuspic ion
Ġpraecip uum
Ġdraf ted
Delt a
ĠPEL LETS
incinn ati
INGAP ORE
ĠElizab eth
0 17
0 34
0 26
1 13
3 80
3 12
3 92
4 13
4 65
4 29
4 89
5 12
5 22
5 18
6 17
7 19
7 45
7 31
7 44
8 25
8 18
8 99
9 19
9 80
9 14
A Q
A ct
A IN
B J
B udget
B EL
C r
C ON
C lear
D igital
G reen
H A
H W
H en
I owa
L ING
S il
S pr
T echnology
V OL
Z A
b all
c f
d iplom
f enn
i ating
i encies
j i
k now
m ill
m ile
p uter
s outh
s ize
w anted
Ġ x
in ks
Ġa pro
Ġa contract
Ġa rose
Ġa wa
he et
on z
Ġs urren
re ating
Ġthe L
Ġthe business
Ġthe capital
Ġthe banks
Ġthe Reagan
Ġthe announcement
Ġo d
Ġc ult
Ġc amp
at ched
Ġb ow
al ing
al ked
Ġf iduciary
Ġof one
Ġof three
Ġof economic
Ġm art
Ġin B
Ġin S
Ġin her
Ġin New
Ġin August
Ġin clusion
id ad
Ġto work
Ġto three
Ġto around
Ġto open
Ġto produce
Ġto participate
Ġd oll
Ġd rag
ro t
is en
Ġan aly
Ġan attempt
ic ine
Ġand w
Ġand would
Ġre build
00 6
00 9
Ġe ye
Ġh or
Ġh oliday
ĠT ian
ĠT riton
ĠT oledo
ĠC oconut
ĠC levite
Ġth wart
ĠR over
ĠR ap
ĠR uss
ĠR KO
ĠS k
ĠS aid
ĠS ier
ĠS inger
ĠS GL
ĠA MEX
Ġfor f
Ġmln from
Ġmln marks
Ġbe issued
Ġon ed
Ġon May
Ġon sales
ch ips
ĠM y
ĠM ID
ĠM aur
ĠM HI
ĠM ulti
ĠRe qu
Ġg ar
Ġg lo
ĠB hd
ĠB eneficial
ĠB oliden
Ġde pletion
Ġ19 73
ra pped
ĠP ere
ĠP ier
ĠP orsche
ĠP uerto
us ually
ĠN ug
ĠN amed
ĠN TT
ĠN aylor
ĠN evertheless
ĠN iagara
rom edia
Ġ3 92
ĠF ern
ĠF UT
ĠF acility
ĠF HLBB
ĠF leming
Ġat about
Ġits current
Ġfrom a
ĠJ on
ĠJ avier
ĠD ana
ĠD IW
ĠL ac
ĠL ip
ĠL ater
ĠL ittle
Ġal ert
ĠH eck
em ble
ac ross
Ġ4 87
Ġ4 33
Ġ4 94
Ġ5 75
Ġ5 65
Ġnot ification
Ġhas n
Ġhas started
um bus
pl ied
ich hold
out side
ĠW as
ĠW ay
ĠO liver
Ġ6 25
Ġ6 70
ex pressed
Ġad is
Ġad op
ber ley
Ġ7 25
Ġ7 80
Ġac omm
Ġpl c
Ġpl ate
Ġpl aces
Ġab ide
ib son
Ġch olesterol
for cing
ust a
ok en
Ġaf loat
Ġbut said
Ġpre fect
Ġcomm ence
Ġdis agreed
eb u
eb ack
ax y
act ively
Ġadd s
ĠK raft
Ġover due
Ġover whel
av en
av oid
Ġpr inter
Ġpr ison
own er
li beral
Ġend anger
Ġfore ach
Ġthan the
ĠCh i
itt e
Ġsup posed
Ġno th
Ġam ple
Ġrate of
Ġen act
eed s
Ġk g
Ġk er
Ġk its
Ġbet he
Ġrep utation
be zz
EC U
25 2
Ġ31 2
Ġ31 7
Ġredu cethe
Ġdown wards
Ġdown town
Ġ25 3
lo ts
mon ton
Ġcost ing
Ġso aring
Ġref use
Ġnext week
Ġdec iding
ĠFin ancing
16 9
stand ards
Ġpurch aser
val id
off shore
Ġdisc rimin
40 6
ĠFr ans
ĠFr ied
Ġthem e
Ġthem inistry
ĠRes erves
oper ators
60 8
just ified
term in
Ġsupport ive
Ġ28 3
Ġsold iers
Ġcomplet es
Ġpress ured
ick es
pre v
90 9
Ġback ground
88 4
chedu les
Ġsen ator
Ġintern ally
Ġamount of
omin al
Ġconsum m
Ġ35 2
ier ley
Ġloc ally
ĠZ oete
AR C
17 6
ĠMan uel
PR S
13 9
95 7
Ġcommercial paper
14 4
14 6
ĠĠĠĠĠĠĠĠĠĠĠĠĠĠĠĠ ĠĠĠĠĠĠĠĠĠĠ
Ġrat ified
65 2
Ġthird s
Ġinit iate
ĠSp okesman
ĠSp encer
CC M
OR D
ins ured
Ġ80 5
ME NT
Ġmod ification
ĠBro s
Ġdebentures due
press ion
55 3
55 4
ĠQ intex
Ch i
Ch ase
int ended
Ġwar planes
66 1
ĠAd steam
09 8
ĠTel e
ĠTel es
27 8
Ġclos ings
reg ional
reg ulation
Ġappl iance
34 9
Ġregul ate
Ġregul ates
Ġfinal ised
Comm un
usp ension
olid ays
Ġsett ling
bal ances
ĠOr ient
Ġ36 9
bu yers
Ġplace ments
ĠNor theast
Ġthef ederal
Ġpass ing
36 2
36 8
Ġrepl en
Ġ48 3
ĠCar ling
Ġpred icting
Ġpred icts
Ġrequest ing
appro ach
ĠGM AC
39 7
Ġadding that
CO M
Com pany
Ġthep arent
Ġrefin er
hel an
ĠIf o
74 1
Ġlimit ation
Ex xon
iet ies
Ġbroad casting
Ġred ress
Ġwhol es
ĠTaiwan ese
04 6
06 3
06 8
Ġresol ving
Co oper
ĠGas oline
New s
Ġstabil izing
UR ICH
Ġdeveloping countries
Ġsat ell
ĠBel grade
46 2
Ġpubl isher
Ġtempor ao
Ġstruct ures
ĠMotor ola
Ġtrust s
96 1
ĠGr isanti
Ġpersonal computers
lig ible
54 1
Ġbreak s
Ġbreak up
Ġwer el
ĠEqu ities
Ġpract ical
Ġstim ulation
Ġpes eta
ĠRichard Lyng
Ġconduct ing
Ġnomin ated
Ġconsult ation
Ġsize able
estim ate
oot hed
ĠPR T
Ġbrief ly
Ġinstru ctions
allow ance
ĠGl axo
Sh ares
ĠExport ing
Pro ducts
oul enc
Ġpled ges
exp ensive
ĠMer ck
Ġpick ing
Ġkind s
buy out
ĠDollar s
Pl an
lower ed
Ġple aded
Ġfro ze
Ġmeant ime
Ġlin er
expan ding
ĠEgypt ian
Ġthr ifts
certific ate
ĠEar ly
And rews
ĠDomin ican
ĠEST IMA
Ġtow ns
Ġeuro yen
Ġchallen ged
ĠAN Z
Ġsoy oil
ĠMachines Corp
ĠCarl os
Ġcanc el
Ġult imate
ĠInt egrated
Ġmechan isms
ĠLP G
Ġunus ually
Ġfoot wear
Ġwhil ethe
Ġresum ption
col lect
ĠNaz ionale
NO ON
ĠGar cia
Ġpharmaceutical s
Ġha vel
ĠRel ations
har ply
ĠLead er
Ġder iv
Ġbullet in
Ġconstruct ive
Ġindefin ite
ĠSa unders
Market s
Ġyearen ding
Ġge othermal
ĠEs so
ĠProcess ors
ĠFred erick
Ġclar ify
CF TC
respons ible
ĠGard ner
Ġinterpret ed
Ġreve aled
ĠME AL
ĠFN V
Ste el
Belg ian
Den mark
ĠBern ard
Ġstric tly
Ġhelic opters
ĠPrince ville
Ġabsol ute
ĠAlf red
ĠLu is
alle ged
ĠBalt ic
ĠHus ky
Ġforesee able
bust ion
Ġenquir y
azard ous
Ġvigor ously
Ġtradem ark
arrange ment
Ġtack le
Frank furt
uncertain ty
achie ve
retal iation
Ġartific ial
Ġmaxim ize
ĠonT ariffs
ĠBil zerian
Ġpeg ged
path y
Ġdiver ted
Ġtur moil
Ġanim als
Ġcigaret tes
Ġmun icipal
urisd iction
ĠComb ined
Ġbare ly
Ġeditor ial
stad t
ĠAlv ite
0 19
0 15
0 66
0 38
0 76
2 65
2 36
3 19
3 45
4 15
4 35
4 33
4 64
4 38
5 25
5 30
5 23
6 13
7 14
7 38
7 26
8 17
8 33
8 47
9 86
9 85
A p
A ud
A IL
B er
B undesbank
C B
C Y
C onn
D i
D iamond
F er
G T
H F
H er
I TT
J ne
K LM
L ast
M erc
M yers
M iyazawa
N SC
P N
P ay
R ey
R ob
S X
S INGAPORE
T ra
T WA
U K
U til
U AR
U ST
W C
W HEAT
Z T
a uc
b d
b ion
b rought
b inding
c ion
c ass
c umulative
d t
e i
e il
e ak
e asonally
h ood
h ita
i ator
i oli
l ett
m outh
n olds
o ard
p en
p act
p ipeline
q az
r at
r iger
t ent
t ually
v oy
v ict
Ġt ab
Ġt allow
in ancing
in volving
in flu
he id
Ġs aved
Ġs acrific
re payments
an st
Ġthe other
Ġthe contract
Ġthe Canadian
Ġthe companies
Ġthe balance
Ġthe impact
it iveness
en able
Ġc ush
Ġc ircuits
Ġp raised
Ġp ensions
Ġp enny
at che
Ġb i
Ġb ail
Ġb bl
Ġb itter
Ġw ounded
Ġf le
Ġf illing
Ġof shares
Ġof gold
Ġin b
Ġin put
Ġin hib
Ġin vis
Ġin November
Ġin late
id den
Ġto holders
Ġto boost
Ġd rew
ro u
ing u
ut ing
ut ies
Ġand F
Ġand has
et on
Ġl unch
st yle
Ġre im
Ġn urs
ĠT or
ĠT ass
ĠT omorrow
ĠC u
ĠC le
ĠC oron
ĠC etus
ĠC ountry
ĠC ircle
Ġth res
ĠR a
ĠR ural
el eg
ad j
ĠS O
ĠS ig
ĠS PR
ĠA h
ĠA ero
ur ry
Ġfor comment
Ġmln Canadian
Ġmln francs
Ġbe offered
th ought
Ġon shore
Ġv eter
ĠM IN
ĠM TS
ĠM orton
ĠRe ad
ĠRe habilitation
Ġst reet
Ġst atistical
Ġpro longed
os is
os phere
ĠB O
ĠB fG
Ġis raising
Ġsh all
im an
im ed
im ar
Ġex posed
Ġ19 71
ra ud
ate m
ĠP ear
ĠP age
ĠP ictures
Ġy oung
ĠN ash
ĠN KR
ĠN otes
ĠN ICK
rom in
ĠF el
ĠF orm
ĠF abric
Ġcon fer
ĠIn spect
ĠIn stitutions
Ġat this
Ġat rans
Ġits first
Ġthat will
Ġwith an
ect s
ec ent
Ġas ignificant
ĠE stimated
ĠD o
ĠD eb
ĠD KR
ĠD aimler
ĠL as
ore a
ĠH op
ĠH erman
ĠH erald
ĠH ambrecht
ĠG erald
Ġun ith
Ġhe s
Ġhe ightened
um ina
am m
am id
am ounts
ess ee
ĠW ebber
ĠO g
art ed
Ġare vised
port ing
Ġ6 60
Ġ6 28
con tribution
if ficult
ĠInc and
ine es
ans aid
com fort
ib l
ĠCorp s
Ġch air
Ġch annel
for ces
Ġcont roversy
Ġ9 20
Ġqu al
Ġinter ior
Ġ8 40
urren t
pro ceed
Ġme als
Ġout of
Ġse qu
ĠK ra
ĠK oeh
ĠK angyo
ĠK rupp
ress er
ven ants
Ġunder t
Ġunder pin
arg es
ie ken
ack age
Ġro ubles
air lines
eg inning
ĠY a
Ġcl ause
ash ing
Ġ14 30
Ġass ays
Ġ13 30
Ġsup porters
ĠV oice
Ġno vel
ĠEx p
Ġinterest rate
ik ow
ĠTh ough
Ġam on
Ġam arket
19 3
ass ive
che on
Ġk ms
sh ipping
ĠFebruary from
Ġrep ublic
Ġrep eat
Ġind eed
Ġind ices
Ġappro aches
Ġcent rist
87 7
87 9
Ġcons erv
25 8
ater pill
Ġany where
Ġlead s
ĠCanad ians
Ġcontract ing
Ġthrough the
ite ch
lo ading
20 3
ĠShr s
rol ler
Ġsign alled
Ġfinancial markets
Ġfinancial services
Ġcapital ized
Ġstatement covering
Ġpresident s
Ġext ends
ĠEurope ans
75 5
ĠSe ipp
ĠSe agram
40 2
Ġsl ip
Ġsl ashed
80 6
80 9
Ġthem ost
ordin ation
Ġcr ud
ind ed
ind irect
85 9
oper ates
60 7
Ġquot es
Ġdet ected
Ġhigher than
Ġgood will
uss a
Ġ26 3
Ġgu ide
Ġgu idance
ph rey
me ans
Ġmin i
pre hensive
90 8
Ġwell as
Ġback ward
ĠAr r
ĠAr go
ĠAr ango
32 4
Ġ29 1
IN E
IN T
IN TC
Ġ35 1
Ġ35 8
45 7
ĠZ inc
ĠZ immerman
ĠSouth land
uc adia
Ġthen umber
Ġcommercial banks
ĠInd osuez
Ġbrok ing
Ġreal ignment
65 3
65 4
65 5
65 6
Ġconvert ing
Ġorder ly
22 8
Ġ45 1
Ġstocks plit
92 4
Ġmod ify
Ġ34 3
Ġca uses
ĠBro oks
33 8
33 9
pec ulation
Ġ32 6
Ġ32 7
Ġsigned a
Ġpriced at
66 8
Ġconvertible preferred
Ġeffective immediately
Ġfe atured
Ġprom ises
24 1
reg ard
head quarters
Ġappl iances
34 6
Ġopp osing
67 1
67 8
ĠMon tedison
Ġfinal ized
Ġsubject to
37 7
47 8
bec ame
05 2
05 8
ĠAc cu
Ġcomputer ized
Ġthef irm
ĠCar acas
rupt ion
Ġholding company
44 4
Ġ39 7
Ġ39 8
ĠCol onial
appro ve
sp in
ĠWe ir
ĠGu y
ĠGu ang
Ġtw in
84 1
Ġtore flect
ecomm un
Ġcrit ics
Ġtra pped
Ġretail ing
opt imistic
acc el
Ġrisk y
ĠSaudi Ara
ĠWall Street
Ġsom es
Ġsom eb
TH E
Ġsat urated
ĠBar ley
ĠSm art
Ġstruct ured
US X
Ġbus es
ĠCy prus
Ġbeh avi
ĠWed d
Ġquarterly dividend
ĠMe ad
consider ation
atur ally
Ġed ition
Ġtro ubles
Ġalle viate
ĠDen man
ĠSA MA
ĠSum it
impro ving
unt ary
Ġhav ed
ĠWar ren
develop ments
Ġunf av
Ġcurb ing
ĠPR I
Ġpurs ued
Ġpurs uing
Ġmerch ants
Ġcomparable Treasury
ĠSub sidiary
Ġdist urb
author ity
represent ed
represent ative
Ġill eg
Ġpick ed
Ġinvestig ators
Ġiniti ated
ĠTra ffic
Ġmicro processor
oto graph
Ġconsist ently
ignificant ly
Ġhal ting
Ġsem inar
ĠOut standing
ĠOut board
Ġadvisory committee
Ġbarr ier
Ġfro st
etr ade
Ġcorrect s
Med ical
allad ium
deal er
ĠDrug Administration
ĠPet ric
require ment
result ing
Ġdiscover ies
ĠRob ins
ĠAutom ation
ĠMON EY
inco ln
ĠUt ility
Ġmodern ization
hous ing
uns ecured
uff le
former ly
Ġabol ition
aby te
Ġfranch ises
Ġenj oin
ĠOl son
Ġcancell ation
ĠMarg oshes
LI ES
ĠRel iance
Ġdram atically
opport unity
fav ourable
ĠJack son
Ġvolunt arily
Ġnervous ness
Ġrestaur ant
pract ice
Ġign ore
orian o
ĠMad rid
subsid iaries
ĠHor izon
ĠVict oria
Ġhistor ic
Ġhistor ical
ĠShip ments
ĠOw ens
dens ate
Part y
ĠAud io
Ġunders ecretary
Ġweap on
incent ive
Ne ill
bar ley
arn ikow
Ġcapt ured
Ġfertil izer
ĠRef ined
ĠDLR S
Ġsus pected
ĠRod erick
ĠPubl ishing
acer b
Ġgen u
Ġfort un
ĠFil m
coll ateral
Ġwors en
ĠAmer i
Ġbox es
Ġenquir ies
object ive
Ġmoder ately
expendit ure
expendit ures
Ġinnov ative
Ġteleph on
ĠLes lie
Ġtyp ical
Iv or
Ġhin ted
ĠCord oba
ĠIns ured
congress ional
Ġinstruct ed
ĠGRAD ES
Fuj itsu
lym p
ĠLind ner
ĠRhod e
ĠSpect ra
ĠTREN DS
ĠStal ey
Ġscrut iny
ĠCros by
chw itz
Ġtou ched
ĠFah d
Ġdiseas es
Ġinfr astructure
Ġunderm ined
ephard t
ĠFUT URES
Ġoverwhel ming
ĠESTIMA TED
qaz ade
ĠNICK EL
ĠKoeh ler
aterpill ar
ĠSaudiAra bia
0 77
1 87
1 70
2 12
2 37
3 88
3 95
3 64
4 85
5 85
5 95
5 99
5 44
5 46
5 71
6 19
6 70
6 88
6 29
7 90
7 32
7 66
7 27
8 20
8 15
8 95
8 36
9 70
9 12
9 64
9 79
A MO
B AC
B ANK
E ven
G S
G ene
G EN
H um
H am
H utton
H arris
I VER
J ly
K orea
L ife
L TV
M N
M inn
N issan
O ther
O TED
O ATS
P urolator
P GL
P rices
R en
S ince
S ah
U AE
Z URICH
b es
b oy
b ull
c up
c orporation
d ock
d ram
d ocu
e velop
e user
e ffort
f are
f ast
f reight
f inished
i ok
i Corp
j ob
j ohn
k ara
k ilo
k eeping
l ies
o ided
p age
r ank
r ational
s u
s ame
s ituation
s ettlement
u dul
v ess
v ard
Ġt ail
in ct
in ts
Ġa ge
Ġa profit
Ġa provisional
on ic
Ġs lr
Ġs and
Ġs ex
Ġs kept
re v
re ports
re cession
re leased
an ol
an zi
Ġthe Ex
Ġthe committee
Ġthe production
Ġthe New
Ġthe General
Ġthe outstanding
Ġthe currency
Ġthe plant
it man
or ate
or rect
or imar
Ġc ro
Ġc ake
Ġp al
Ġp aint
Ġb ip
Ġb arter
Ġb ered
Ġb auxite
al ter
Ġw ec
Ġw ire
Ġf ought
Ġof certain
Ġof Japanese
Ġof two
Ġof payments
Ġof Trade
Ġof total
Ġm ountain
Ġin cl
Ġin May
Ġin response
Ġto accept
Ġto intervene
Ġd ynam
Ġan offering
Ġan undisclosed
Ġan gry
il der
as hes
ic ing
ut ually
Ġand foreign
Ġand international
Ġand gas
et erm
Ġl ies
Ġl ie
Ġl ighter
Ġl ucrative
st ot
st aff
Ġre uters
Ġre opening
00 7
Ġn od
Ġn of
Ġh y
Ġh iring
Ġh olidays
ĠT est
ĠT echn
ĠT echnical
ĠC rit
ĠC alm
ĠC umulative
ĠC ement
ĠC ircuit
ĠR ab
ĠR ub
ĠR oh
ĠR yan
Ġit could
Ġit bought
Ġit upgraded
el ing
el ig
ĠS TE
ĠS TER
ĠS ports
ĠS ale
ĠS now
ĠS KR
ĠS DI
ĠA D
ĠA re
ĠA be
ur st
ur ation
ur red
Ġfor about
Ġfor three
Ġfor delivery
ation wide
Ġmln common
Ġmln Swiss
ĠI ss
ĠI ron
un al
Ġbe identified
Ġcom merical
Ġv owed
le ave
ĠM ch
ĠM ir
ĠM od
ce iv
Ġst ee
Ġst ored
Ġpro x
Ġg ate
os ha
ĠB io
ĠB AR
ĠB enn
ĠB uck
ĠB omb
ĠB angemann
ig ins
Ġis still
Ġdlrs vs
ir am
ow ing
im er
im ont
Ġex acerb
Ġ19 60
ĠP E
ĠP res
ĠP osition
ĠP te
ĠP AP
ĠP izza
ĠP helan
us ch
us ca
ĠF uture
ĠF oothill
Ġcon ver
Ġcon stitute
Ġcon glomerate
ĠU lt
Ġits financial
ul p
Ġwill remain
Ġfrom April
ect ive
Ġas possible
ĠE ffective
ĠE agle
ĠE colab
ĠD raw
ĠL im
ĠL us
ĠL arry
ĠL aser
ĠL EAD
ĠL iedtke
ore t
Ġal arge
Ġal tered
Ġwas in
Ġwas un
ĠH ad
ĠH ercules
ĠG em
ĠG ust
ĠG EN
Ġun related
Ġun limited
Ġun employed
Ġun resolved
ark in
Ġhe avier
ab i
ak h
ak s
ac ent
ac res
Ġ4 32
Ġ4 17
Ġ4 78
Ġ5 000
Ġhas already
Ġag grav
per man
am an
am ina
am ination
Ġcompany spokesman
ĠW eb
ub lein
od o
ĠO z
ĠO LD
ag as
ock s
Ġ6 15
ex pos
ex cluding
ex clusive
all on
all enger
con tributed
con taining
Ġad ay
anc a
Ġwhich the
ant on
Ġ7 000
Ġac companying
Ġpl ain
op ro
op her
ine ken
Ġres isting
ord en
Ġsp un
Ġloss of
Ġch lor
pr ising
Ġper forming
pt roller
Ġstock dividend
Ġ9 30
Ġ9 75
Ġqu ery
ap ro
und s
Ġ8 79
ĠCo ok
ĠSt ore
ĠSt ewart
Ġdis burse
ork ers
Ġsal vage
Ġsal aried
Ġfin es
ĠK r
ĠK err
Ġsub contract
Ġman oeu
oin s
Ġunder take
Ġbo ats
ĠUn named
Ġthan expected
Ġgovernment officials
Ġann iversary
resident s
ract able
itt ances
Ġ30 9
aw at
ĠV ers
ĠV ision
Ġinterest ing
Ġam ore
Ġen ables
Ġen acted
Ġindustr ials
year ly
Ġstr ip
Ġra is
Ġif it
Ġrep aired
be hind
ĠNew man
87 0
Ġcons p
25 1
ĠAn chor
Ġsell off
Ġcut back
Ġ18 00
Ġdown grades
Ġcontract or
land o
10 6
mon ella
30 6
Ġar t
ester ed
Ġdec is
Ġpresident and
de utsche
ĠEn t
Ġval ves
ĠAmerican Express
Ġfell ow
Ġeffect iveness
ĠGerman s
Ġmanag es
80 2
15 3
Ġprogram ming
Ġrecord ing
Ġco ordinated
Ġ24 00
ind ebted
Ġoffering of
Ġdirect ive
vert ible
Ġnon performing
Ġnon stop
writ e
Th ree
Ġrest oring
ĠOper ations
att ention
ived ays
Ġback s
ustr ated
ĠAss urance
ĠAr iz
Ġmanagement and
Ġimpro ves
ON G
Ġstrong est
35 3
35 6
35 9
AN A
45 4
ĠZ amb
ĠSouth western
Ġcar bon
co operate
Ġob s
Ġthen ear
Ġimp air
Ġimp etus
Ġprivate placement
ĠInd eed
ĠInd ependent
ats u
ys ical
65 9
hen t
ĠTreasury securities
Ġless en
Ġconf ined
22 9
amp enfabr
Ġdepos itary
ĠBro dersohn
Ġleg ally
Ġsc ar
Ġ75 7
Ġdecline in
pec ulative
press ures
Ġ32 9
55 1
De f
Ġexpl aining
Ġ37 1
Ġ37 3
Ġ37 4
09 1
09 6
24 9
ĠUN QU
ĠLe o
Ġ38 3
ĠCon iston
Ġcap ability
Ġcap ita
ĠInter vention
67 3
ĠBr usca
usp ended
38 3
erm uda
05 7
Ġ36 8
Ġ65 3
Ġgre y
Ġenter prise
Ġenter tainment
Ġ44 6
ef ied
26 1
26 9
dec rease
Ġsw ings
ĠSE T
Ġrele ases
cons ortium
Ġ48 1
Ġbenefit ed
Ġbenefit ted
44 2
44 8
Ġ52 1
Ġfav ored
ĠMc Ivor
Ġrecomm ending
84 6
ID EN
leg al
ĠSal vador
Ġfood s
ĠCit ing
ĠCit go
MC A
Ġred emptions
Ġuns old
West inghouse
ĠCont el
ĠSte vens
ĠRich ter
ĠRich ards
ĠComp aq
Ġpat ient
Ġcommission er
Ġhar bor
Ġhar vests
UR R
ĠAll an
Ġprovided the
Ġthreat s
Ġdelay ing
sup plies
46 9
ĠHar vest
call s
ĠTer min
Ġmiss ed
lant z
Ġinc orporate
56 1
56 2
ĠPre c
ĠGe offrey
96 3
96 8
Ġviol ence
Ġbreak through
Ġorgan ized
OS ystems
ĠEqu atorial
exchange able
rec over
clus ions
ĠDen is
Ġavoid ing
Ġhapp ens
ĠMAR K
flation ary
Ġcreditor banks
Ġthec ost
Ġtank oku
AP M
Ġtim ely
ĠCF M
ĠMac intosh
ĠEuro yen
Man ila
Ġfloor traders
AF G
Ġcooper atives
ĠBal ances
ĠPol ice
ĠVal ero
exp enses
Ġinj uries
Res ources
Ġhost ages
Ġstay ed
Ġer up
Ġer oded
Ġapproach ing
Trans portation
Ġinflu ences
Ġassess ed
ĠHer bert
ĠBec k
Ġunfair ly
Ġbear er
ha euser
ĠHigh s
ĠCor pand
Ġrecogn ised
ĠKen osha
ĠCan on
fac es
larg ely
Ġpen et
Ġpeak ed
Ġprof ile
Ġaccel erating
Ġfluctu ate
IGH T
beg in
Cl ass
meas ure
Ġeuro sterling
Ġchallen ging
Ġmand ated
Ġperson ally
Iraq i
willing ness
Ġimm une
Ge orge
ĠOkl a
BEAN S
pret ax
Ġmarked ly
Ġdiss ol
Ġdivest iture
govern ors
Ġaggreg ates
ĠBull etin
Ġcheck ing
ĠAz iz
Ġmaj ors
Ġdin ar
conn ect
ĠInit ially
ĠDisc uss
ĠAtt ack
ĠCommun ication
Ġarbitrage ur
Ġcontra ction
Ġdemonstr ated
Ġgra ms
fact ors
negoti ating
ĠCard enas
benefit s
annes burg
ahl mann
ruct uring
Ġsof ar
Ġder ived
ĠEmploy ees
VI OUS
Ġsam ples
Ġnin emonths
ĠBlack burn
laun ch
purpos e
Ġwit ness
Ġyearen d
Ġfrequ ent
Ġspur red
Ho echst
Ġselect ive
Ġreceiv able
individual s
respons ibility
ĠMem phis
Ġinterpret ation
incent ives
ĠUND ER
ĠOp en
fess or
Ġtit le
Ġanger ed
Ġunw anted
Ġexchanger ates
inst all
ĠOrt iz
ĠOrt ner
ĠHand els
ĠOpp osition
ĠAng lo
Ġvigor ous
ĠPSE TT
Ġdiscoura ge
Ġsoci ety
Ġsoci eties
eron aut
ĠMons od
ĠDur ham
bring ing
ĠAddition ally
ĠSchro eder
Val ley
ertain ly
ĠNich olas
ANC ES
ĠMats ushita
ĠRom ero
Ġtwom ln
Ġbatt les
Ġstopp age
ĠBeth lehem
Ġoutstandings hares
Ġprivates ector
Ġstimul us
ĠTam ura
ĠPas o
ughe y
Ġscre ens
ĠGrey hound
Ġinstal ments
ĠCase y
ĠDiet er
awas aki
fortun ate
cre ate
hect ares
Ġamin imum
Ġnol onger
ĠConcep cion
Ġdemocra cies
Ġscen ario
Fair child
yg ues
exc ellent
aintiff s
andinav ia
ĠPiers on
bezz lement
Rey nolds
Ġcush ion
atem ala
qazade h
PGL O
iok ol
ĠSTER LING
ĠUNQU OTED
0 16
0 12
0 37
0 89
0 74
0 81
0 73
2 000
2 13
2 14
2 18
2 31
3 14
4 86
4 11
5 16
5 75
5 90
5 45
5 11
5 67
5 94
5 89
5 72
6 16
6 90
6 37
6 99
6 83
7 15
7 13
7 34
7 21
8 12
8 31
8 39
9 10
9 75
9 35
9 37
9 36
9 82
A z
B ecause
C as
C ap
C ORN
D istrict
E M
E cu
F P
F arm
F err
G rain
G raphics
G reece
H el
H oll
I ts
I BC
I ADB
J ones
J ardine
K N
K ansas
L A
L abor
M em
M DB
N R
N ot
O hio
P oulenc
R ed
R od
R ex
S im
S ears
T uesday
T OY
T alks
W is
b arr
b ranch
b eef
c ause
c ouncil
c ubic
d est
d ong
d epend
d uty
e ast
e fficiency
f ere
f old
f uel
g ler
i oc
i ments
i quidity
j u
j es
l ive
m as
m and
m ilitary
n ame
n uclear
n ecessarily
o ch
p owers
p reliminary
s and
s ugar
s eeking
s onsaid
s uggest
t ar
t reasury
u ate
v oted
w ich
x ic
y ong
y enne
z h
z inc
Ġt ended
in qu
Ġa ts
er ted
Ġs kin
Ġs itting
Ġs ophisticated
re financing
an uts
Ġthe A
Ġthe T
Ġthe g
Ġthe statement
Ġthe financing
Ġthe average
Ġthe amount
Ġthe talks
Ġthe IMF
Ġthe Paris
Ġthe entire
Ġo ra
it is
it ures
en ate
or insky
Ġc ass
Ġc off
ar ate
ar ine
ar bitrage
Ġp ig
Ġp ipe
Ġb old
Ġb reat
Ġw alked
Ġf u
Ġf ed
Ġf ost
Ġof G
Ġm ic
Ġm us
Ġin trade
Ġin Canada
Ġin international
Ġto one
Ġto about
Ġto consider
Ġto Washington
Ġto ken
Ġto comment
Ġto supply
Ġto expand
Ġto determine
Ġd os
Ġd ump
ro us
is ure
Ġan estimated
Ġand an
Ġand it
Ġand three
Ġand Development
Ġl ibr
st orage
Ġre ading
Ġn ecess
Ġe g
Ġh ire
ĠT w
ĠT ake
ĠT own
ĠT isch
ĠT extile
ĠC ast
ĠC RA
ĠC order
ĠC ode
ĠC BOE
ĠR and
ĠR um
ĠR ights
ĠR JR
Ġit intends
ill on
el ephone
ĠS er
ĠS her
ĠS PA
ĠS nyder
ĠA C
ĠA DV
Ġmln s
ĠI DC
ĠI daho
ch anging
le aving
ĠM ult
ĠM ous
ĠM uch
ĠM int
ĠM ahlmann
Ġst rain
ĠB or
ĠB est
ĠB ren
ĠB akers
ĠB FR
ĠB FC
Ġis the
Ġis currently
Ġis unlikely
ot ting
ir t
Ġsh ops
Ġde valued
pan el
im oto
ra ction
Ġpct for
Ġpct against
Ġpct management
ĠP i
ĠP ittsburgh
Ġy ellow
us uisse
ĠN aval
Ġ3 33
du ed
du ced
ĠF AS
ĠF ERC
Ġcon stitution
Ġits own
Ġits stake
Ġwith held
Ġr ater
ec lined
Ġas ep
Ġas easonally
ĠJ ay
ĠJ am
ĠJ erry
ĠJ orio
ĠD udley
ĠD uluth
Ġwh ow
ĠL arge
ĠL az
ĠL ivestock
Ġwas n
ew el
ĠH k
ĠH in
ĠH ack
ĠH aj
ĠH BO
ĠH owe
ĠG overn
ĠG lo
ĠG avir
ĠG irozentrale
ĠG onz
ĠG lantz
Ġun ified
Ġun necessary
Ġun iform
Ġun happy
Ġhe was
Ġhe told
oun ces
ac on
Ġ4 16
Ġ4 15
Ġ4 26
Ġnot been
Ġhas introduced
Ġag rees
um s
um ing
um ont
am med
Ġcompany and
out look
ĠW o
ub ble
Ġwould take
od a
ĠO R
ĠO MB
ĠO ATS
cl ar
ag gard
the mselves
Ġ6 20
Ġ6 80
Ġ6 95
Ġ6 14
ex cept
ex ternal
con tained
con cluded
se en
Ġbank workers
Ġ7 30
Ġ7 40
Ġ7 77
ĠInc reas
TE L
Ġres ins
ans on
ug ged
ib al
Ġshare in
Ġshare holding
Ġcont est
ok k
Ġim ply
Ġshares in
overn ight
Ġpre payments
clud e
urren cies
ĠSt uart
pro s
Ġdis charge
Ġout sid
ĠCom pletion
eb anks
act or
ĠK ist
ĠK ern
ĠK etch
onn e
li ability
ĠHe ineken
Ġunder taking
Ġweek ended
Ġbo oming
Ġcurren c
use ments
ack nowled
Ġafter a
ĠY ul
ĠY am
Ġcl ou
aw s
ĠV S
Ġ0 6
19 70
Ġfive billion
Ġen larged
Ġforeign debt
Ġstr ingent
Ġind ependence
87 3
87 4
Ġcons ervatives
Ġgroup of
25 9
ĠAn nes
Ġrem oving
Ġwork station
Ġter rit
Ġoff ive
Ġmeeting of
lo v
lo ating
ger y
urn over
30 5
Ġref lection
86 3
16 2
Ġcapital s
Ġcash flow
ĠSe asonally
ĠNO R
cont ent
wh ole
Ġthem id
ĠPro spect
ĠPro vision
Ġexp ir
Ġended March
writ ing
writ ten
Ġ26 2
Ġdr iven
Ġgu ard
fin anc
ĠPl ans
inter im
Ġallow ances
Ġpress conference
pre par
70 5
90 4
hor n
88 3
88 9
ees ley
ĠAr n
ĠAr ian
Ġcontrol of
Ġ29 8
IN TER
ah rain
45 6
af e
St at
uc ceed
ĠPar ts
Ġair ports
enn er
Ġ200 1
Ġadjust able
Ġste pping
22 6
ale z
Ġ45 7
ins pect
92 9
Ġmight be
Ġvi able
Ġagency said
Ġcou p
Ġrev ive
Ch ancellor
Ġ33 4
SE A
SE T
Ġjust ified
Ġdrop s
Ġ37 6
og o
09 7
24 4
under lying
27 6
reg arding
Ġ38 2
hes ives
34 2
ES S
37 1
offic es
Ġden ying
28 1
47 9
erm ain
ĠBoard said
ĠAc quired
ĠOr lando
Ġwhere as
Ġscheduled for
Ġbr id
Ġbr ight
ĠNor man
Ġthef ull
94 4
Ġsit u
FF E
equ al
Ġ49 6
Ġ49 7
Ġ57 6
Ġ47 4
Ġbre w
Ġsoon er
Ġ39 3
Ġhard ship
An geles
Ġovers ee
ĠMc Donald
Ġther el
Ġther uling
Com ex
Com inco
Ġrecover ing
Ġreform ing
Ġtw ow
Ġtw omon
84 8
hel f
74 3
Ġcred ited
Ġnor theastern
CT S
Ġtothe ir
Ġlimited partnership
irc ulation
ĠPenn er
Ġsuit or
crib e
Ġmater ially
ĠSch neider
ĠPe at
Al can
ĠSte in
lin ers
ĠSun fl
ING S
ĠMin eral
Ġhar sh
Ġexper imental
isf ord
rep rene
49 3
OT A
46 3
56 8
Ġmult ip
ĠGr ade
Ġident ity
54 8
Ġdraw ings
Ġreli ed
South west
Ġte ach
Ġpos itively
ĠQu ad
ĠRoy ce
Ġcol ony
Ġrum or
compet e
yd ra
ĠBl air
ĠFeb res
Ġsurvey ed
Ġnarrow ly
ĠSmith Kline
Ġelimin ating
order ed
ĠFranc aise
dr illing
Ġev ac
Ġseasonally adjusted
ĠPC W
idel ined
ĠPR ICE
ĠMart ens
redu ctions
Man hattan
Ġfra g
Col or
Col umbia
ĠFull er
Ġdecreas ing
four th
ĠMo i
industrial ised
Ġold er
exp ire
ĠThom pson
Ġcompens ated
help ed
Ġpick et
ĠSuper ior
pri ated
Ġcontribut ing
Ġcontr ad
ĠBurnham Lambert
ĠTurn er
Ġimpl icit
Ġassess ing
Ġpo ised
kin son
strong ly
Ġradio active
discuss ion
For mer
ĠCal gary
stim ulate
Ġpredict ion
amer ican
Ġmar ines
Cent er
Ġsmel ting
war ned
Ġprof essionals
ells chaft
irac y
major ity
mod est
Ġcere mon
dul ar
bid ding
SI EG
ĠChem lawn
Ġshelf registration
Ġmand ate
Ġutil isation
outhe astern
Indones ian
present ed
eres pons
ĠNik kei
ĠBang kok
Ġtof ile
ĠMu eller
Bar clays
protection ism
Ġcas ino
LI FFE
ĠBen etton
electric ity
Ġsweet ened
Ġrenegoti ate
Ġcat alog
egu ard
Ġfri ends
Organ isation
ĠCP B
Ġgl ut
ĠCam bridge
ĠCam dess
Ġattorney s
Banc o
Mich igan
advis ory
Ġrefund ing
Ġid led
Ġreass ess
Ġham mer
Ġjun k
inch i
sum mer
ĠAk ron
Ġge ograph
ĠUp john
carr ying
Ġware houses
ĠTV X
Ġtherec ent
ĠCub an
Ġunders c
ĠMas se
ĠUs age
ĠJo pling
POR T
ĠAsh er
ĠAsh land
Ġpun itive
Ġinfring ement
ĠFire man
Ġbolster ed
ANG ES
ĠEXCH ANGES
ĠBalt imore
astro us
Ġspons ored
Ġmanip ulation
circ umstances
ĠMons anto
Ġteleph ones
Ġelev ators
Ġtwop ct
Ġoz one
Ġcoco as
Ca isse
ĠEUR OD
ĠMinor ity
Ġerr ors
elimin ate
Ġvend ors
Ġmist ake
Ġisol ated
Ġstrugg le
Ġdeliber ations
flag ged
Ġtor ise
acom p
Coast al
ĠBos chwitz
ĠFre eman
Bal drige
ĠAust in
Ġcurt ail
ĠCass oni
volat ility
ĠScot ia
Ġtostabil ise
Ġhamper ed
MH C
Ġneighbour ing
ĠCanadiand lrs
prompt ed
ĠPap ua
ĠDing ell
execut ives
oblig ations
Ġguerrill as
Ġearli est
Ġtaxpay ers
fluctu ations
EPOS ITS
ĠASC S
rais al
ĠChern ob
Ġguesstimating today
Ġadop ting
ĠTeles is
Commun ist
anst alt
rou ille
Ġconfer enc
Ġamon th
ĠSumit asaid
ampenfabr ieken
Ġasep arate
ĠAnnes ley
Ġtwomon ths
. ,"
0 60
0 32
0 27
0 83
1 000
2 87
2 32
2 67
3 65
3 11
4 28
4 31
5 19
5 35
5 47
5 81
6 10
6 33
6 31
6 93
7 18
7 99
7 78
7 94
8 35
8 24
8 34
8 26
9 87
9 16
9 15
9 66
9 77
9 39
A lex
B L
B V
B as
B usch
C rane
C oca
D u
D ow
D lrs
D MP
D ominion
E r
E ar
E MS
E MP
G r
H y
H ond
I U
K en
L INES
M il
M ur
M ag
M AN
N I
N Z
N ic
O verseas
P rice
R H
R oche
R olls
S can
V AT
W E
W orkers
a am
b i
b ly
b ra
b ie
b arrow
c ra
c ocoa
c ohol
d oub
d orf
e or
e ad
e per
e ure
f ee
f eed
g ate
g and
g ist
g ussa
h of
h ome
h oot
h ope
j obs
k ov
l ost
m echan
m aterial
n ut
o ts
r ang
r ules
s eries
s pecial
s uffic
t i
t owards
v ia
y p
z amb
Ġt angible
in am
Ġa con
Ġa meric
Ġa proposed
Ġa strong
Ġa merger
he tic
he user
Ġs ack
Ġs we
re vers
re cogn
an es
Ġthe shares
Ġthe iro
Ġthe program
Ġthe annual
Ġthe Finance
Ġthe Cons
Ġthe debentures
Ġthe value
Ġthe deficit
Ġthe decision
Ġthe final
Ġthe White
Ġo ro
it ated
it ably
it ness
it achi
es a
or os
Ġp ow
Ġp od
Ġp ose
at r
at form
al ia
Ġf urn
Ġf urniture
Ġf ronts
Ġof International
Ġof New
Ġof subordinated
Ġm n
Ġm ud
Ġm ainst
Ġin line
Ġin West
Ġin Brazil
Ġin mid
Ġin both
Ġto an
Ġto market
Ġto start
Ġto enter
Ġto remain
Ġto operate
Ġd ull
Ġd wt
ro ger
Ġan investment
Ġan official
Ġan international
as i
aid o
om s
om ic
om ething
Ġsaid shareholders
Ġsaid today
ou lin
et alks
Ġl ately
Ġl ists
st ressed
Ġe p
Ġh ikes
ĠT andem
ĠC ad
ĠC ITY
ĠC WT
ĠC ereals
ĠR on
Ġit to
Ġit reached
el ey
ĠS TR
ĠS CH
ĠS LR
ter a
ter y
ur able
Ġfor an
Ġfor Economic
ĠI an
ĠI MM
un ned
Ġbe verage
Ġbe paid
Ġbe allowed
ay er
th man
th ans
th ousands
ve ys
Ġon June
le gh
ĠM V
ĠM att
ĠM orning
ĠM OT
ĠRe ce
Ġst alled
Ġpro minent
Ġg est
ts on
ĠB eryl
ĠB eesley
ig en
Ġis a
Ġis in
Ġdlrs principal
ir ts
ear n
ear thquake
Ġex isted
Ġ19 29
ol ph
Ġpct compared
ĠP O
ĠP ot
ĠP inc
ĠN S
ĠN est
ĠN ick
ĠN ET
ĠN egotiations
ĠN elson
ĠN APM
Ġ3 94
du ll
ĠF ine
ĠF ield
ĠF IR
ĠF OMC
Ġcon densate
qu et
Ġat end
Ġat around
ank ee
Ġits annual
Ġits previously
ul ence
Ġwill also
Ġthat could
Ġr ivers
Ġr ivals
and ina
Ġas imilar
ain oco
ĠE S
ĠE TA
ĠE ugene
ĠJ amaica
ĠD ue
Ġwh er
ĠL O
ĠL is
ĠL enn
are st
Ġyear before
iv est
ew ed
ew ell
ĠH ale
ĠH unt
ĠH ope
ĠH ague
ĠH aggard
ĠG iven
ĠG lobal
ĠG raphics
ĠG ephardt
ĠG hent
Ġun issued
Ġun affected
Ġun conditional
em ed
em eyer
ab ase
ab ler
ac ia
Ġ4 37
Ġ4 28
Ġ5 34
Ġ5 64
Ġ5 29
Ġ5 77
ee able
Ġhas filed
um i
um an
um ption
per t
pl ane
pl iers
am et
am oto
tr as
tr ip
tr ades
tr igger
tr anche
out s
ĠW alt
Ġwould continue
od yne
ĠO pt
cl ical
Ġare likely
ock et
Ġor the
Ġor igins
Ġad ividend
se a
se par
if fer
ant um
Ġ7 10
Ġ7 75
Ġ7 90
Ġ7 88
Ġ7 34
Ġmarket able
Ġmarket ings
TE X
Ġab ank
Ġab use
Ġab uses
Ġres isted
ans ett
Ġnew company
Ġch am
Ġch ose
Ġch oke
Ġper fect
Ġper ceived
Ġshare of
Ġshare sto
Ġthis afternoon
Ġ9 25
Ġ9 29
ok us
Ġqu it
Ġinter fer
Ġinter med
ight ening
und ai
Ġ10 30
ist ech
Ġ8 20
Ġ8 80
pos al
row ing
Ġone pct
ire ments
50 5
ĠSt orage
Ġdis l
Ġout str
Ġout going
ĠCom ex
Ġoffer for
iss uance
ax on
act ing
act ors
ĠK ato
ĠK entucky
Ġexpect sto
Ġover ly
Ġ12 30
Ġpr int
ise ase
ven cy
ĠDe gussa
Ġro ast
Ġro bust
eg in
ĠY emen
ĠCh annel
Ġj ail
Ġj anuary
Ġother countries
we ather
Ġass ault
Ġquarter of
ĠEx ternal
ĠTh u
ish ers
19 7
19 80
19 97
ass ess
part ial
Ġtotal of
ext iles
Ġrep eal
Ġspokes person
87 6
ĠAn nual
In formation
Ġlead ed
Ġter ror
Ġ50 7
Ġcontract ual
lo ane
20 4
20 7
cer y
Ġso il
Ġref riger
isc ount
86 8
Ġsur pass
Ġboard authorized
ĠWest LB
stand still
Ġpresident of
Ġearlier this
Ġext ract
ran ite
75 1
75 2
Ġval ve
Ġval uation
Ġdisc retion
ady ne
80 7
Ġrecord April
Ġopen market
Ġco venants
Ġret reat
Ġret reated
ĠNOTE S
Ġav oided
ĠRes ource
ĠAg o
inc ing
comm unity
Ġ40 8
Ġaddition s
uss ag
ty pe
ph y
ĠPl ace
Th ose
ĠUS S
Ġadv antages
ĠSh ould
min s
omin ation
35 1
Ġ29 2
Ġ35 3
Ġ35 4
Ġ35 7
45 2
ious ly
ĠZ CCM
ĠZ orinsky
Ġ60 3
uc ell
95 8
14 00
Ġreal ise
65 8
Ġmeas uring
Ġmerger agreement
organ isation
az e
Ġhead lined
work s
ĠAt las
OR S
dis app
invest ed
ĠFed erated
18 4
18 9
abil ization
Ġ34 4
Ġvi ability
Ġpresent ing
Ġpoints over
Ġ32 1
55 7
55 8
De alers
int end
Ġexpl oratory
Ġowned by
Ġ33 9
SE E
Ġ37 7
Ġ37 9
ĠAd ministr
Ġprom oted
ĠTel efon
27 4
reg ulators
head ed
34 8
64 1
64 2
67 2
67 6
37 9
99 8
99 9
gr ant
Ġtop ay
47 3
oura ge
05 1
Ġ36 1
Ġ44 3
rem lin
ĠJohn ston
Ġthef uture
78 1
78 2
78 9
ĠLo ew
dec ide
ethe less
cons olid
Ġrespect ivedays
ĠCar ol
Ġ46 2
IT H
Ġ47 3
Ġ47 9
ĠCol umbus
Ġcorporate purposes
elf are
ĠCons ult
sp apers
An g
Ġimpact on
ĠIN A
Ġther apy
Ġ54 3
Ġve in
ath urst
ĠGu ardian
84 2
Ġholders of
79 1
79 3
79 8
74 2
ĠCapital Markets
ĠSal aam
Ġrepurchase agreements
ĠSup ervisory
CT AD
Ġresearch ers
76 8
ĠWill y
Ġ64 6
Ġgener ous
Al aska
Ġ67 30
ĠSte ve
Ġexpansion ary
49 7
49 8
Ġmiss ions
ĠPre vious
Ġconcess ional
ĠPer elman
Ġbus y
ĠtheS enate
En t
En vironmental
requ est
TS BA
ask atche
rest ricted
Ġretain s
Ġwer ed
Ġide al
dam aged
Ġreb ounded
Ph illips
Ph oenix
Ġstim ulated
ĠComputer land
through out
Ġce ased
Ġce ilings
Ġrad iation
Ġren ov
Ġren amed
ĠAlli ant
aus en
Ġtight ness
Ġobject ion
bl au
Ġwinter kill
Ġplay ing
ĠMos lem
Ġcounter trade
Ġcounter productive
ĠRo eller
Ġcommun icate
ĠFranc ois
ĠFranc esco
dr ive
Ġtheb eginning
ĠAssoci ations
Ġcalc ulation
Ġcalc ulate
effect s
effect ively
Ġdest ro
OP EN
Ġdistribut ing
Ġals ocon
Ġprompt ing
allow ing
Ġsyndic ates
Ġfra udul
ĠSteel workers
Tel ecommunications
introdu cing
aur ants
Ġdist ricts
Ġcompens atory
Ġsubs cribed
met al
ĠTra v
Ġens uring
Phil ips
clos ures
Ġinteg rate
Ġdefinitive agreement
ugg ling
sen al
Cons umers
Ġtob ring
Ġinflu enced
inflation ary
Invest or
NE X
Inter est
yr ights
ĠBer isford
ĠLos Angeles
Ġinstitutional investors
allen ge
amer as
Ġhum ans
ĠDis tribution
Ġapprec iate
Ġdispos e
Ġexam ining
ĠMil waukee
expan ded
aly tic
decl ining
DB KG
ĠChrist opher
Ġinject ed
establ ishing
ĠSupreme Court
UT X
Ġstra ined
ĠBill ington
ĠCorn elissen
charg ing
eem ed
pat hetic
Ġmodern isation
Fed eration
cc el
Ġcivil ian
Ġir rigation
ĠEDT WHEAT
Ġfores aw
ĠDr illing
ĠAlger ian
Ġabsorb ed
Democr at
ĠCas ino
emon str
eex ports
rag ansett
ĠSil as
ĠSil kworm
exper ien
Ġaver ages
omen on
Ġharm on
ĠKa uf
ĠKa unda
fav orable
manufact urer
ĠSat ellite
ĠMic rowave
Ġdur um
ĠKim berley
ĠFort une
advis er
Mexic an
spec ific
Ġpul led
ĠPal o
OIL MAY
Ġnom inees
ĠRay mond
eld orf
vir tually
streng the
inf ring
origin ally
cep ts
Ġregister ing
Ġrelax ed
ĠAdvis ers
Ġmeaning ful
Ġtwoc ountries
emarket s
viol ations
Ġneigh b
move ment
Ġtit les
ĠFurther more
Ġexchanger ate
ĠTem per
ĠDuff y
ĠWell come
Ġeth anol
Ġlear ned
ĠOpp enheimer
concent rate
Ġliqu or
Ġsquee ze
Ġbelong ing
Ġobserv ers
Ġoccup ied
ĠWeek ly
Enter prises
CD s
ĠCav aco
MEAL MAY
Offic ials
Ġsyn thetic
ĠIto h
Ġvend or
prim arily
tro ubled
ĠNors k
Ġlosscarry forward
ĠCruz ado
recommend ations
ĠLicht blau
Mart in
Super markets
squ are
ĠBou ygues
mant ling
ĠSus an
ĠMcLe od
Ġatm osphere
ĠConcer n
jud gment
ĠRT Z
Ġitstr ade
ĠSay ad
spons ored
Dou glas
algam ated
ĠSynd rome
Ġashort age
ĠKans ai
ĠGiul iani
ĠJer ome
ĠHOG S
accur ate
ĠArk ansas
ICI AL
iyad h
ĠPert amina
fenn igs
ĠSier ra
Ġsatell ites
ĠCoron a
Ġthres hold
ĠFabric s
Ġunith olders
ecommun ication
ĠPetric ioli
OATS MAY
Sah aran
ĠBomb ay
BEANS MAY
CORN MAY
ĠCorder o
ĠKist ler
ĠKetch um
Ġcurrenc yst
Ġterrit orial
oulin ex
thans a
andina vian
askatche wan
ĠEDTWHEAT MAY
, &
, '
0 86
0 88
0 13
0 18
0 24
0 67
0 78
0 21
2 16
2 45
2 33
3 85
3 35
3 67
4 16
4 75
4 17
4 24
4 67
4 47
4 39
4 84
5 87
5 17
5 13
5 33
5 24
5 76
5 91
6 26
7 40
7 17
7 11
7 37
7 29
8 87
8 10
8 86
8 90
8 45
8 11
8 22
8 92
8 27
9 13
9 92
9 18
9 81
: "
A mer
A CO
A BS
B F
B ased
B urn
B AS
B athurst
C G
D X
D omestic
D EL
D ebt
G C
G U
G as
G reg
G AF
G RAD
H ouston
H udson
I r
L ev
M r
M ining
M ortgage
M orton
N WB
O pp
P eter
R x
R el
R ock
S K
S ab
S oybe
V t
W W
W ard
Z W
Z ambia
a ults
b one
b ons
b ilateral
b order
b viously
c ale
c annot
d ouble
f ram
f inding
h ot
h agen
h undred
i astic
j e
k ins
l en
l ay
l ack
l ighted
m une
m co
o th
o be
o Med
o ples
o ctane
r ance
s an
s igned
s low
t echnical
v ital
w s
w ts
w age
x ports
y rene
z on
z ed
Ġ 00
Ġ ul
Ġt ie
Ġt ropical
Ġt echnological
in ternal
Ġa er
Ġa week
Ġa previously
on ce
on ics
Ġs on
Ġs ing
Ġs ows
Ġs idelined
re cy
re ets
re ading
an ari
Ġthe F
Ġthe i
Ġthe w
Ġthe close
Ġthe time
Ġthe Department
Ġthe offering
Ġthe Community
Ġthe decline
Ġo live
it el
it ating
it imate
Ġc ab
Ġc ure
Ġc ellular
Ġc wts
ar co
ar oid
ar ians
Ġp eas
Ġp add
Ġb urned
al con
al one
al endar
Ġw ip
Ġw ild
Ġw itching
Ġf ul
Ġf end
Ġf ash
Ġof more
Ġof those
Ġm al
Ġm outh
Ġin ches
Ġin Tokyo
Ġto build
Ġto become
Ġto limit
Ġto keep
Ġto distribute
Ġto stimulate
is ely
is tribut
is phere
Ġan option
il m
il et
as p
as da
ct ors
aid e
ut il
Ġand we
Ġand one
Ġand interest
Ġand preferred
Ġand services
ent a
ou in
et ition
et her
Ġl ip
st ner
st atistics
Ġre bu
Ġre lying
Ġre aches
Ġh oc
Ġh azardous
ĠT eck
ĠC um
ĠC ST
ĠC airo
ĠC URR
Ġth reet
Ġth orough
ĠR ic
ĠR ick
ill and
el ter
el ade
ad os
ĠS ad
ĠS uz
ĠS HI
ĠS ignal
ĠS RW
ĠS oriano
ĠA ction
ĠA CC
ĠA BM
ĠA MB
ĠA PL
ĠA qazadeh
ur ged
ur ables
ur ria
Ġfor investment
Ġfor general
Ġmln and
ĠI DA
un cheon
Ġbe at
Ġbe able
ve get
Ġon s
Ġon wards
Ġcom posed
Ġcom prises
le ments
ers onal
ĠM ang
ĠM atch
ĠM arks
Ġst arch
Ġst aple
Ġg aming
os ome
os ite
os ke
ly wood
ĠThe odore
ĠB T
ĠB ir
ĠB AT
ĠB ranch
ĠB ET
ĠB ermuda
Ġis considering
Ġdlrs against
ir th
ow itz
Ġsh op
Ġsh ield
pan sion
im porters
im balances
Ġ19 50
ra cy
ol s
ĠP f
ĠP rom
ĠP ope
ĠP EG
ĠP ierce
ĠP etroleos
ĠN ear
ĠN ak
ĠN ort
ĠN SC
ĠF ab
ĠF IN
ĠF eld
ĠF SB
Ġcon cil
Ġcon stitutional
Ġcon clusions
ĠU pon
ĠU ccel
qu iet
Ġat onne
Ġits business
Ġits outstanding
Ġthat there
ge m
up p
Ġr anks
and i
Ġas an
Ġas chairman
end ants
end ale
ĠE th
ĠE ste
ĠJ WT
ĠD ra
ĠD ens
ĠD ass
ĠL ow
ĠL am
ĠL ex
ĠL oral
ĠL azard
Ġyear from
Ġal umina
Ġal cohol
iv ately
ew ater
ĠH ed
ĠH ARD
ĠH iram
ĠH arkin
ĠG il
ĠG oods
ĠG iorgio
Ġun aware
Ġun stable
em a
ark er
ark ing
ab ol
ab ank
ac ro
ast ically
Ġ4 88
Ġ4 45
Ġ4 65
Ġ4 27
Ġ4 39
Ġ5 60
Ġ5 90
Ġ5 88
Ġ5 35
Ġ5 95
Ġ5 14
Ġ5 66
Ġ5 28
Ġ5 36
Ġag overnment
Ġag roup
per ate
per ations
Ġbillion from
tr ucks
ess ential
Ġwould consider
od or
ĠO VR
cl inical
ag gressive
Ġare port
Ġare not
old ing
Ġ6 75
Ġ6 35
Ġ6 17
Ġ6 22
con cess
Ġad mit
if ies
ard en
Ġbank sto
ant ib
Ġ7 84
TE N
com ments
ib une
ib unal
pect ations
Ġch icken
pr is
Ġhad already
Ġ9 11
Ġ9 44
ok ump
Ġinter s
Ġup set
Ġup date
ight ing
ist ics
Ġ8 65
Ġ8 77
pos its
Ġim per
Ġim ag
Ġaf raid
The ir
50 4
Ġbut that
ĠSt ation
pro ve
ian o
Ġprofit ably
eb el
Ġcomp at
Ġadd ressed
ĠK ock
ĠK IL
ĠK amp
ĠK ahn
ĠK remlin
Ġsub ordinate
Ġsub stance
Ġthey have
ĠMar wick
Ġpr ud
Ġrec oup
ĠHe ublein
ĠDe velop
Ġunder which
ie ch
ie ves
ĠUn ions
Ġro asters
ĠY ELL
Ġcl in
Ġcl auses
ĠCh in
ĠCh un
ĠCh allenger
Ġnet profit
Ġ14 55
ens s
Ġbanks aid
ĠV on
ĠV og
Ġ0 1
ĠTh rough
ish am
19 9
19 91
Ġen rollment
Ġen voy
Ġfinanc ings
ove ment
Ġcurrent account
Ġcommon ly
ĠNew Jersey
Ġbond market
Ġcons isted
ĠAn kara
Ġdecl aring
Ġany way
Ġsell its
Ġ50 9
Ġ25 9
Ġwhen ever
20 9
Ġcan al
Ġar ere
Ġar isen
Ġref l
Ġref rain
Ġprevious year
Ġcapital markets
Ġlevel of
form ally
de ad
ran es
75 4
ĠSe af
plet ed
Ġsl im
Ġsl ate
cont act
Ġlower than
Ġagreed in
ĠFr eres
15 9
ĠAv ana
wh ite
ink i
Ġsecurities houses
Ġreported ly
ind icate
85 1
Ġ40 3
Ġ40 4
Ġ40 7
Ġdemand for
Ġresult of
Ġplant o
ph armaceutical
ph oMed
Ġcer t
me en
Ġmin er
70 4
70 9
90 2
Ġacquisition of
88 8
ĠAss embly
ĠAr ms
Ġcontrol ler
Ġcontrol lers
IN A
IN RA
ah ashi
45 9
stitut ed
17 1
17 8
ĠMan ager
Ġfutures contract
uc c
ĠGeneral Electric
Ġthen egotiations
ĠPar ana
Ġimp ressed
not ice
els ewhere
els inki
Ġmet ropolitan
Ġorder ing
Ġste er
Ġauthor ize
contin ues
Ġthes ix
Ġcomment on
ĠStock holm
Ġdef eated
Ġ80 386
ĠOP TION
bo oks
Ġ75 5
Ġ75 6
Ġpost al
Ġrev ived
int ens
SE S
ĠAm ro
ĠAm ex
og ue
ĠFor bes
24 7
64 3
Ġport ions
67 7
ĠIndustries Inc
99 6
offic ially
ĠNorth rop
28 4
47 1
38 9
05 6
aim s
ĠReserve Board
Ġthef ive
26 8
ethe ir
Ġrele v
Ġclear ance
ush ing
most ly
77 2
77 6
Mar c
equ ities
Ġcre ates
Ġpred ecess
Ġ46 8
44 9
Ġ39 1
Ġpot ato
89 8
ĠIN C
82 70
Ġtw od
ne um
74 6
Ġdiffer ed
Ġph ased
Ġph otograph
Ġland sl
Ġbroad ening
Ġsimilar ly
Ġuns uccessfully
fall s
osp atch
ĠMerrill Lynch
Al ger
Al bert
ĠWall enberg
lin der
ĠComp agnie
Ġcommission ed
Ġhar bour
Ġdil igence
........ ..
Ġfr ustration
Ġexcess ively
49 1
49 6
sup ported
Ġnatural gas
Ġsepar ated
bit ious
US TR
ĠProdu cing
En ded
raph ic
ĠGre ens
Ġrespons ibilities
Ġretain ing
Ġtos ee
Ġwer est
Ġcirc um
Ġreb el
Ġdefin ite
Ġinf uture
ĠMet ex
adjust ments
Ġpercentage point
Ġsuper power
opp osed
compet itiveness
ĠSA O
Ag ricultural
sequ ent
Ġmot iv
Ġcommun ities
br ief
Ġhav ethe
Ġals ore
seed s
Man ufacturing
Ġexpos ures
Ġfra me
Ġtruck ing
ming haus
ĠBu ilders
prot est
Le ading
ĠBur ton
ĠBurn s
Ġaud io
Ġimpos es
ĠRed man
Ġbur dens
adv ances
Ġconv icted
ĠSim ilar
Ġcontr as
Ġprec ision
Ġalloc ate
Ġer osion
Ġminor ities
Ġtob egin
Ġdereg ulate
Ġinflu ential
ĠIr win
Ġmaturing in
ĠJapanes ecom
Ġaccr uing
main der
Inter mediate
Am oco
do ch
ĠBer ger
Ġple as
ĠHigh er
Car l
PI E
Ġtap es
Ġesc row
ĠCan al
affect ing
Ġprotest ing
ĠDis tribut
Ġdispos als
ĠGer stner
Ġcoast al
Ġdisapp ointment
IV ES
Ġprefer ences
ĠChrist ians
ĠEnd otronics
clear ly
mod ern
FC W
Ġinform ally
Ġbalances heet
Ġeuro dollar
ĠLy le
Gen corp
bid s
support ing
members hip
Ġcoordin ating
bour ne
pat itis
ĠPakistan i
Ġhon est
ĠCap itol
Ġimm un
Ġrelationship s
ĠIND IC
sm obile
report ing
ĠTenn essee
Ġthre emonths
chemical s
Ġbere quired
Ġlev ies
Ġpool ing
Ġmaj ord
Electric ite
Mid land
Ġamajor ity
Penn sylvania
Ġsupplement al
Ġslump ed
Ġsweet ener
belie ved
Ġdemonstr ation
Ġsk ills
Ġlegisl ators
negoti ated
Aut hority
Har court
affil iated
reflect ing
Ġpolit ics
boost ed
Ġocc urs
ĠFree port
ĠKh arg
difficult ies
Ġpromot ional
ĠJeff erson
Ġclean up
pred ict
ĠandP oor
Ġpreced ent
Ġyearen ded
Ġlab el
Ġlab els
ĠAk zo
olog ist
Met all
ĠHem dale
OD U
Ġmeg awatt
ias m
Ġvac ant
ĠLeb anese
broad ly
Ġtwoc ompanies
Ġhur ting
Ġcopy right
ĠAppl ied
Ġsudden ly
Ġadj ourned
ĠKur d
Ġswit ches
ITS U
Ġcasual ty
Ġlear n
concent rated
Ġtelev isions
marg in
Produ cers
excess ive
ĠFE ED
Ġflu ids
Soci ete
Ġhaver e
Ġforg iveness
ĠAddition al
ĠSchro der
exam ine
Ġaccommod ate
Ġtick er
ĠandTel egraph
ĠNors ke
ĠLeg isl
ĠHock in
Ġadec ision
Ġlosscarry forwards
Ġoccas ion
Ġing red
ĠRh ine
ĠBAS F
amend ment
unn el
ĠElectro space
Ġwithe x
EF H
join ed
zy me
ĠCz arnikow
ĠBlo edel
Ġsow ings
ĠLock heed
weak ness
Ġtrav elling
flex ibility
ĠTEX AS
Ġenthus iasm
ĠIP MA
bushel s
ĠAFTER NOON
Ġnav igation
occur red
ĠGov ett
Ġsubpoen aed
coun tered
ĠCEN TS
estin ian
eil ampenfabrieken
influ ence
Ġreim burse
eterm ined
barr iers
ĠGonz alez
ydra ulic
ĠCamdess us
ĠChernob yl
suffic iency
okus ai
ABS B
NWB L
asda q
elade au
ĠDens hin
okump u
ĠYELL OW
. >,
0 82
0 79
0 71
2 39
3 16
3 66
4 12
4 26
4 94
4 83
5 27
6 22
6 94
6 97
7 86
8 16
8 13
9 40
9 17
9 65
B olivia
C ie
D ep
D irector
E ver
E TT
F rom
F our
G H
G ill
G row
H T
H oliday
H oneywell
H OG
I O
I ET
J ust
J oint
K ing
K idder
L o
L ines
M ic
M arg
M ass
M ON
M IC
M aster
N ev
N WA
O ut
P AR
P remier
P ioneer
R ad
R OM
S ay
S OL
S IS
S ugar
S ri
T e
T reas
T OR
T echnologies
T aft
U ES
V ir
V iacom
W ell
W att
W ilson
Z B
a ude
a mental
b rough
b elt
b ranches
b orne
c ame
c andal
d ened
d irection
d uties
e velopment
f ind
f iling
g a
h y
h ydro
i op
j ournal
j iang
k t
l ings
l ash
o ing
p ond
p oly
r uction
s in
s che
s avings
t w
t ion
t ure
t ariff
t ariffs
t onsaid
u oka
v ac
w ages
w itching
x is
Ġ ice
Ġt abl
Ġt issue
Ġa ra
Ġa str
Ġs y
Ġs port
Ġs chedules
re volving
Ġthe February
Ġthe West
Ġthe Treasury
Ġthe Iran
Ġthe bonds
Ġthe assets
Ġthe accord
Ġthe union
Ġthe problem
Ġo usted
it ous
it ems
es b
es wick
ed dah
Ġc el
Ġc ra
Ġc ell
Ġc ables
ar at
Ġp lywood
at ra
Ġb il
Ġb urn
Ġb ird
Ġb enefic
al er
al co
Ġw ed
Ġw ing
Ġw ife
Ġw elfare
Ġf reed
Ġof un
Ġof April
Ġof high
Ġof investment
Ġof capital
Ġof South
Ġof Australia
Ġof seven
Ġof England
Ġm utually
Ġin addition
Ġin efficient
Ġto A
Ġto U
Ġto over
Ġto fall
Ġto five
Ġto allow
Ġto issue
Ġto def
Ġto give
Ġto obtain
Ġto cooperate
Ġto xic
Ġd ock
Ġd wind
is tered
Ġan acquisition
Ġan announcement
Ġan interview
as a
as eback
ic ious
aid law
om bo
Ġand market
Ġand could
Ġand long
Ġand increased
Ġand analysts
et ed
Ġl itt
st oday
Ġre inc
Ġre opened
Ġn aturally
Ġh o
Ġh orse
Ġh overed
Ġh oles
Ġh idden
ĠT F
ĠT ro
ĠT ate
ĠT ab
ĠT urning
ĠT unisia
ĠC V
ĠC art
ĠC ond
ĠC IA
ĠC energy
ĠC onger
Ġth reed
Ġth rew
ĠR al
ĠR aul
ĠR ule
Ġit added
el come
el oans
ad ley
ad vertising
ĠS av
ĠS ector
ĠS lifer
ĠS loane
ĠA P
ur d
ment a
ment ation
Ġfor c
Ġfor all
Ġfor further
Ġfor fe
Ġfor ints
ĠI T
ĠI SS
ĠI AE
un a
un veiled
un precedented
ay boy
th r
Ġon February
Ġon revenues
le veraged
ĠM ull
ĠM etro
ĠM AS
ĠM obile
ĠM ike
ĠM aterials
ĠM esa
ĠM oulinex
Ġdlr contract
Ġst uck
Ġg earing
Ġg auge
ĠThe selling
ĠB eg
ĠB oliv
ĠB reak
ĠB ids
ĠB NL
ig uration
Ġis now
Ġis under
ot ron
Ġdlrs on
Ġdlrs worth
Ġdlrs each
Ġsh oot
im m
im balance
im pose
Ġ19 67
Ġpct combined
ĠP OR
ĠP AL
ĠP eladeau
Ġy ork
Ġy arn
ĠN C
ĠN eg
ĠN ext
ĠN ino
ĠN CR
du p
du ction
ĠF AO
Ġcon stitu
ĠU FCW
Ġat its
Ġat ender
Ġits old
Ġits proposed
Ġits fiscal
Ġwill re
Ġwill redeem
Ġthat are
Ġthat Japan
Ġfrom B
Ġby mid
Ġwith other
up s
Ġr he
Ġr ings
ec ision
oc ating
Ġas h
Ġas much
Ġas mall
Ġas bestos
ĠE der
ĠE spin
ĠJ iang
ĠD eng
ĠL if
ĠL ump
ĠL ubb
ĠL incoln
iv ill
Ġwas s
Ġwas likely
ĠH ang
ĠH ugh
ĠH arry
ĠH RW
ĠH ertz
ĠH isham
ĠG ermain
Ġun official
em ma
ac ional
fic its
Ġ4 66
Ġ5 16
Ġ5 70
Ġ5 11
Ġ5 22
Ġ5 55
Ġ5 67
Ġ5 38
Ġ5 94
Ġ5 84
Ġ5 83
Ġnot to
Ġhas decided
Ġhas asked
um ed
per ry
pl and
pl atform
ich tel
ess on
ĠW he
ĠW are
ĠW OR
ĠW ickes
ĠW ainoco
ub ric
Ġwould allow
ĠO S
ĠO y
cl ients
art isan
ag ra
Ġare still
over ty
Ġ6 89
ex ceed
all oy
Ġad here
se in
se brough
if tly
Ġbank ings
str ikes
Ġwhich had
Ġwhich could
ell ar
ant as
Ġ7 16
Ġ7 36
Ġ7 39
Ġ7 93
Ġpl as
op ers
ign ments
Ġres h
Ġres er
Ġres et
ond o
Ġle an
Ġch apter
Ġch aired
Ġch ocol
Ġper mitting
reas ons
Ġcont end
Ġstock in
yst al
Ġ9 10
Ġlast October
Ġlast November
ap acity
Ġinter ference
Ġinter fere
Ġup side
Ġup grading
Ġ8 25
Ġ8 30
Ġ8 72
pos ium
Ġim put
TER N
row ded
ĠBank said
50 2
ĠCo x
ĠSt g
ĠSt ahl
ĠSt atistical
pro hib
pro ceeding
vel ers
Ġdis advantage
Ġdis bursed
ĠCom puters
Ġse ism
ĠK on
Ġover production
Ġsub dued
Ġiss eeking
ĠMar cano
Ġpr oration
li um
ĠHe ad
Ġdebt payments
Ġdebt rescheduling
Ġunder cut
ĠUn ix
ĠUn employment
ort ia
Ġro aster
Ġoil company
ix dorf
eg er
ĠY ellow
ĠCh ap
ĠCh erry
ĠCh annon
Ġj ne
Ġ14 60
ens aid
ens itive
we aken
Ġthree billion
Ġ13 45
ĠComm issions
Ġno body
ĠEx changes
Ġsales were
ĠTh yssen
gh an
19 82
ass embly
Ġwe ighed
Ġfive mln
Ġen force
Ġen emy
Ġen rolled
Ġforeign banks
urch ases
sh er
gra ce
Ġacqu ires
Ġappro ves
ons anto
Ġprov oke
ĠTr i
EC OS
87 1
87 2
Ġcons ortia
Ġgroup ing
Ġthere mainder
Ġ31 1
ĠAmeric anc
Ġlead to
Ġoff take
ĠAl ask
20 1
mon itor
put ies
Ġar bit
Ġsubsid ize
fl ights
Ġnext month
>, &
Ġdec oupling
86 7
86 9
Ġequ ip
Ġsur gery
Ġperiod ic
ret urned
ret irement
Ġcor ner
Ġext ensions
Ġext ingu
ck ed
75 00
ĠNO N
plet e
Ġval uing
Ġdisc ountr
40 4
40 5
Ġsl id
egoti ate
egoti ators
Ġco generation
We ather
ĠPro posed
ĠPro perty
Ġdes irable
Ġ24 6
Ġav ar
85 3
Ġmer its
ĠAg ric
ĠAg ip
60 1
pon ent
inc urred
Ġfil es
ft y
Ġnews agency
Ġended January
ender ed
Ġsecond half
ĠPl acer
hip ment
hip ments
Ġstart up
ick ers
90 6
ĠOper ators
ĠTex tron
Ġem ission
Ġbar s
Ġfac sim
ann ers
Ġsen i
ĠAss et
ffic iencies
Ġoutstanding common
35 7
AN T
Ġ35 9
ah a
Ġli able
45 8
Ġnear ing
Ġnear future
Ġ60 5
ĠSouth African
Ġhalf of
Ġcar cass
Ġuntil the
Ġmat ched
Ġoperating officer
Ġcommercial bank
ĠĠĠĠĠĠĠĠĠĠĠĠĠĠĠĠ ĠĠĠĠĠĠĠĠĠĠĠĠ
Ġap ublic
Ġap reliminary
comp romise
AS UR
Ġaction against
ER N
Ġmust be
cr iber
Ġconf usion
Ġhead of
22 1
22 7
Ġspecial ised
Ġthes pecial
ins ula
Ġnumber of
amp oa
92 6
Ġdef ine
Ġ80 6
Ġmod ifications
abil isation
Ġ34 6
Ġser ial
Ġlate x
Ġ75 1
Ġwithin the
33 7
55 2
55 9
ĠQ TR
Ch arles
Ġsmall est
Ġwar n
Ġsugar cane
Ġjust ice
ĠUN IX
27 2
ĠLe ucadia
Ġappl ic
34 7
ĠCon federation
ĠCon vertible
Ġcomb ines
Ġsim il
67 9
eal er
37 8
Ġtest ify
Ġshe ets
ĠBr y
ĠBr une
Comm odity
usp ices
eth ylene
ett es
Ġcoupon and
orpor ated
alif a
29 1
state ments
acqu iring
26 3
dec lines
Ġinitial public
94 3
ather ing
Ġ42 3
77 4
Ġhand ful
Ġ49 8
ĠCar s
ĠCar son
TR S
Ġ39 6
Ġdon or
Ġ52 3
appro vals
Ġsum s
ĠTrans america
ĠIN CO
Ġur ban
Ġrevised its
82 1
82 3
82 60
Tr aders
Ġ54 8
Ġ54 9
ĠGu atemala
Ġkeep s
Ġins ure
Ġvar ieties
84 3
Ġthep resent
74 9
ĠElectric al
go ts
Ġtore ach
Ġforthe ir
ĠMorgan Stanley
Ġ66 2
Ġcop ra
Ġcop ies
iy ang
ram ar
ĠBrothers Inc
Ġsol ely
ĠEd monton
04 8
ĠSch l
osp her
Ġcarry over
Ġ69 6
acc um
Co operation
Ġ67 2
ĠOFF ICIAL
Ġsom ed
ĠFl uor
Ġsent enced
Ġstabil ization
ĠOther wise
Ġwid en
Ġleft ist
ĠBar nes
Ġspecific ations
ĠInsurance Co
Ġbook runner
Ġinc re
ĠAb dull
56 9
ĠPre ussag
Ġrestrict ion
ĠPer iod
ĠProdu cer
Ġhouse holds
Ġviol ent
Ġviol ate
Ġrespons eto
Ġgross national
Ġcirc ular
Ġcirc ulating
ĠSant ana
vis it
Ġconn ections
Ġmeasure ment
ĠQu otation
Ġentered into
ĠRoy ex
Ġstand by
Ġrad ar
Ġsuper market
uz z
Ġcol lection
Ġattract ing
aus ing
program me
Pr ivate
93 75
Ġnomin ee
Ġwithdraw ing
Ġcoll abor
any thing
ĠDan forth
ĠCoffee Organization
Ind ian
ĠLehman Brothers
imb un
aine Webber
dr iven
Ġabs ent
Ġpossib l
LE Y
ĠAssoci ated
Ġdest ination
period s
Ġals os
Ġexecut e
AC Q
ĠCr and
ĠEuro stat
Man uel
Ġmerch and
Ġofs ecurities
ĠBu ick
Pro t
Pro gressive
Pro perties
ĠBal ao
ĠBal dr
ri end
Ġdepress ion
War burg
Ġliberal ised
exp iration
Ġthel atest
Ġbur st
Ġbur ning
ĠEl li
ĠNAS A
Ġconcent ration
adv antages
ĠMer cer
Ġhect are
Ġconv incing
Ġdev ast
clos ely
Ġappear ance
pers onnel
quir ies
ecom mon
Ġer ad
Ġ124 50
NY MEX
ĠReg al
ĠIr v
ple as
Ġreact or
Ġveto ed
Ġwind fall
Ġconfirm ing
For ce
ĠMerc ury
ground s
ĠThird World
Ġsym pathy
Ġsym posium
Ġcorrect ed
det ailed
dif ferences
Ġexam ined
ges ellschaft
def ined
ĠSam uels
Ġaddress ing
ĠAF T
ĠPat ric
Ġarbitra ger
ĠJun ger
Ġelig ibility
Ġjournal ist
pet itive
Ġinsider trading
On tario
Ġread ily
Ġpros ecution
ipe i
Gu arant
cle ared
eem able
atisf action
uns pecified
Ġdivest ed
Hong kong
Pe abody
dep ending
Ġrein forced
ĠRock y
Ġavail ableto
TO KYO
ĠHill ards
compl iance
gener ated
eyer haeuser
Ġded icated
Ġded uctions
East man
Ġartic les
ĠTreas urer
John son
ĠRain ier
electric al
Ġharm ful
Ġstream lining
Ġcool ing
ĠWy oming
negoti ation
ework ers
Ġfulf il
Ġfulf illed
manufact ure
ĠDi agnostic
Ġsurv iving
Ġprosecut ors
eman agement
Alli ance
guarant ee
Ġexception ally
ĠHa ughey
ĠStra its
ATION AL
spec ulation
ĠAM T
ĠDiplom atic
abr era
Ġperman ently
ĠRefin ery
Ġgather ed
ĠDun can
ĠHond uras
Donald son
Em ploy
vene zuel
carr ied
Ġmagn etic
amin ated
ubsid iaries
Ġsustain able
Ho hen
found land
Ġdomin ate
redeem able
OUR S
Mer ch
Ġsovereign ty
ĠSaf ety
Ġrailroad s
Ġcy clical
ĠPless ey
Ġfertil iser
ĠMae kawa
Ġstric ter
withdraw al
ĠAppl ications
Ġturb ine
Ġfre ely
Ġrational isation
iph erals
cat el
Ġtend ency
Ġlock ed
ele vel
ĠHus sein
ĠKur anari
Ġrol ling
fair ly
Ġarchitect ure
invent ories
ĠFT SE
ĠKy odo
compens ation
lb s
Ġflu id
Ca esars
econt in
FI AT
refin eries
utr ition
ĠSon ora
ĠPRE VIOUS
ĠShow boat
volution ary
relations hip
Ġweren ot
ĠRos ario
Ġoccas ions
big gest
ĠCrop s
hop es
ĠNav istar
Ġthereg ion
Ġretro active
Ġrecipro cal
ĠRy zh
ĠWind s
Ġdescrib ing
ĠLau rent
Ġresur gence
Ġkern el
ĠBrook lyn
Aff airs
Pont iac
Tenn eco
Ġcarm aker
Ġhun ger
ĠCro o
provin ces
Okl a
asc ular
Ġabl eto
iscuss ed
ĠFinanc iere
ĠRoman ia
Ġgro cery
Ġabov ethe
Ġconting ency
Ġminicom puters
Toy ota
iad ne
Ġtumb led
stan bul
ĠMak oto
ocl onal
ĠARG OSystems
Ġdiminis h
Miss issippi
ĠTakes hita
ĠDrey fus
proced ures
Ġod ds
ĠRequ irement
ĠPere z
Ġnoth ave
Ġreplen ishment
Merc antile
UAR Y
ĠOg den
Ġsequ estered
Ġilleg ally
Ġgenu ine
Ġfortun es
ĠtheEx chequer
ĠKerr idge
awat ts
Ġdecis ive
ĠZamb ian
ĠTermin al
TOY O
Ġlibr ary
ĠBren nan
ĠBakers aid
ĠPi per
ĠGavir ia
okk aido
ĠYul o
Ġsitu ations
Ġceremon y
gand an
zamb ique
ĠMatt ress
ĠRece ipts
Greg or
Ġthei rown
Ġpadd y
Ġrebu ff
veget able
enss oro
ĠEspin osa
ĠLump ur
ASUR Y
ĠRyzh kov
0 87
0 47
0 84
1 86
2 15
4 14
4 81
5 70
5 32
5 26
5 31
5 39
5 82
5 21
5 49
6 34
6 84
6 91
7 87
7 35
7 65
7 33
7 23
8 85
8 32
8 94
8 44
9 74
9 83
9 71
A Z
A MA
A EG
B art
B ally
B ON
B IL
B ri
C am
C ip
C AN
C orning
C ocoa
C attle
D r
D art
D espite
E s
F utures
G I
G CC
G rand
G rowth
H Y
H is
H AN
H ung
I TE
J amaica
K eefe
L J
L in
M W
M ad
M ax
M oney
N TS
O ld
O bviously
P re
P ac
P ack
P olicy
R ose
R TRS
S ix
S TC
S ony
S everal
U Z
U ED
V W
X A
a ug
b yn
b ird
b oro
c ious
c orporations
d y
d iss
d ivers
e ither
f a
f u
f ears
h an
h at
h ost
j udge
j ani
k g
k r
l li
m inistry
m eyer
m ulti
n i
p ie
p ox
r ied
r ading
s ource
t org
u y
u ated
v eto
v ailing
v ulner
w ig
y es
y ards
Ġ 000
Ġt ube
in ely
in sider
Ġa high
Ġa wholly
Ġa uspices
he ated
on ed
on ka
Ġs le
Ġs ank
Ġs emiconduct
Ġs ample
re pan
re ich
re action
re payment
re iterated
re placing
an en
Ġthe day
Ġthe bond
Ġthe Commission
Ġthe project
Ġthe open
Ġthe proposal
Ġthe Australian
Ġthe opening
Ġthe existing
Ġthe agency
Ġthe partnership
it udes
en hance
en stein
en chmark
or er
ed ged
Ġc ells
Ġc ameras
ar l
ar med
Ġp c
Ġp age
Ġp its
Ġp acific
Ġp atch
Ġp iece
Ġp fennigs
at lantic
Ġb ans
Ġb irth
al d
al em
al leg
al uminum
Ġw ard
Ġw ished
Ġf ate
Ġf als
Ġof last
Ġof outstanding
Ġof world
Ġof products
Ġof preferred
Ġof dollars
Ġm ir
Ġm cf
Ġin con
Ġin that
Ġin place
Ġin active
Ġin appropriate
Ġin roads
Ġin gots
id ly
Ġto ug
Ġto mer
Ġto change
Ġto hold
Ġto app
Ġto sp
Ġto agree
Ġto show
Ġto complete
Ġto encourage
Ġd or
Ġd iamond
Ġd angers
ro le
ro pped
is he
is aid
is cher
Ġan umber
Ġan ounce
Ġan extraordinary
il ibr
ic y
ic os
ic ensing
om er
Ġand A
Ġand R
Ġand U
Ġand V
Ġand was
Ġand West
Ġand Trade
Ġand options
Ġsaid a
et ite
et ted
et ically
et ailed
Ġl ax
Ġl ived
st own
st inet
st ige
Ġre insurance
Ġre habil
Ġn os
Ġn ex
Ġn avy
Ġe ighth
Ġh ug
ĠT I
ĠT ow
ĠT ang
ĠT ampa
ĠT ucker
ĠT andy
ĠT EMP
ĠC ay
ĠC ong
ĠC orning
ĠC IT
ĠC ivil
ĠC ensus
ĠC ancer
ĠC incinnati
ĠC aterpillar
ĠC ECOS
ĠC abrera
Ġth anc
ĠR ound
ĠR ather
ĠR AP
ĠR LR
ĠR ospatch
Ġit named
Ġit declared
Ġit lowered
el ast
el ine
el ting
ĠS ut
ĠS om
ĠS all
ĠS ection
ĠS oft
ĠS UN
ĠS ibson
ĠS axon
ĠS perry
ĠA st
ĠA part
ĠA SE
ĠA hman
ĠA BB
ĠA DR
Ġfor fiscal
Ġmln Australian
Ġmln guilders
ĠI em
ĠI ber
ĠI DB
ĠI stat
Ġbe a
Ġbe an
Ġbe held
ay ments
th ings
Ġon foreign
Ġv ision
Ġv oid
le uk
ĠM oin
ĠM ob
ĠM ann
ĠM iyaz
ĠM ena
ĠM ORE
ĠRe ports
ĠRe ferring
ĠRe ichhold
Ġst ating
Ġst amp
Ġg ear
Ġg eared
os lov
ts w
ĠB R
ĠB re
ĠB an
ĠB ol
ĠB ul
ĠB arr
ĠB aren
ĠB ened
ĠB onus
ĠB ij
ig ue
ig ade
Ġis to
ir mer
Ġsh ad
Ġsh ifted
Ġde pr
Ġde eper
ol utions
Ġpct last
ĠP SA
ĠP AC
ĠP HL
ĠP orter
ĠN one
ĠN ep
ĠN SW
Ġ3 95
Ġ3 22
ĠF ifth
ĠF isher
ĠF UND
ĠF enner
Ġcon ferences
ĠIn strument
Ġat par
Ġat akeover
ank o
ul ia
Ġwill offer
Ġthat have
Ġthat they
ge ois
Ġr bd
oc cup
end t
ĠE le
ĠE LE
ĠJ eddah
ĠD N
ĠD er
ĠD ale
ĠD oming
ĠD iluted
ĠD illon
ĠL ar
ĠL at
ĠL ess
ĠL ove
ĠL egal
ĠL DC
ĠL ombard
ĠL IFO
iv at
Ġwas the
Ġwas expected
Ġwas made
ew eeks
ĠH et
ĠH ann
ĠH ov
ĠH err
ĠH elsinki
ĠG oria
Ġun ve
Ġun competitive
Ġun reasonable
em ia
Ġhe l
Ġhe expects
Ġhe fty
ric ting
ab ot
ak o
Ġ4 12
Ġ4 92
Ġ4 77
Ġ4 31
Ġ5 87
Ġ5 18
Ġ5 24
Ġhas increased
Ġhas reached
Ġhas entered
um ble
per form
per mission
pl ays
pl ications
ĠW ol
ĠW PP
ub a
ub stantially
Ġwould increase
ĠO lymp
ag ging
the se
Ġ6 86
Ġ6 11
Ġ6 33
Ġ6 47
Ġ6 29
ex it
con v
con fl
str y
Ġwhich it
ant e
Ġ7 45
Ġ7 66
Ġ7 46
ĠInc subsidiary
op ol
ign ation
Ġsp ite
Ġsp reading
ib us
Ġle ak
Ġch airs
Ġper u
Ġshare hold
Ġstock and
Ġ9 15
Ġ9 60
Ġ9 12
Ġ9 55
Ġ9 47
Ġ9 26
ust ain
ap a
ap ons
Ġup land
Ġ8 10
Ġ8 90
Ġ8 88
Ġ8 38
Ġim aging
ĠRE D
Ġaf inal
ĠBank Ltd
Ġbut it
Ġbut declined
Ġpre payment
ĠCo and
pro fessional
Ġdis ks
Ġdis agreement
Ġdis continue
Ġdis astrous
ult ilateral
ĠCom econ
ĠCom bustion
Ġsal monella
Ġoffer and
erv ing
act ually
Ġfin ed
ĠK G
ĠK in
ĠK as
ĠK itt
ĠK orth
ĠK ob
ĠK uala
ĠK ondo
Ġover capacity
Ġsub stitute
ĠDe Crane
Ġall otted
arg aining
ie val
ĠUn less
Ġlo g
Ġro ot
Ġoil industry
Ġafter wards
ĠY u
Ġgovernment al
Ġcl er
Ġ11 300
Ġj urisdiction
ollar s
Ġ14 67
ens ed
Ġfirst coupon
Ġ13 50
Ġprices for
ĠV I
ĠV e
ĠV ar
ĠV ining
ĠV arity
ior ation
Ġam ulti
Ġam bitious
rough s
ass igned
Ġwe are
eed ed
ss uch
Ġk ill
ove z
Ġ16 00
Ġra ce
Ġif they
ext ensive
ĠFebruary after
Ġind emn
Ġappro ving
arr ass
be am
Ġbond holders
Ġrem ember
Ġrem ittances
Ġcut in
Ġmajor industrial
Ġ50 6
Ġoff the
Ġsix billion
ĠAl usuisse
ĠAl legh
Ġint ensive
20 2
20 12
30 2
30 3
30 4
irect ors
Ġannoun ces
ĠFin ally
ĠInternational Coffee
Ġgrowth in
ech oslov
stru ctions
Ġearlier today
Ġtrans mit
Ġrecent years
ĠEn sk
75 6
off ex
ĠSe k
Ġdel icate
ild a
Ġopt ic
Ġworld economic
Ġworld scale
Ġlik ethe
Ġmain fram
80 1
ĠFr i
ĠAv ge
wh ose
Ġret ractable
other wise
Ġexport quotas
85 4
85 8
Ġmost of
Ġloan ed
Ġloan sto
cept ive
60 4
Ġcompared to
comm issions
ĠYork Stock
Ġ40 2
app ears
app reciation
Ġfl uctuation
Ġdr ied
Ġdr iver
fin anced
Ġrel ates
me at
Ġrest atement
view ed
reat y
Ġem bezzlement
Ġnegoti able
88 1
88 2
ov a
ov ir
Ġincluding the
ĠSh in
ĠSh ar
ĠSh ore
ĠSh ield
ĠAr den
sur ers
ĠAir Force
35 4
ah i
Ġnear er
ĠZ iyang
Ġuse of
Ġmarks in
co a
Ġinfl ux
ĠGeneral Agreement
Ġpayments on
Ġimp ed
Ġcommercial ly
ĠPh ill
Ġmet ric
Ġindustrial ists
Ġindustrial nations
ĠSp ending
Ġpoint ing
Ġauthor isation
Ġspecial izing
Ġspecial izes
ĠWh olesale
Ġ45 9
Ġthes ecurities
Ġpers ist
ĠTrade and
ĠMinistry said
Ġdef raud
ĠSen ators
ME NTS
Ġ34 9
ĠOP N
ĠBro ker
ĠBro ken
ĠBro ds
Ġsc ene
Ġsc ience
Ġ75 3
Ġpe anuts
oil s
Ġ32 4
Ch arter
Ch apter
int ensive
Ġexpl os
Ġfollowing the
Ġworth while
ĠAm ar
ĠAm usements
66 2
Ġ37 2
ĠAd vertising
abl el
Ġclos ures
ĠLe ague
rup po
Ġappl icable
64 7
owned subsidiary
99 1
99 3
Ġeven ly
Ġshe ll
ĠBr anko
ĠAnd reas
Ġled by
oura bly
olid arity
38 1
ĠAc cess
Ġ55 3
Ġ55 6
Ġ55 9
Un it
bu ilders
Ġ44 1
Ġ44 8
Ġbr ands
Ġtot wo
Ġsw iftly
36 3
Ġmed iator
Ġrele asing
Ġclear er
Ġlaun ches
77 9
Mar ine
Ġhand les
ĠAra mco
new ly
ĠChr on
sub committee
ĠItal so
Ġpred omin
IT C
ĠSavings and
44 1
deb ts
89 1
89 3
sp iration
An alysts
Ġ56 3
CO J
Ġtw of
84 9
ID C
Ġreject ing
Ġthep act
atch i
ivers hip
Ġtore pay
den ied
Ġattack ing
CH GO
76 9
Ġuns ure
ST OS
ĠEd win
Ġ64 9
prov ides
04 9
Ġ99 6
06 1
06 9
Al uminium
Ġ67 1
Ġ85 4
ĠIndustry Association
ĠDel iver
ĠMin star
ĠIm port
ĠIm aging
ĠIm mune
Ġvers ions
Ġ95 6
ĠMonetary Fund
Ġton egotiate
Ġwid th
........ ...
Re illy
ĠBanc roft
alt ex
ĠBar bara
General e
Se a
Se ven
Ġpubl ishes
Ġinc orrect
56 3
Ġ59 7
Ġfeed er
Ġfeed ing
Ġprogress ing
SR D
Fin land
ĠDEC LINES
Ġrespons ive
ĠMe in
Ġprotect ive
54 2
Ġreli ev
OS S
Ġindicated coupon
Ġdoub ling
Ġcirc le
ĠSant e
Ġundisclosed terms
Ġanticip ating
trans port
Ass istant
Ġsuper markets
Ġsuper fan
Ġkil omet
Ġren eg
Ġwarrant ed
ĠMont ana
Ġwholly owned
Ġ94 8
Ġ74 1
Ġobject ed
ox ide
bl ack
AP AN
Ġtim eto
ĠSmith son
Ġlack l
br and
Ġexcept ional
lead s
lead er
ĠCa a
Ġdest ruction
ĠTrading Commission
Ġals op
ĠGl enn
Ġofs ugar
ĠNY NEX
Tel ephone
Tel ecom
Tel egraph
prot ected
IB D
Ġliberal ise
Ġretire es
Ġthel ow
ĠRed land
ĠDu ess
Ġprivat ise
Ġshut tle
MP T
Ġconv iction
Ġsaf ely
Ġdev oted
hard t
Ġraw s
Ġer a
Ġsust aining
Ġlay ing
Ġhal ved
init ially
Trans Canada
Ġthed omestic
Ġarg ues
ĠJapanes ebanks
thqu akes
ĠMor rison
ĠBer g
Ġveget ables
Net work
des cribed
SC E
Ġthet ender
ĠHaw keye
Ġcorrect ive
ĠofS ingapore
Ġlin ewith
appl ied
short ly
Cont in
Ġdispos able
ris en
Ġfast est
Ġexam ination
Ġlicens ee
MO D
EE I
war th
ĠTariffs and
ref used
Ġdisapp ear
Ġprefer able
Ġcontain ers
Cl ayton
establ ishment
Ġarbitra gers
FC S
dul aire
pet ition
Ġpros per
accr ued
ĠAlan Greenspan
ĠMercantile Exchange
Ġsufficient ly
pack aging
Ġmodern ise
Sen ior
yield s
Ġir regular
ĠGrow mark
ORN ING
Ġasthe y
sm ith
ĠRet emeyer
ĠSpec ific
Ġdeterior ated
Ġdeterior ating
alys ed
Ġrevers ing
Ġthre eweeks
ĠMur doch
Ġdiss olution
earing en
deliver ed
gas oline
concer ning
Ġbarg es
Ġtour ism
dep ressed
Br adley
ĠAnt illes
Ġmaj eure
Ġdin ner
ĠAa a
enk ins
ĠTO DAY
Ġha vest
ĠRel ease
conn ected
CS RA
Hold ing
With out
Ġsli pping
Ġwa ive
ĠInit iative
ĠJac ob
agnost ics
Roy ce
Ġemphas ize
Ġdemonstr ations
Ġgra v
Republic ans
ĠLuf thansa
istill ate
Ġrepair ing
Ġsurpr ising
ĠSy kes
ĠSy Cip
ĠPers ian
Is land
NS AN
mo ved
ĠAcc ount
ĠMoh ammed
Ġapart heid
ĠSa ab
Ġver d
Ġexperien cing
Ġreass ure
Ġnin em
ĠRam on
ordan o
Ġclean ing
Ġreorgan isation
Ġhistor ically
ĠRay theon
ĠDes ign
ĠOw en
exerc isable
olog ists
olog ically
Ġdamp ening
ĠAustr ian
Ġraid s
ĠHem minghaus
Ġclar ification
Ġtherec ord
ĠHous es
ĠUs ing
ĠMem ories
autom atic
Eng ineering
ĠTrail ways
ĠME ET
associ ations
implement ed
implement ation
meg awatt
ĠSour rouille
Ġvulner ability
Ġstret ched
Ġexempt ions
emarket ing
Che v
Ġros es
Lou vre
encoura ging
ĠON IC
Ġadj acent
Ġdl re
ĠTak ahashi
Ġcomfort ably
ĠNat west
Ġeth ylene
ĠGi ordano
Ġliqu efied
Ġsimultane ous
arrange ments
compens ate
Mor rison
ĠLear jet
Ġdistort ions
Ġtyp ically
Cor rects
leaders hip
ĠEver go
Ġbankrupt cies
ĠMinor ities
Ġlag ging
illa ume
ĠonT uesday
ĠPRE V
ĠDEL IVER
uron otes
ĠNob el
Ġconvers ions
ĠDub ai
prim ing
Ġamort ization
Ġantib odies
event ually
ĠRh one
Ġadher ence
Int egrated
Ġprecip itation
ĠACT IVES
Ġguess es
ĠMcK in
Ġrecipro city
Petro bras
deter mination
reli ef
ĠCz echoslov
merch andise
aph tha
bre aking
ĠSym bion
ĠAEG ON
ĠBott om
Ġkern els
Thom as
Ġdial ogue
EDER AL
ĠHawai i
Ġexha usted
acre age
Ġadminister ed
Ġimpress ion
lit igation
tor ic
Ġfault y
ĠTRE ASURY
ĠGand hi
ĠKell ogg
Ġkn ock
ANS AS
Louis iana
Rev lon
Ġrelie ve
nik ov
ĠJoh annesburg
ĠLav oro
Ġsubmar ines
Ġlooph ole
Ġdistill ate
Clear ly
Ġawa ited
Ġglo om
ĠWay ne
Ġker b
Ġliner board
Ġderiv atives
ĠAh med
Ġbackward ation
ĠArr ivill
Ġskept ical
anzi aria
Ġbip artisan
elig ible
ĠBAR LEY
ĠLus inchi
perman ent
agas car
expos ure
eronaut ics
Ġcass ette
Ġmic rowave
pros ecut
ĠProvision al
Ken ya
Nic aragu
Ġswe pt
thman s
Ġgest ure
Ġfraudul ent
GU IN
san jani
ĠSHI P
ĠFeld stein
gem ene
ĠKIL O
Ġrelev ant
Ġpredecess or
Dep uty
journal ists
sin ore
Ġcel ebr
ĠBeg hin
ĠAlask an
ĠCrand all
ĠBaldr ig
Hohen warth
Bri en
byn n
ilibr ium
ĠAhman son
ĠABB ETT
ĠIem ura
ĠMoin es
ĠEnsk ilda
ĠBrods ky
ĠCzechoslov ak
ĠArrivill aga
' ,"
) ...
4 82
5 92
5 66
5 37
5 83
5 96
5 93
6 87
6 32
6 45
6 24
6 96
7 95
7 92
7 24
8 29
8 205
9 88
9 11
9 34
9 47
9 38
9 72
A v
B ig
B ear
B ER
B OR
B ureau
C W
C ad
C arter
C AR
C SR
C razy
C BK
C urrency
D T
D a
D allas
E lders
F ox
F unaro
F SLIC
H J
H S
H ow
H and
H art
H IT
H ilton
I ES
K S
K ay
L imited
M OB
M itsui
M onsanto
N on
N atural
N uclear
N MA
N egotiations
N ATIONAL
O O
O f
O w
O pec
P oland
S at
S ub
S UN
S PC
S aturday
S panish
S emi
T s
V ict
W eb
W ang
W aste
W erner
Y EN
Y asuhiro
Z enith
a ing
b out
b ane
b right
b onus
c in
c en
c ill
c ard
c ise
c aut
d og
e o
e uro
f ix
g ang
g reat
g ilts
h ana
h armaceutical
i X
i ations
j an
k n
l s
l ist
l abor
l anguage
m ount
n t
n ett
n ormally
o bank
p ed
p ension
p alm
p romise
r u
r us
r ant
r ink
r ule
s lr
s ought
s oftware
t ree
t able
t iary
t echn
t oward
u i
w om
w ab
w aste
x p
y al
y ang
z in
z es
Ġt ill
Ġt ires
Ġt abled
Ġt andem
Ġt reating
in ters
in adequate
in strument
Ġa th
Ġa very
Ġa private
er ham
he ar
on der
on ounced
Ġs ed
Ġs ail
Ġs urch
Ġs ki
Ġs election
Ġs ister
re ation
re capitalization
an ction
an za
Ġthe ory
Ġthe de
Ġthe month
Ġthe investment
Ġthe export
Ġthe French
Ġthe short
Ġthe private
Ġthe Brazilian
Ġthe Chicago
Ġthe introduction
Ġthe Middle
Ġthe original
Ġthe whole
Ġthe Louvre
Ġo ust
Ġo xy
en ers
en dum
Ġc ans
ar ly
Ġp i
at ile
at essaid
Ġb on
al um
Ġw all
Ġw ound
Ġw atched
Ġf led
Ġof l
Ġof up
Ġof that
Ġof between
Ġof trading
Ġof commercial
Ġof around
Ġof Agriculture
Ġof Shearson
Ġm ined
Ġm illed
Ġm acro
Ġm kt
Ġin land
Ġin interest
Ġin new
Ġin foreign
id al
Ġto un
Ġto end
Ġto ass
Ġto other
Ġto under
Ġto offer
Ġto grow
Ġto cover
Ġto lower
Ġto yield
Ġto expl
Ġto regulatory
Ġto announce
Ġto Moscow
Ġto ensure
Ġto introduce
Ġto compete
Ġd up
Ġd ental
Ġd irty
ro d
ro zen
ing ham
Ġan et
Ġan ex
il ers
as ers
as king
ic ulous
ut t
ut ilities
om oto
Ġand from
Ġand comp
Ġand Japan
Ġand dis
Ġand industrial
Ġand exports
ent o
ent ing
ent ry
ou che
et ra
et ric
et ail
et work
et hem
et elecommunications
Ġl asts
Ġl uncheon
st orms
Ġre construction
Ġre class
Ġn y
Ġn ore
Ġn air
Ġe ep
Ġe cuador
Ġh ailed
ĠT D
ĠT en
ĠT ad
ĠT PA
ĠC C
ĠC oss
ĠC ities
ĠC MB
ĠC MO
ĠC oupon
ĠC annon
ĠC astro
Ġth ick
Ġth rown
ĠR O
ĠR an
ĠR ing
ĠR il
ĠR ou
ĠR iyadh
Ġit introduced
Ġit purchased
el ivery
ad em
ad emy
ĠS S
ĠS ed
ĠS ave
ĠS OR
ĠS can
ter berg
ĠA ms
ĠA round
ĠA stra
ĠA IBD
ur ings
Ġfor February
Ġfor March
Ġfor two
ĠI w
ĠI sh
ĠI WC
ĠI stanbul
un ia
Ġbe available
Ġbe approved
Ġbe considered
Ġon January
ch arter
ch osen
ĠM O
ĠM MC
ĠM IS
ĠM ED
ĠM OC
ĠM MI
ĠM eyer
ĠM IM
ĠM ovement
ĠRe view
Ġst atist
Ġst aunch
Ġst reets
Ġpro of
ĠB E
ĠB und
ĠB uch
ĠB enefit
ĠB BC
ĠB orden
ĠB ZW
Ġis available
ot ations
ot ional
Ġdlrs compared
Ġsh oe
im ing
im ism
ra ge
ol an
ol ing
Ġpct this
Ġpct Treasury
ĠP ra
ĠP itt
ĠP rem
ĠP owers
ĠP NC
ĠP uma
ĠN umber
ĠN WA
Ġ3 000
ĠF ild
ĠF iber
ĠF oster
ĠF AA
ĠF BI
ĠF alls
ĠF ields
ĠF REE
Ġcon vey
ĠU gandan
ĠIn addition
Ġits stock
Ġits foreign
Ġits debt
Ġits sales
Ġits subsidiary
Ġits holdings
ul can
Ġwill s
Ġwill issue
Ġfrom last
Ġfrom December
Ġby an
Ġwith s
ial e
ect ing
ec u
ec ons
Ġas of
Ġas eries
ain ippon
ĠE ish
ĠE ck
ĠE ll
ĠE IU
ĠJ aff
ĠJ enkins
ĠD ry
ĠD NA
ĠL oh
ĠL ago
ĠL ows
ĠL orimar
ĠL aidlaw
Ġal arm
Ġal together
Ġwas also
Ġwas quoted
ew lett
ĠH ave
ĠH ost
ĠH offman
ĠH OURS
ere m
ere present
ĠG o
ĠG EC
ĠG ull
ĠG ibb
ĠG urria
Ġun ity
Ġun les
Ġun real
Ġun committed
Ġun insured
Ġun fortunate
em ph
em ination
ary land
Ġhe ated
Ġhe had
ak ings
ac ock
Ġ4 34
Ġ4 29
Ġ5 13
Ġ5 31
Ġnot necessarily
Ġtr ies
Ġhas said
Ġhas developed
Ġhas failed
um m
um u
um per
um mer
per m
per mit
Ġbillion l
Ġbillion guilders
am as
am ine
tr uck
ĠW eg
ĠW TC
ĠW INTER
Ġwould s
ĠO sh
ĠO UT
cl op
cl imb
ag all
ag greg
man ip
man age
Ġare l
old ed
Ġ6 87
Ġ6 16
Ġ6 32
Ġ6 92
Ġ6 36
Ġ6 94
Ġ6 44
Ġ6 39
ex ported
Ġor anges
Ġor more
all i
all ows
all otments
Ġad am
ard i
Ġ7 32
Ġ7 33
Ġ7 29
TE S
op f
com prising
Ġhave a
ib re
ib ol
Ġle aked
pr ing
pr inting
Ġshare for
Ġcont ention
Ġcont ested
Ġcont amination
Ġhad no
pt o
pt unia
Ġstock of
Ġ9 78
Ġlast December
ap art
Ġup the
Ġup its
Ġup dated
ist ically
Ġ8 85
Ġ8 55
Ġ8 24
Ġ8 82
Ġaf ederal
vest ment
Ġshares between
Ġone year
Ġbut no
ĠCo le
ĠCo hn
ĠSt ud
pro ved
ake ven
Ġdis p
ian ts
eb etween
Ġcomp rom
act ic
ĠK K
ĠK w
ĠK roger
ĠK eswick
Ġsub urban
av a
ĠMar plan
Ġpr udent
ven ol
Ġall the
rit ories
iz able
Ġapp raisal
Ġincreas ethe
ie ve
ort ed
Ġlo aded
Ġro b
ĠY ields
Ġgovernment would
cy on
Ġacc umulative
Ġacc using
ĠCh ic
Ġnet earnings
Ġj ly
ract s
Ġ14 00
itt aker
ital ia
Ġass emble
Ġbanks and
Ġ30 6
ĠComm and
aw i
ĠV AT
ĠEx cept
Ġinterest in
Ġsales for
Ġtax ed
ĠTh iokol
ass au
Ġen countered
urch asing
Ġstr ive
Ġfour years
ext end
Ġind is
Ġappro priations
arr ants
inister s
ĠNew port
ĠNew spaper
ĠNew foundland
ĠMay o
Ġspokes wom
Ġcent red
Ġset up
ĠAn a
ĠAn acomp
In tel
Ġinto intervention
Ġdown side
Ġdown stream
Ġissue of
ĠAl za
Ġincrease its
Ġthrough underwriters
Ġint elligent
Ġso ar
ester reich
fl at
Ġeconomic fundamentals
Ġstg and
Ġdec ades
Ġprevious week
Ġequ ilibrium
Ġsur faced
Ġsur veys
Ġtrans acted
val uing
75 7
Ġdisc s
Ġworld markets
ĠAmerican Motors
40 9
Ġsl iding
Ġearnings of
rel ating
Ġprogram mes
ĠAv ia
Ġrecord March
Ġopen its
wh olesale
Ġthem ain
Ġco ated
Ġinvestment firm
Ġcr uz
Ġfurther details
ind ications
Ġshort term
Ġfollow through
85 6
Ġmer ging
Ġexp ellers
cept ives
Ġaut os
comm ended
ĠMinister Yasuhiro
Ġfl ags
Ġmake a
Ġnine pct
Ġdr ink
Ġgu arded
ph a
ph ase
term ination
Ġrel ate
inter pret
Ġallow able
70 6
70 7
70 8
90 1
90 7
hor ities
Ġstill available
Ġem pt
Ġem issions
att empts
ann ie
ĠSh op
ĠSh imbun
ĠAr row
ĠAr istech
ai res
min ated
35 2
Ġaccount ants
Ġaccount deficit
ĠZ one
ĠZ uck
ĠZ eeb
AR DS
ĠMan agers
Ġincome of
co ast
PR J
tribut able
Ġsm r
Ġimp at
Ġimp asse
Ġnoted that
ĠSw earingen
Ġmet h
Ġmet eor
Ġpurchase of
Ġorder to
ER IC
ER VE
11 00
11 50
Ġinthe ir
Ġris eto
IL L
Ġtel ecommunication
struct uring
hem at
ĠWh ampoa
Ġ45 3
Ġ45 8
Ġthes ales
Ġthes ettlement
dis pute
Ġpers istent
eas ier
92 7
Ġdef enses
Ġlater today
Ġseveral years
Ġleg itimate
Ġsc ram
Ġ75 9
Ġ70 6
Ġfiled a
Ġfiled for
par able
Ġrev ising
Ġrev oke
Ch annel
int ention
Ġexpl icit
Ġfederal government
Ġworth of
Ġ90 9
Ġindic ative
ĠAd v
ĠAd ams
ĠTel eph
Ġstud ents
27 9
expect ation
Ġbuild s
uck ey
99 4
ĠBr ady
ĠBr ink
ĠBr ierley
Ġarr ay
Ġarr ivals
28 2
eth od
ett ino
bal anced
Ġhow much
Ġ36 3
Un icorp
Un ocal
Un iversal
Ġ65 1
Ġ44 9
Ġbr ink
Ġpass es
dec isions
Ġsw apped
77 7
Ġhand ed
equ itron
Ġpred atory
Ġlending rates
Ġ57 1
Ġ46 3
Ġflo ors
Ġwrit ers
44 3
Ġdon ot
Ġdon ated
ĠCol ombo
ĠSystems Inc
39 6
ĠTrans fer
An other
ott i
Ġ56 1
Ġther ate
Ġther ewas
Ġ54 2
Ġ54 6
ĠLast year
ĠGu illaume
Ġrecomm ends
Ġins isting
forman ces
hel m
atch ing
Ġsoft wood
ĠCalif orn
Ġflow ed
TC B
Ex port
Ġ66 3
Ġ66 9
ĠLynch Capital
iet nam
ĠWhite House
Ġdiscount ing
CH V
Ġuns atisfactory
Ġimmediately available
ĠCommerce Department
Ġdeleg atessaid
epend ents
ST IC
ĠEd wards
ĠSch ul
Al an
Ġshareholder approval
lin i
EL XA
ĠDel ivery
aut o
aut y
Ġcommission ers
Ġstabil iz
Ġstabil ized
PC I
Ġdil emma
rep eated
Ġfr ustrated
Ġthreat ens
sup plement
Ġche ating
46 8
Ġshipp ers
hic le
Ġaimed at
Ġfailed to
Ġ59 1
Ġ59 6
Ġ59 8
Ġonthe ir
Ġbus ines
ĠtheS EC
En d
requ iring
ĠGr ad
ĠGr ass
complet ing
ĠGre ene
Ġeffort to
consider ably
President ial
uk o
eech am
Ġ145 7
ĠSc andinavia
SA PR
ows ky
ĠDec ision
ĠQu arter
[...]
