{"<s>":0,"<pad>":1,"</s>":2,"<unk>":3,"<mask>":4,"!":5,"\"":6,"#":7,"$":8,"%":9,"&":10,"'":11,"(":12,")":13,"*":14,"+":15,",":16,"-":17,".":18,"/":19,"0":20,"1":21,"2":22,"3":23,"4":24,"5":25,"6":26,"7":27,"8":28,"9":29,":":30,";":31,"<":32,"=":33,">":34,"?":35,"@":36,"A":37,"B":38,"C":39,"D":40,"E":41,"F":42,"G":43,"H":44,"I":45,"J":46,"K":47,"L":48,"M":49,"N":50,"O":51,"P":52,"Q":53,"R":54,"S":55,"T":56,"U":57,"V":58,"W":59,"X":60,"Y":61,"Z":62,"[":63,"\\":64,"]":65,"^":66,"_":67,"`":68,"a":69,"b":70,"c":71,"d":72,"e":73,"f":74,"g":75,"h":76,"i":77,"j":78,"k":79,"l":80,"m":81,"n":82,"o":83,"p":84,"q":85,"r":86,"s":87,"t":88,"u":89,"v":90,"w":91,"x":92,"y":93,"z":94,"{":95,"|":96,"}":97,"~":98,"¡":99,"¢":100,"£":101,"¤":102,"¥":103,"¦":104,"§":105,"¨":106,"©":107,"ª":108,"«":109,"¬":110,"®":111,"¯":112,"°":113,"±":114,"²":115,"³":116,"´":117,"µ":118,"¶":119,"·":120,"¸":121,"¹":122,"º":123,"»":124,"¼":125,"½":126,"¾":127,"¿":128,"À":129,"Á":130,"Â":131,"Ã":132,"Ä":133,"Å":134,"Æ":135,"Ç":136,"È":137,"É":138,"Ê":139,"Ë":140,"Ì":141,"Í":142,"Î":143,"Ï":144,"Ð":145,"Ñ":146,"Ò":147,"Ó":148,"Ô":149,"Õ":150,"Ö":151,"×":152,"Ø":153,"Ù":154,"Ú":155,"Û":156,"Ü":157,"Ý":158,"Þ":159,"ß":160,"à":161,"á":162,"â":163,"ã":164,"ä":165,"å":166,"æ":167,"ç":168,"è":169,"é":170,"ê":171,"ë":172,"ì":173,"í":174,"î":175,"ï":176,"ð":177,"ñ":178,"ò":179,"ó":180,"ô":181,"õ":182,"ö":183,"÷":184,"ø":185,"ù":186,"ú":187,"û":188,"ü":189,"ý":190,"þ":191,"ÿ":192,"Ā":193,"ā":194,"Ă":195,"ă":196,"Ą":197,"ą":198,"Ć":199,"ć":200,"Ĉ":201,"ĉ":202,"Ċ":203,"ċ":204,"Č":205,"č":206,"Ď":207,"ď":208,"Đ":209,"đ":210,"Ē":211,"ē":212,"Ĕ":213,"ĕ":214,"Ė":215,"ė":216,"Ę":217,"ę":218,"Ě":219,"ě":220,"Ĝ":221,"ĝ":222,"Ğ":223,"ğ":224,"Ġ":225,"ġ":226,"Ģ":227,"ģ":228,"Ĥ":229,"ĥ":230,"Ħ":231,"ħ":232,"Ĩ":233,"ĩ":234,"Ī":235,"ī":236,"Ĭ":237,"ĭ":238,"Į":239,"į":240,"İ":241,"ı":242,"Ĳ":243,"ĳ":244,"Ĵ":245,"ĵ":246,"Ķ":247,"ķ":248,"ĸ":249,"Ĺ":250,"ĺ":251,"Ļ":252,"ļ":253,"Ľ":254,"ľ":255,"Ŀ":256,"ŀ":257,"Ł":258,"ł":259,"Ń":260,"Ġt":261,"ĠĠ":262,"in":263,"Ġa":264,"er":265,"he":266,"on":267,"Ġs":268,"re":269,"an":270,"Ġthe":271,"Ġo":272,"it":273,"es":274,"en":275,"or":276,"ed":277,"Ġc":278,"ar":279,"Ġp":280,"at":281,"Ġb":282,"ĠĠĠ":283,"al":284,"Ġw":285,"Ġf":286,"Ġof":287,"Ġm":288,"Ġin":289,"id":290,"Ġto":291,"Ġd":292,"ro":293,"is":294,"ing":295,"Ġan":296,"ion":297,"il":298,"as":299,"ic":300,"Ġ1":301,"ct":302,"aid":303,"ut":304,"om":305,"Ġand":306,"Ġsaid":307,"ent":308,"ou":309,"et":310,"Ġl":311,"st":312,"Ġre":313,"00":314,"Ġn":315,"Ġe":316,"Ġh":317,"ĠT":318,"ĠC":319,"Ġth":320,"ĠR":321,"Ġit":322,"ill":323,"el":324,"ad":325,"ĠS":326,"ter":327,"ĠA":328,"ur":329,"ld":330,"ment":331,"ln":332,"Ġfor":333,"ation":334,"Ġmln":335,"ĠI":336,"un":337,"Ġbe":338,"lr":339,"ay":340,"th":341,"ve":342,"Ġon":343,"ch":344,"Ġcom":345,"Ġv":346,"le":347,"ers":348,"ĠM":349,"ce":350,"Ġdlr":351,"ĠRe":352,"Ġst":353,"Ġpro":354,"Ġg":355,"os":356,"ly":357,"ĠThe":358,"Ġ2":359,"ts":360,"ĠB":361,"res":362,"ig":363,"'s":364,"Ġis":365,"ot":366,"ĠĠĠĠ":367,"Ġdlrs":368,"ver":369,"est":370,"ir":371,"ow":372,"Ġsh":373,"Ġde":374,"ear":375,"pan":376,"im":377,"Ġex":378,"Ġ19":379,"ra":380,"ol":381,"ate":382,"Ġpct":383,"ĠP":384,"Ġy":385,"us":386,"uter":387,"ith":388,"ĠN":389,"rom":390,"Ġ3":391,"Ġvs":392,"du":393,"ĠF":394,"Ġcon":395,"ĠU":396,"qu":397,"ĠIn":398,"Ġat":399,"ies":400,"ĠReuter":401,"ank":402,"Ġits":403,"ul":404,"Ġwill":405,"Ġthat":406,"000":407,"ge":408,"Ġfrom":409,"Ġby":410,"ould":411,"Ġwith":412,"por":413,"up":414,"ial":415,"ect":416,"Ġr":417,"Ġ198":418,"ec":419,"oc":420,"and":421,"Ġas":422,"ain":423,"end":424,"ĠE":425,"ĠJ":426,"ĠD":427,"Ġwh":428,"ĠL":429,"Ġ\"":430,"ore":431,"are":432,"Ġyear":433,"Ġal":434,"iv":435,"Ġwas":436,"ew":437,"ĠH":438,"ere":439,"ĠG":440,"Ġun":441,"em":442,"ark":443,"ary":444,"Ġhe":445,"ric":446,"oun":447,"illion":448,"ab":449,"ive":450,"Ġcompan":451,"ak":452,"ac":453,"fic":454,"ast":455,"Ġ4":456,"Ġ5":457,"Ġnot":458,"Ġtr":459,"ee":460,"Ġhas":461,"Ġag":462,"um":463,"per":464,"ud":465,"Ġcts":466,"pl":467,"Ġbillion":468,"am":469,"tr":470,"igh":471,"Ġcompany":472,"ich":473,"ess":474,"ity":475,"out":476,"ĠW":477,"our":478,"fer":479,"ub":480,"Ġwould":481,"od":482,"arket":483,"ĠO":484,"cl":485,"art":486,"ag":487,"man":488,"Ġare":489,"port":490,"ree":491,"ock":492,"over":493,"the":494,"old":495,"oss":496,"pp":497,"ue":498,"Ġ6":499,"ex":500,"Ġor":501,"all":502,"lt":503,"con":504,"ave":505,"Ġad":506,"se":507,"anc":508,"ber":509,"red":510,"if":511,"ard":512,"Ġbank":513,"orp":514,",\"":515,"str":516,"ther":517,"Ġwhich":518,"ell":519,"ant":520,"Ġ7":521,"Ġmarket":522,"Ġac":523,"ction":524,"ĠInc":525,"ations":526,"ade":527,"Ġpl":528,"ated":529,"TE":530,"Ġab":531,"of":532,"op":533,"ine":534,"der":535,"ign":536,"Ġres":537,"ans":538,"ug":539,"com":540,"ren":541,"ond":542,"ost":543,"ip":544,"Ġpric":545,"Ġhave":546,"ure":547,"ord":548,"mer":549,"Ġsp":550,"Ġloss":551,"ib":552,"age":553,"ĠCorp":554,"Ġ&":555,"pect":556,"Ġle":557,"Ġwere":558,"ance":559,"ition":560,"Ġnew":561,"Ġch":562,"pr":563,"Ġmon":564,"ates":565,"Ġper":566,"ong":567,"ares":568,"Ġshare":569,"for":570,"reas":571,"Ġcont":572,"day":573,"Ġhad":574,"pt":575,"Ġ1986":576,"Ġstock":577,"so":578,"yst":579,"Ġthis":580,"to":581,"Ġ9":582,"ange":583,"ust":584,"oll":585,"able":586,"ok":587,"Ġlast":588,"Ġqu":589,"ap":590,"Ġinter":591,"Ġprodu":592,"Ġup":593,"ight":594,"und":595,"ational":596,"ors":597,"Ġ10":598,"ist":599,"ings":600,"wo":601,"Ġ8":602,"fit":603,"pos":604,"Ġ(":605,"ities":606,"uary":607,"eek":608,"Ġim":609,"TER":610,"row":611,"ĠRE":612,"Ġfir":613,"Ġalso":614,"Ġdeb":615,"UTER":616,"ĠĠĠĠĠĠĠĠ":617,"ments":618,"apan":619,"Ġaf":620,"vest":621,"ĠREUTER":622,"The":623,"Ġshares":624,"Ġone":625,"Ġabout":626,"eral":627,"ĠBank":628,"ire":629,"overn":630,"ia":631,"50":632,"Ġbut":633,"Ġpre":634,"inis":635,"Ġcomm":636,"ĠCo":637,"clud":638,"urren":639,"ely":640,"ĠSt":641,"ĠIt":642,"Ġ-":643,"pro":644,"vel":645,"ake":646,"Ġme":647,"Ġdis":648,"Ġoffic":649,"ures":650,"Ġear":651,"..":652,"hr":653,"ult":654,"Ġtwo":655,"Ġbeen":656,"Ġout":657,"ork":658,"ail":659,"vi":660,"ĠCom":661,"tern":662,"Ġsal":663,"ian":664,"Ġprofit":665,"creas":666,"ous":667,"eb":668,"Ġoffer":669,"iss":670,"erv":671,"ax":672,"Ġse":673,"dustr":674,"Ġcomp":675,"act":676,"ms":677,"Ġadd":678,"ĠNet":679,"overnment":680,"Ġfin":681,"ĠK":682,"Ġexpect":683,"Ġover":684,"Ġmonth":685,"ĠJapan":686,"ome":687,"pril":688,"Ġsub":689,"ress":690,"Ġthey":691,"conom":692,"sid":693,"Ġiss":694,"Ġman":695,"Ġ12":696,"onn":697,"av":698,"ĠMar":699,"Ġpr":700,"Ġrec":701,"own":702,"li":703,"ident":704,"ise":705,".\"":706,"ven":707,"ĠHe":708,"ĠDe":709,"change":710,"Ġdebt":711,"arter":712,"its":713,"Ġall":714,"oin":715,"Ġunder":716,"rit":717,"Ġweek":718,"Ġbo":719,"ions":720,"roup":721,"ĠApril":722,"arg":723,"Ġtrad":724,"Ġcurren":725,"iz":726,"rop":727,"Ġmore":728,"Ġapp":729,"Ġend":730,"Ġincreas":731,"use":732,"ecur":733,"ie":734,"ase":735,"ced":736,"ĠUn":737,"ort":738,"ces":739,"Ġfore":740,"Ġ15":741,"Ġ1987":742,"Ġlo":743,"ack":744,"Ġro":745,"Ġoil":746,"ey":747,"ang":748,"Ġeconom":749,"Ġafter":750,"Ġofficial":751,"ports":752,"Ġbu":753,"ix":754,"Ġpart":755,"Ġpay":756,"air":757,"ood":758,"eg":759,"Ġinclud":760,"Ġwhe":761,"ĠY":762,"Ġoper":763,"Ġthan":764,"ual":765,"Ġgovernment":766,"cy":767,"ĠMarch":768,"Ġcl":769,"ount":770,"ile":771,"Ġinvest":772,"td":773,"ystem":774,"ical":775,"ach":776,"ice":777,"Ġ11":778,"Ġtrade":779,"Ġacc":780,"ating":781,"ĠCh":782,"Ġnet":783,"reement":784,"Ġtonn":785,"Ġ20":786,"Ġann":787,"Ġj":788,"Ġother":789,"resident":790,"ountr":791,"ollar":792,"ugh":793,"ime":794,"ash":795,"ff":796,"tal":797,"ecurities":798,"ract":799,"Ġ14":800,"Ġtheir":801,"ens":802,"itt":803,"we":804,"ital":805,"Ġtold":806,"Ġass":807,"Ġreport":808,"Ġstate":809,"Ġfirst":810,"Ġthree":811,"ĠLtd":812,"Ġ13":813,"oy":814,"ĠRev":815,"Ġbanks":816,"meric":817,"Ġsup":818,"ose":819,"ited":820,"ower":821,"Ġ30":822,"Ġprices":823,"Ġdiv":824,"ĠComm":825,"Ġprice":826,"Ġquarter":827,"aw":828,"ebr":829,"ĠV":830,"Ġ0":831,"Ġno":832,"ĠEx":833,"Ġinterest":834,"Ġmeet":835,"Ġsales":836,"Ġtax":837,"ainst":838,"ebruary":839,"ik":840,"Ġcould":841,"ĠTh":842,"ide":843,"Ġplan":844,"gh":845,"ior":846,"redit":847,"ĠRevs":848,"ubl":849,"ence":850,"ision":851,"ish":852,"Ġsu":853,"uring":854,"Ġam":855,"rough":856,"iness":857,"Ġhigh":858,"ific":859,"ject":860,"Ġrate":861,"19":862,"one":863,"ass":864,"orld":865,"usiness":866,"ays":867,"Ġtonnes":868,"ved":869,"Ġwe":870,"Ġfive":871,"part":872,"hold":873,"anuary":874,"ility":875,"ared":876,"Ġen":877,"Ġcountr":878,"Ġindustr":879,"Ġfinanc":880,"che":881,"Ġforeign":882,"anad":883,"ned":884,"apital":885,"ues":886,"year":887,"Ġdollar":888,"velop":889,"Ġagreement":890,"ough":891,"ause":892,"okes":893,"Ġtoday":894,"ued":895,"aj":896,"Ġ--":897,"urch":898,"Ġexpected":899,"eed":900,"Ġstr":901,"ources":902,"ss":903,"Ġk":904,"Ġsome":905,"ased":906,"Ġpropos":907,"ove":908,"Ġ16":909,"Ġ1985":910,"Ġbet":911,"alyst":912,"tain":913,"sh":914,"lect":915,"Ġfour":916,"gra":917,"Ġtotal":918,"Ġdue":919,"Ġacqu":920,"ible":921,"oint":922,"ese":923,"ternational":924,"Ġra":925,"Ġif":926,"ext":927,"ame":928,"Ġgrow":929,"Ġagainst":930,"Ġcurrent":931,"ĠFebruary":932,"Ġrep":933,"Ġind":934,"inistr":935,"fore":936,"Ġbuy":937,"ĠĠĠĠĠ":938,"Ġappro":939,"ĠBut":940,"arr":941,"ajor":942,"inister":943,"ons":944,"be":945,"Ġcommon":946,"ied":947,"ĠNew":948,"ission":949,"Ġbond":950,"eneral":951,"Ġdeal":952,"Ġus":953,"Ġprov":954,"ised":955,"ĠMay":956,"Ġspokes":957,"Ġadded":958,"Ġcent":959,"ĠTr":960,"Ġyears":961,"EC":962,"ĠJanuary":963,"cess":964,"lrs":965,"87":966,"Ġcons":967,"ween":968,"Ġset":969,"Ġshr":970,"Ġ17":971,"Ġgroup":972,"Ġthere":973,"get":974,"ublic":975,"lier":976,"25":977,"ep":978,"ĠAn":979,"Ġow":980,"Ġreg":981,"Ġ31":982,"In":983,"ater":984,"Ġcontin":985,"Ġinto":986,"vious":987,"Ġest":988,"Ġrose":989,"mber":990,"Ġsystem":991,"ton":992,"ines":993,"Ġdecl":994,"said":995,"Ġrem":996,"ĠAmeric":997,"ace":998,"Ġwork":999,"Ġany":1000,"Ġlead":1001,"gy":1002,"Ġbec":1003,"Ġter":1004,"Ġpol":1005,"Ġsell":1006,"Shr":1007,"ks":1008,"Ġcut":1009,"ederal":1010,"Ġmajor":1011,"Ġredu":1012,"ined":1013,"med":1014,"Ġ18":1015,"resent":1016,"Ġbusiness":1017,"Ġproduct":1018,"Ġ50":1019,"Ġoff":1020,"Ġdown":1021,"Ġrates":1022,"airman":1023,"ĠCanad":1024,"arm":1025,"iod":1026,"urop":1027,"Ġissue":1028,"Ġspokesman":1029,"ning":1030,"ince":1031,"ets":1032,"ative":1033,"urope":1034,"her":1035,"Ġ25":1036,"Ġcredit":1037,"ory":1038,"Ġnow":1039,"Ġmeeting":1040,"Ġbetween":1041,"Ġmade":1042,"Ġsix":1043,"gan":1044,"Ġcontract":1045,"Ġdo":1046,"ĠAl":1047,"land":1048,"Ġincrease":1049,"Ġthrough":1050,"Ġhold":1051,"ending":1052,"ite":1053,"lo":1054,"Ġop":1055,"Ġint":1056,"ger":1057,"Ġwhen":1058,"ffect":1059,"20":1060,"Ġproduction":1061,"Ġbecause":1062,"Ġanalyst":1063,"Ġtrading":1064,"ĠShr":1065,"Ġfund":1066,"Ġwho":1067,"10":1068,"dlrs":1069,"reed":1070,"mon":1071,"rol":1072,"Ġexchange":1073,"Ġmonths":1074,"cer":1075,"led":1076,"hed":1077,"une":1078,"Ġcost":1079,"Ġbel":1080,"Ġso":1081,"Ġcan":1082,"Ġmay":1083,"urn":1084,"put":1085,"nings":1086,"ever":1087,"30":1088,"gram":1089,"&#":1090,"raz":1091,"Ġtake":1092,"irect":1093,"Ġsign":1094,"Ġhis":1095,"Ġannoun":1096,"Ġar":1097,"Ġref":1098,"come":1099,"iel":1100,"vent":1101,"ester":1102,"Ġfinancial":1103,"ral":1104,"Ġsubsid":1105,"als":1106,"fl":1107,"Ġsources":1108,"Ġnext":1109,"Ġgain":1110,"Ġeconomic":1111,"Ġstg":1112,"Ġtime":1113,"Ġonly":1114,"isc":1115,"partment":1116,"orth":1117,">,":1118,"Ġdec":1119,"ĠFin":1120,"erman":1121,"Ġfut":1122,"Ġprevious":1123,"86":1124,"Ġequ":1125,"Ġcompanies":1126,"Ġofficials":1127,"Ġsur":1128,"bank":1129,"ĠInternational":1130,"holders":1131,"16":1132,"ally":1133,"Ġboard":1134,"udget":1135,"Ġgrowth":1136,"son":1137,"Ġyen":1138,"Ġshould":1139,"Ġcapital":1140,"Ġperiod":1141,"ember":1142,"ĠWest":1143,"ĠJapanese":1144,"Ġrise":1145,"razil":1146,"esterday":1147,"round":1148,"Ġ100":1149,"Ġstatement":1150,"ranc":1151,"Ġlevel":1152,"Ġdevelop":1153,"ull":1154,"ales":1155,"oci":1156,"stand":1157,"urther":1158,"Ġcash":1159,"ech":1160,"vers":1161,"ret":1162,"Ġcall":1163,"Ġspec":1164,"ollow":1165,"Ġcor":1166,"stru":1167,"form":1168,"Ġrequ":1169,"Ġpresident":1170,"Ġearlier":1171,"ield":1172,"Ġlong":1173,"de":1174,"Ġpurch":1175,"Ġtrans":1176,"Ġrecent":1177,"val":1178,"ouse":1179,"Ġext":1180,"Ġunit":1181,"ĠEurope":1182,"aking":1183,"ck":1184,"ĠEn":1185,"ran":1186,"ble":1187,"75":1188,"Ġbefore":1189,"off":1190,"Ġsec":1191,"cember":1192,"ĠĠĠĠĠĠ":1193,"ĠExchange":1194,"Ġwhile":1195,"osed":1196,"Ġ199":1197,"Ġrece":1198,"ury":1199,"ĠSe":1200,"Ġmarkets":1201,"ency":1202,"ĠUnited":1203,"ittee":1204,"Ġdel":1205,"ĠNO":1206,"Ġcountries":1207,"plet":1208,"ted":1209,"ward":1210,"Ġval":1211,"ild":1212,"Ġopt":1213,"Ġremain":1214,"Ġdisc":1215,"agement":1216,"Ġworld":1217,"Ġserv":1218,"Ġindustry":1219,"Ġact":1220,"Ġsale":1221,"ĠAmerican":1222,"Ġestim":1223,"outh":1224,"ply":1225,"sider":1226,"ricult":1227,"ceed":1228,"40":1229,"ady":1230,"io":1231,"omest":1232,"Ġsl":1233,"Ġfell":1234,"emb":1235,"cont":1236,"Ġlower":1237,"ution":1238,"Ġlik":1239,"ths":1240,"ĠJune":1241,"Ġatt":1242,"ters":1243,"Ġagreed":1244,"Ġeffect":1245,"isition":1246,"trib":1247,"egot":1248,"Ġmark":1249,"ĠGerman":1250,"ium":1251,"Ġmain":1252,"Ġearnings":1253,"Ġsay":1254,"Ġfall":1255,"egoti":1256,"Ġmanag":1257,"ob":1258,"Ġpolic":1259,"80":1260,"ina":1261,"iary":1262,"Ġsince":1263,"uf":1264,"ĠFr":1265,"15":1266,"rel":1267,"Ġprogram":1268,"ecut":1269,"ĠAv":1270,"Ġrecord":1271,"cial":1272,"Ġtal":1273,"standing":1274,"billion":1275,"Ġbas":1276,"ĠOn":1277,"Ġopen":1278,"omestic":1279,"wh":1280,"Ġthem":1281,"Ġco":1282,"uters":1283,"ery":1284,"ices":1285,"Ġret":1286,"idend":1287,"We":1288,"cord":1289,"ling":1290,"other":1291,"yn":1292,"ound":1293,"ired":1294,"Ġbill":1295,"ordin":1296,"Ġinvestment":1297,"orrow":1298,"Ġcr":1299,"Ġ27":1300,"ficit":1301,"ief":1302,"Ġfurther":1303,"Ġ22":1304,"Ġ23":1305,"rain":1306,"....":1307,"ink":1308,"Ġdid":1309,"ĠBrazil":1310,"ĠPro":1311,"Ġdes":1312,"Ġsecurities":1313,"Ġ24":1314,"duct":1315,"Ġexport":1316,"mln":1317,"ics":1318,"stit":1319,"Ġreported":1320,"Ġchairman":1321,"ĠNOTE":1322,"Ġexports":1323,"plus":1324,"ind":1325,"Ġav":1326,"aker":1327,"Ġsuch":1328,"arge":1329,"uch":1330,"Ġfig":1331,"Ġshort":1332,"owever":1333,"Ġoffering":1334,"ipp":1335,"ĠCommission":1336,"Ġpublic":1337,"Ġfollow":1338,"85":1339,"Ġneed":1340,"Ġmer":1341,"Ġmost":1342,"Ġexp":1343,"Ġloan":1344,"ene":1345,"ĠRes":1346,"cept":1347,"Ġaut":1348,"Ġmoney":1349,"lp":1350,"Ġown":1351,"Ġdirect":1352,"ĠAg":1353,"Ġbudget":1354,"ising":1355,"pany":1356,"Ġoperations":1357,"oper":1358,"60":1359,"from":1360,"Ġshow":1361,"Ġdem":1362,"Ġgo":1363,"ĠEC":1364,"Ġpriv":1365,"alf":1366,"pon":1367,"ctions":1368,"Ġquot":1369,"inistry":1370,"ĠAvg":1371,"inc":1372,"Ġannual":1373,"Ġcompared":1374,"pct":1375,"mercial":1376,"Ġyesterday":1377,"ĠDecember":1378,"Ġbro":1379,"Ġshrs":1380,"with":1381,"comm":1382,"ĠYork":1383,"ird":1384,"Ġproducts":1385,"ploy":1386,"reasury":1387,"til":1388,"ĠGroup":1389,"Ġdet":1390,"Ġhigher":1391,"Ġ40":1392,"Ġdemand":1393,"ĠMinister":1394,"Ġeach":1395,"vert":1396,"Ġplans":1397,"Ġannounced":1398,"echn":1399,"app":1400,"Ġaround":1401,"ives":1402,"ĠSecurities":1403,"ended":1404,"Ġanalysts":1405,"Ġfil":1406,"Ġfirm":1407,"Ġnon":1408,"irst":1409,"ason":1410,"Ġbeing":1411,"ĠBrit":1412,"verage":1413,"Ġaddition":1414,"Ġfl":1415,"aper":1416,"Ġprior":1417,"ft":1418,"ĠIndustr":1419,"agan":1420,"Ġnews":1421,"Ġent":1422,"Ġdeficit":1423,"ately":1424,"ged":1425,"Ġ21":1426,"Ġended":1427,"ender":1428,"just":1429,"Ġsame":1430,"ont":1431,"Ġgood":1432,"osition":1433,".,":1434,"Ġbid":1435,"Ġloans":1436,"writ":1437,"Ġtalks":1438,"Ġduring":1439,"Ġresult":1440,"Ġused":1441,"uss":1442,"Ġ26":1443,"ferred":1444,"Ġmake":1445,"Ġnine":1446,"ty":1447,"ober":1448,"Ġdr":1449,"Ġgu":1450,"fin":1451,"Ġplant":1452,"Ġsecond":1453,"ph":1454,"term":1455,"ĠPl":1456,"hip":1457,"Th":1458,"by":1459,"ufact":1460,"uly":1461,"ĠSales":1462,"ference":1463,"Ġcer":1464,"Ġfranc":1465,"Ġrel":1466,"inter":1467,"Ġdividend":1468,"Ġstart":1469,"Ġsupport":1470,"Ġaccord":1471,"Ġ28":1472,"Ġhelp":1473,"me":1474,"erve":1475,"ailable":1476,"Ġallow":1477,"Ġsold":1478,"Ġcomplet":1479,"Ġlarg":1480,"ought":1481,"dition":1482,"Ġfarm":1483,"Ġpress":1484,"ick":1485,"Ġmin":1486,"iscal":1487,"ively":1488,"pre":1489,"Ġrest":1490,"70":1491,"90":1492,"cent":1493,"12":1494,"hor":1495,"Ġincludes":1496,"ecutive":1497,"Ġposs":1498,"ural":1499,"ĠNational":1500,"Ġdays":1501,"ications":1502,"ĠStates":1503,"ants":1504,"Ġstill":1505,"ĠOper":1506,"ĠFederal":1507,"view":1508,"will":1509,"ĠUS":1510,"Ġboth":1511,"ting":1512,"ĠTex":1513,"reat":1514,"Ġwell":1515,"Ġdomestic":1516,"Ġem":1517,"Ġaff":1518,"Ġproposed":1519,"Ġnegoti":1520,"ĠBo":1521,"att":1522,"ived":1523,"Ġback":1524,"Ġacquisition":1525,"Ġbar":1526,"88":1527,"Ġconsider":1528,"Ġfac":1529,"ĠUP":1530,"ized":1531,"Ġassets":1532,"ann":1533,"ĠReagan":1534,"ote":1535,"iver":1536,"ov":1537,"ustr":1538,"chedu":1539,"Ġseven":1540,"olo":1541,"Ġearly":1542,"anged":1543,"Ġsubsidiary":1544,"ees":1545,"Ġsen":1546,"ourt":1547,"Ġincluding":1548,"Ġcountry":1549,"Ġbasis":1550,"ĠAss":1551,"Ġadv":1552,"Ġpolicy":1553,"Ġmove":1554,"Ġshareholders":1555,"ministr":1556,"ĠCanada":1557,"porters":1558,"Ġintern":1559,"Ġeconomy":1560,"ring":1561,"ĠAs":1562,"ĠSh":1563,"Ġreven":1564,"ffic":1565,"vol":1566,"ĠAr":1567,"Ġcontrol":1568,"Ġ1988":1569,"ĠReuters":1570,"Ġago":1571,"sur":1572,"Ġbonds":1573,"Ġpar":1574,"Ġamount":1575,"riculture":1576,"erves":1577,"ai":1578,"min":1579,"ondon":1580,"Ġeight":1581,"Ġoutstanding":1582,"ĠJuly":1583,"ĠEuropean":1584,"ided":1585,"ĠPay":1586,"omm":1587,"ĠThey":1588,"ĠHouse":1589,"Ġsect":1590,"Ġsug":1591,"Ġvalue":1592,"32":1593,"ists":1594,"Ġproble":1595,"tly":1596,"Ġcurrency":1597,"Ġmanagement":1598,"Ġmths":1599,"Ġimpro":1600,"Ġterms":1601,"ON":1602,"uing":1603,"ready":1604,"etro":1605,"Ġstrong":1606,"omin":1607,"Ġconsum":1608,"ĠAir":1609,"Ġdif":1610,"Ġfiscal":1611,"Ġlow":1612,"35":1613,"Ġtender":1614,"Ġlaw":1615,"Ġlikely":1616,"Ġcentral":1617,"AN":1618,"les":1619,"ults":1620,"Ġimport":1621,"Ġ29":1622,"entures":1623,"IN":1624,"Ġgas":1625,"Ġ35":1626,"ĠFinance":1627,"gin":1628,"ah":1629,"ners":1630,"Ġaccount":1631,"ier":1632,"Ġli":1633,"),":1634,"oh":1635,"AT":1636,"ulf":1637,"45":1638,"ious":1639,"Ġloc":1640,"Ġnear":1641,"embers":1642,"ĠZ":1643,"cast":1644,"Ġincreased":1645,"Ġsurplus":1646,"ptember":1647,"Ġuse":1648,"Ġproject":1649,"umber":1650,"stitut":1651,"Ġnotes":1652,"AR":1653,">.":1654,"Ġlim":1655,"ustral":1656,"Ġour":1657,"Ġ60":1658,"Ġimports":1659,"Ġfunds":1660,"Ġmarks":1661,"ĠSouth":1662,"ley":1663,"anges":1664,"Ġfigures":1665,"ociation":1666,"ked":1667,"Ġofthe":1668,"lear":1669,"Ġcontinue":1670,"af":1671,"17":1672,"ĠMan":1673,"Ġhalf":1674,"Ġexpects":1675,"Ġcar":1676,"Ġincome":1677,"Ġuntil":1678,"Ġsever":1679,"Ġwheat":1680,"Ġbelie":1681,"ular":1682,"ude":1683,"co":1684,"Ġob":1685,"ization":1686,"Ġdealers":1687,"Ġinfl":1688,"retary":1689,"Ġmuch":1690,"St":1691,"ergy":1692,"Ġfutures":1693,"ron":1694,"Ġchief":1695,"PR":1696,"market":1697,"ĠPresident":1698,"ovi":1699,"tribut":1700,"DA":1701,"ipment":1702,"Ġmat":1703,"unity":1704,"Ġheld":1705,"Ġoperating":1706,"ministration":1707,"uc":1708,"Ġsm":1709,"Ġinternational":1710,"Ġgeneral":1711,"ĠGeneral":1712,"company":1713,"Ġcompet":1714,"Ġfact":1715,"13":1716,"ĠPr":1717,"Ġpayments":1718,"Ġaverage":1719,"Ġform":1720,"Ġavailable":1721,"95":1722,"lement":1723,"ĠDepartment":1724,"ily":1725,"Ġthen":1726,"ĠPar":1727,"ially":1728,"ĠLondon":1729,"'t":1730,"Ġday":1731,"Ġseek":1732,"Ġimp":1733,"Ġfirms":1734,"Ġprivate":1735,"Ġair":1736,"ington":1737,"Ġalready":1738,"Ġrul":1739,"ator":1740,"Ġmanager":1741,"etary":1742,"Ġcommercial":1743,"Ġpreviously":1744,"Ġsenior":1745,"enn":1746,"ĠInd":1747,"not":1748,"ured":1749,"ize":1750,"Ġestimated":1751,"Ġbrok":1752,"14":1753,"ata":1754,"Ġdate":1755,"that":1756,"ĠĠĠĠĠĠĠĠĠĠĠĠĠĠĠĠ":1757,"ĠCanadian":1758,"ĠYear":1759,"els":1760,"Ġreserves":1761,"itive":1762,"Ġcarr":1763,"ĠIran":1764,"Ġprot":1765,"Ġgr":1766,"ials":1767,"Ġstake":1768,"ats":1769,"Ġvery":1770,"Ġ200":1771,"Ġreal":1772,"ading":1773,"ĠPh":1774,"ys":1775,"Ġap":1776,"Ġrepresent":1777,"Ġbarrel":1778,"Ġclose":1779,"Ġrat":1780,"comp":1781,"Ġnoted":1782,"65":1783,"ll":1784,"ĠĠĠĠĠĠĠ":1785,"ume":1786,"Ġmeas":1787,"Ġthird":1788,"ached":1789,"ights":1790,"ĠSw":1791,"cing":1792,"Ġmet":1793,"Ġpurchase":1794,"Ġinclude":1795,"Ġexpan":1796,"iven":1797,"ability":1798,"echnolo":1799,"uro":1800,"Ġfrancs":1801,"Japan":1802,"Ġthose":1803,"Ġnil":1804,"Ġexecutive":1805,"Ġconvert":1806,"Ġadjust":1807,"AS":1808,"Ġorder":1809,"oviet":1810,"Americ":1811,"action":1812,"hen":1813,"Ġfull":1814,"Ġinit":1815,"ongress":1816,"Ġste":1817,"Ġcosts":1818,"Ġminister":1819,"Ġpartic":1820,"ler":1821,"ecretary":1822,"ĠHowever":1823,"Ġissued":1824,"Ġbegin":1825,"500":1826,"Ġaction":1827,"Ġapproved":1828,"ER":1829,"estern":1830,"11":1831,"ful":1832,"ĠTreasury":1833,"avings":1834,"ĠThis":1835,"Ġinthe":1836,"Ġindustrial":1837,"ner":1838,"Ġjoint":1839,"way":1840,"err":1841,"Ġris":1842,"ĠSp":1843,"ection":1844,"Ġunderwrit":1845,"Ġtraders":1846,"Ġless":1847,"andard":1848,"Ġmembers":1849,"ances":1850,"Ġbl":1851,"Ġmust":1852,"iate":1853,"would":1854,"Ġpoint":1855,"Ġwhat":1856,"ashington":1857,"Ġproposal":1858,"Ġposition":1859,"IL":1860,"ĠRecord":1861,"ional":1862,"Ġselling":1863,"cr":1864,"Ġcalled":1865,"Ġmerger":1866,"Ġresults":1867,"uel":1868,"yo":1869,"organ":1870,"ffer":1871,"Ġtel":1872,"Ġhere":1873,"Ġconf":1874,"Ġpreferred":1875,"struct":1876,"ĠAf":1877,"ago":1878,"oints":1879,"az":1880,"Ġhead":1881,"ev":1882,"ancial":1883,"22":1884,"Ġmlndlrs":1885,"Ġdiscuss":1886,"work":1887,"ĠWorld":1888,"Ġsupply":1889,"surance":1890,"ders":1891,"Ġauthor":1892,"iday":1893,"contin":1894,"Ġinvestors":1895,"Ġcover":1896,"ĠAt":1897,"Ġspecial":1898,"Ġfuture":1899,"hem":1900,"igned":1901,"Ġdeclined":1902,"Ġbased":1903,"ĠWh":1904,"ĠSeptember":1905,"rodu":1906,"Ġoutput":1907,"Ġemploy":1908,"CC":1909,"Ġdecision":1910,"OR":1911,"ale":1912,"Ġ500":1913,"ustom":1914,"used":1915,"Ġ45":1916,"gress":1917,"Ġthes":1918,"Ġput":1919,"Ġelect":1920,"ĠBaker":1921,"pric":1922,"ross":1923,"Ġconcer":1924,"ulation":1925,"ified":1926,"dis":1927,"ins":1928,"Ġpers":1929,"thers":1930,"ying":1931,"Ġnumber":1932,"Ġstocks":1933,"It":1934,"amed":1935,"ĠUnion":1936,"Ġshar":1937,"Ġcondition":1938,"Ġlosses":1939,"Ġlevels":1940,"Ġsector":1941,"arant":1942,"Ġcomment":1943,"Ġvol":1944,"ĠTrade":1945,"Ġthese":1946,"ĠStock":1947,"eas":1948,"Ġreflect":1949,"ceeds":1950,"unications":1951,"amp":1952,"ĠMinistry":1953,"closed":1954,"Ġcorpor":1955,"which":1956,"invest":1957,"92":1958,"Ġmany":1959,"offee":1960,"Ġdef":1961,"Ġyield":1962,"ably":1963,"cers":1964,"Ġbal":1965,"Ġanother":1966,"Ġissues":1967,"isting":1968,"Ġ80":1969,"Ġcrop":1970,"empt":1971,"orn":1972,"ĠAustral":1973,"ĠChina":1974,"ĠSen":1975,"okyo":1976,"Ġapproval":1977,"incip":1978,"though":1979,"ordinated":1980,"Ġdevelopment":1981,"Ġtarg":1982,"ators":1983,"ME":1984,"Ġlater":1985,"ages":1986,"ĠFed":1987,"18":1988,"Ġmod":1989,"ĠSoviet":1990,"Ġdepos":1991,"Ġindex":1992,"Ġseveral":1993,"ases":1994,"abil":1995,"Ġreceived":1996,"ten":1997,"Ġ34":1998,"ĠServ":1999,"ĠOP":2000,"Ġser":2001,"Ġca":2002,"ĠBro":2003,"rench":2004,"Ġreduce":2005,"bo":2006,"Ġmight":2007,"Ġvi":2008,"Ġlate":2009,"aken":2010,"orm":2011,"Ġborrow":2012,"ĠFirst":2013,"Ġleg":2014,"Ġcommittee":2015,"etrole":2016,"ĠSystem":2017,"ĠBritish":2018,"Ġlargest":2019,"Ġdebentures":2020,"uation":2021,"ails":2022,"based":2023,"less":2024,"Ġsc":2025,"Ġ75":2026,"Ġchange":2027,"AL":2028,"uct":2029,"ctober":2030,"ĠUnder":2031,"ests":2032,"Ġpe":2033,"Ġpresent":2034,"Ġwithin":2035,"ips":2036,"33":2037,"Ġpoints":2038,"aren":2039,"Ġbanking":2040,"Ġoffered":2041,"Ġdecline":2042,"Ġ70":2043,"quarter":2044,"Ġprofits":2045,"Ġpost":2046,"ents":2047,"ĠCongress":2048,"Ġexclud":2049,"Ġagency":2050,"Ġfinance":2051,"Ġdoes":2052,"Ġfiled":2053,"oil":2054,"pec":2055,"press":2056,"Ġcou":2057,"Ġmanufact":2058,"par":2059,"ict":2060,"Ġrev":2061,"line":2062,"ĠGermany":2063,"earch":2064,"onal":2065,"ĠMot":2066,"cies":2067,"Ġway":2068,"Ġ32":2069,"Ġpossible":2070,"aff":2071,"ounts":2072,"55":2073,"Ġline":2074,"ĠQ":2075,"ential":2076,"Ch":2077,"ĠShe":2078,"De":2079,"Ġunits":2080,"Ġcertain":2081,"Ġsmall":2082,"Ġpayment":2083,"int":2084,"Ġexpl":2085,"rict":2086,"Ġfollowing":2087,"qtr":2088,"Ġfederal":2089,"etroleum":2090,"Ġpaper":2091,"Ġfinancing":2092,"Ġsigned":2093,"ait":2094,"Ġgold":2095,"iff":2096,"ones":2097,"Ġwarr":2098,"Ġowned":2099,"atory":2100,"Ġinvol":2101,"Ġpriced":2102,"Ġbelow":2103,"now":2104,"ĠWashington":2105,"Ġfar":2106,"Ġcrude":2107,"Ġinflation":2108,"Ġpast":2109,"Ġwar":2110,"Ġlarge":2111,"Ġworth":2112,"ĠSecretary":2113,"AY":2114,"Ġpack":2115,"ĠCent":2116,"...":2117,"Ġmil":2118,"ĠNine":2119,"Ġadditional":2120,"velopment":2121,"ffor":2122,"stant":2123,"Ġ33":2124,"Ġ90":2125,"Ġrevenues":2126,"SE":2127,"Ġfail":2128,"Ġconference":2129,"ople":2130,"Ġcurrently":2131,"Ġindic":2132,"spect":2133,"alled":2134,"Ġaccept":2135,"raw":2136,"tax":2137,"Ġwant":2138,"ĠAm":2139,"Ġsugar":2140,"Ġlocal":2141,"ĠGulf":2142,"Ġjust":2143,"Ġstrik":2144,"66":2145,"Ġdrop":2146,"Ġacquire":2147,"IC":2148,"enture":2149,"Ġqtr":2150,"Ġpaid":2151,"Ġbought":2152,"ĠTokyo":2153,"produ":2154,"Ġweeks":2155,"Ġservices":2156,"Ġ37":2157,"bond":2158,"eto":2159,"Ġforecast":2160,"ĠAgriculture":2161,"Ġconvertible":2162,"cheduled":2163,"ohn":2164,"Corp":2165,"Ġterm":2166,"increas":2167,"aun":2168,"ĠAd":2169,"Ġgive":2170,"ĠTexas":2171,"Ġlet":2172,"ĠPlc":2173,"og":2174,"acific":2175,"eep":2176,"Ġwhether":2177,"Ġgrain":2178,"09":2179,"plit":2180,"ves":2181,"Ġeffective":2182,"Ġfe":2183,"ides":2184,"ĠFor":2185,"Ġprom":2186,"Ġprovide":2187,"24":2188,"gest":2189,"echnology":2190,"abl":2191,"Ġdeliver":2192,"ĠTel":2193,"under":2194,"quid":2195,"pped":2196,"Ġstud":2197,"1986":2198,"ĠUN":2199,"ually":2200,"Ġsuc":2201,"urchase":2202,"has":2203,"ĠAug":2204,"ificant":2205,"Ġleast":2206,"27":2207,"Ġplanned":2208,"erc":2209,"Ġtom":2210,"Ġprocess":2211,"stock":2212,"Ġclos":2213,"Qtly":2214,"Ġvice":2215,"Ġget":2216,"raft":2217,"reg":2218,"Ġnations":2219,"ixed":2220,"Ġrequire":2221,"Ġhop":2222,"Ġthink":2223,"ĠLe":2224,"ibility":2225,"ĠParis":2226,"oor":2227,"tific":2228,"ĠInvest":2229,"bia":2230,"head":2231,"Ġmaking":2232,"rup":2233,"Ġ38":2234,"Ġunch":2235,"aged":2236,"Ġappl":2237,"hes":2238,"ense":2239,"Ġseason":2240,"34":2241,"pd":2242,"Ġmid":2243,"ĠCon":2244,"Ġ300":2245,"Ġsee":2246,"Ġcap":2247,"Ġcomb":2248,"econ":2249,"isions":2250,"Ġreporters":2251,"ĠRep":2252,"64":2253,"imin":2254,"oco":2255,"expect":2256,"cil":2257,"was":2258,"ĠĠĠĠĠĠĠĠĠ":2259,"owned":2260,"Ġregul":2261,"ĠFriday":2262,"Ġsim":2263,"Ġagree":2264,"Ġprincip":2265,"month":2266,"Ġaffect":2267,"ES":2268,"ficult":2269,"pite":2270,"Ġopp":2271,"ĠInter":2272,"Ġproblems":2273,"Ġpower":2274,"ĠAPR":2275,"Ġservice":2276,"Ġport":2277,"ession":2278,"Ġcompleted":2279,"67":2280,"eal":2281,"ĠIndustries":2282,"atives":2283,"ĠMon":2284,"Ġfinal":2285,"Ġsubject":2286,"ĠOne":2287,"37":2288,"otal":2289,"Ġasked":2290,"ames":2291,"Ġbuild":2292,"Ġoptions":2293,"Ġactiv":2294,"Ġtest":2295,"uck":2296,"99":2297,"Ġeven":2298,"Ġcents":2299,"Ġshe":2300,"isation":2301,"Ġreached":2302,"gr":2303,"Ġreview":2304,"urs":2305,"Ġraised":2306,"Ġtarget":2307,"aud":2308,"Ġthecompany":2309,"Ġel":2310,"ĠBr":2311,"ĠAssociation":2312,"imum":2313,"ĠOctober":2314,"Ġlook":2315,"Ġeffor":2316,"Ġspending":2317,"ocr":2318,"offic":2319,"Ġgoods":2320,"ns":2321,"Ġfew":2322,"avy":2323,"ĠAnd":2324,"Comm":2325,"Ġden":2326,"ife":2327,"ecurity":2328,"formation":2329,"ient":2330,"aco":2331,"Ġclosed":2332,"Ġoption":2333,"ouncil":2334,"American":2335,"Ġimmed":2336,"orning":2337,"usp":2338,"curren":2339,"Ġcustom":2340,"Ġtop":2341,"ĠPhil":2342,"sto":2343,"ovember":2344,"Ġarr":2345,"ste":2346,"ĠNorth":2347,"oybe":2348,"enefit":2349,"28":2350,"eth":2351,"Ġled":2352,"ĠCl":2353,"ĠEng":2354,"Ġ150":2355,"ett":2356,"Ġcoupon":2357,"iam":2358,"ness":2359,"Ġlist":2360,"Ġsaying":2361,"itical":2362,"47":2363,"bec":2364,"oura":2365,"olid":2366,"emocr":2367,"au":2368,"EN":2369,"ariff":2370,"lex":2371,"Ġdepartment":2372,"ĠFrench":2373,"oft":2374,"Ġsett":2375,"38":2376,"eph":2377,"Ġbills":2378,"ĠPart":2379,"vention":2380,"Ġimprove":2381,"erm":2382,"orpor":2383,"ĠElect":2384,"Ġofficer":2385,"bal":2386,"atest":2387,"Ġproducers":2388,"ĠOffic":2389,"ĠBoard":2390,"05":2391,"aim":2392,"alif":2393,"ĠOil":2394,"Ġgains":2395,"ĠAfric":2396,"29":2397,"ving":2398,"ĠAc":2399,"ĠOr":2400,"Ġabove":2401,"Ġcontracts":2402,"tribution":2403,"Ġant":2404,"ump":2405,"ittle":2406,"pay":2407,"Ġsplit":2408,"hemical":2409,"cu":2410,"Ġgiven":2411,"Ġsubordinated":2412,"Ġformer":2413,"alth":2414,"state":2415,"Ġwhere":2416,"aily":2417,"Ġhow":2418,"ĠFund":2419,"ĠEconom":2420,"econom":2421,"Ġarea":2422,"Ġpartners":2423,"Ġfourth":2424,"Ġequity":2425,"Ġcorn":2426,"aiw":2427,"Ġbalance":2428,"Ġ36":2429,"ĠLyn":2430,"Ġ55":2431,"Ġacquired":2432,"Un":2433,"Ġnational":2434,"Ġname":2435,"igin":2436,"iving":2437,"Ġ65":2438,"Ġrecently":2439,"Ġdetails":2440,"Ġgre":2441,"akes":2442,"Ġcharg":2443,"Ġintrodu":2444,"Bank":2445,"government":2446,"ĠReserve":2447,"Ġenter":2448,"Ġraise":2449,"Ġreduced":2450,"bu":2451,"ĠAG":2452,"Ġpact":2453,"Ġrights":2454,"Ġ44":2455,"onday":2456,"shares":2457,"ipl":2458,"ished":2459,"Ġplace":2460,"Ġscheduled":2461,"Ġcomputer":2462,"Ġmeasures":2463,"Ġorders":2464,"Ġbuying":2465,"Ġaccording":2466,"Ġwithout":2467,"Ġcontinued":2468,"Ġbr":2469,"ĠNor":2470,"acqu":2471,"Ġreturn":2472,"Ġaim":2473,"rem":2474,"ĠJohn":2475,"Ġthef":2476,"oody":2477,"Ġcome":2478,"78":2479,"Ġtot":2480,"exic":2481,"Ġpass":2482,"ĠCommunity":2483,"Canad":2484,"ef":2485,"ension":2486,"Ġfacility":2487,"Ġdifficult":2488,"Ġrepay":2489,"Ġworking":2490,"Ġboost":2491,"Ġequipment":2492,"Ġnegotiations":2493,"ĠLo":2494,"Ġguarant":2495,"26":2496,"Ġturn":2497,"Ġbankers":2498,"dec":2499,"Ġsw":2500,"atic":2501,"Ġfree":2502,"alysts":2503,"Ġworkers":2504,"Ġconditions":2505,"UN":2506,"ging":2507,"odity":2508,"100":2509,"isl":2510,"International":2511,"36":2512,"ining":2513,"ethe":2514,"Ġproper":2515,"Ġrun":2516,"Ġinitial":2517,"ĠSE":2518,"acity":2519,"Ġadministration":2520,"offer":2521,"Ġchanges":2522,"Ġeng":2523,"Ġliquid":2524,"TT":2525,"aul":2526,"about":2527,"Ġregis":2528,"struction":2529,"ened":2530,"Ġmed":2531,"Ġtaken":2532,"ener":2533,"hare":2534,"Ġrele":2535,"cons":2536,"ware":2537,"Ġclear":2538,"Ġlaun":2539,"interest":2540,"Ġexpand":2541,"Ġpeople":2542,"ush":2543,"share":2544,"ĠNote":2545,"lik":2546,"ordinary":2547,"Ġshowed":2548,"gent":2549,"Ġrestruct":2550,"ĠPacific":2551,"300":2552,"Ġrepl":2553,"Ġventure":2554,"Ġunion":2555,"94":2556,"iation":2557,"ĠBritain":2558,"Ġcourt":2559,"ather":2560,"Ġ51":2561,"Ġvolume":2562,"ĠSenate":2563,"lines":2564,"Ġpackage":2565,"most":2566,"esbank":2567,"Ġmember":2568,"Ġtoo":2569,"Ġgoing":2570,"bably":2571,"Ġvot":2572,"Ġrange":2573,"Ġextra":2574,"Ġsit":2575,"Ġ42":2576,"Ġtraded":2577,"ortg":2578,"77":2579,"Ġresp":2580,"Ġsystems":2581,"Ġletter":2582,"FF":2583,"Ġsusp":2584,"Ġbpd":2585,"Mar":2586,"week":2587,"Ġpressure":2588,"Ġhand":2589,"Ġgovern":2590,"Ġ48":2591,"ours":2592,"arent":2593,"ĠDemocr":2594,"Ġrespect":2595,"utch":2596,"ĠAra":2597,"Ġright":2598,"Ġadjusted":2599,"ĠOPEC":2600,"new":2601,"Ġbig":2602,"ĠVol":2603,"ĠFrance":2604,"ĠChr":2605,"Ġquoted":2606,"down":2607,"equ":2608,"Ġship":2609,"Ġdirector":2610,"ties":2611,"Ġcre":2612,"ism":2613,"abor":2614,"Ġorigin":2615,"Ġtonne":2616,"Ġamong":2617,"Ġsignificant":2618,"sub":2619,"Ġdam":2620,"Ġ49":2621,"ĠThere":2622,"ĠTrust":2623,"continued":2624,"200":2625,"Ġdata":2626,"icip":2627,"Ġlittle":2628,"ĠCar":2629,"imes":2630,"Ġyet":2631,"ĠItal":2632,"itted":2633,"ern":2634,"Ġpred":2635,"Ġprovision":2636,"Ġbarrels":2637,"Ġbenefit":2638,"Ġlending":2639,"Ġ57":2640,"Ġdivision":2641,"ched":2642,"Ġreceive":2643,"ephone":2644,"aiwan":2645,"mark":2646,"ecess":2647,"Ġ46":2648,"IT":2649,"Ġbegan":2650,"ĠMonday":2651,"ĠJames":2652,"holder":2653,"ĠAmerica":2654,"ĠNovember":2655,"rupt":2656,"Ġflo":2657,"icon":2658,"Ġele":2659,"cement":2660,"Ġ47":2661,"Ġtransaction":2662,"31":2663,"ĠSavings":2664,"ĠGold":2665,"Ġrequest":2666,"ricultural":2667,"Ġbre":2668,"Ġwrit":2669,"Ġfixed":2670,"ises":2671,"icago":2672,"ĠCredit":2673,"ightly":2674,"ponse":2675,"TR":2676,"Ġmarketing":2677,"posed":2678,"Ġsubstant":2679,"Ġsoon":2680,"ĠSwiss":2681,"reng":2682,"undesbank":2683,"Ġholding":2684,"44":2685,"deb":2686,"lia":2687,"Ġ39":2688,"errill":2689,"iately":2690,"Ġcal":2691,"Ġinstitut":2692,"Ġdon":2693,"ĠCol":2694,"Ġ52":2695,"Ġcorporate":2696,"industr":2697,"merce":2698,"aving":2699,"Ġsuppl":2700,"ĠAugust":2701,"Ġnamed":2702,"elf":2703,"elect":2704,"appro":2705,"Ġsum":2706,"Ġbase":2707,"Ġneeded":2708,"Ġcoffee":2709,"ĠMarket":2710,"Ġquest":2711,"side":2712,"ically":2713,"oration":2714,"very":2715,"ĠWestern":2716,"ĠFinancial":2717,"ĠUSDA":2718,"Ġpot":2719,"Ġareas":2720,"liament":2721,"ores":2722,"ĠState":2723,"Ġmaintain":2724,"ĠSystems":2725,"ĠGM":2726,"atural":2727,"Ġhowever":2728,"Ġbecome":2729,"raq":2730,"but":2731,"Ġhard":2732,"ĠCons":2733,"Ġkey":2734,"Ġstrike":2735,"ariffs":2736,"89":2737,"mit":2738,"anced":2739,"Ġpolitical":2740,"Ġseeking":2741,"cur":2742,"sp":2743,"Ġmorning":2744,"ĠPetroleum":2745,"ĠWe":2746,"39":2747,"ilities":2748,"Ġlatest":2749,"ĠMexic":2750,"ĠTrans":2751,"Ġcertific":2752,"ĠService":2753,"Ġwarrants":2754,"ux":2755,"Ġtakeover":2756,"Ġtomorrow":2757,"An":2758,"UL":2759,"have":2760,"ott":2761,"Ġadding":2762,"Inc":2763,"Ġdecided":2764,"Ġfarmers":2765,"Ġconsumer":2766,"Ġimpact":2767,"istance":2768,"ĠCentral":2769,"audi":2770,"ilar":2771,"ador":2772,"Ġgave":2773,").":2774,"Ġcase":2775,"ĠIN":2776,"Ġ56":2777,"after":2778,"back":2779,"Ġproposals":2780,"There":2781,"set":2782,"Ġur":2783,"outher":2784,"nes":2785,"Ġovers":2786,"Ġfav":2787,"terling":2788,"ĠMc":2789,"Ġslow":2790,"ication":2791,"Ġther":2792,"ducts":2793,"ney":2794,"Ġsaidit":2795,"oday":2796,"Ġministers":2797,"Ġrevised":2798,"Ġ---":2799,"82":2800,"Tr":2801,"ends":2802,"Ġ54":2803,"CO":2804,"were":2805,"Ġve":2806,"ath":2807,"ears":2808,"ĠLast":2809,"ĠGu":2810,"outhern":2811,"Com":2812,"arlier":2813,"Ġministry":2814,"BM":2815,"Ġrecomm":2816,"ĠCurren":2817,"Ġprim":2818,"iplom":2819,"sion":2820,"Ġdep":2821,"Ġresponse":2822,"wards":2823,"ĠFore":2824,"Ġdrug":2825,"Ġcars":2826,"last":2827,"thing":2828,"Ġproceeds":2829,"irmed":2830,"wide":2831,"ĠSome":2832,"Ġprospect":2833,"Ġrecover":2834,"Ġleading":2835,"Ġbroker":2836,"ysler":2837,"Ġincluded":2838,"Ġproblem":2839,"Ġbring":2840,"Ġreform":2841,"aced":2842,"Ġ1990":2843,"ĠEngland":2844,"February":2845,"actions":2846,"Ġtw":2847,"Ġincreasing":2848,"Ġkeep":2849,"Ġins":2850,"Ġvar":2851,"ival":2852,"Ġcuts":2853,"Ġsuccess":2854,"Air":2855,"ATT":2856,"Ġcapacity":2857,"ne":2858,"Ġprobably":2859,"Ġexisting":2860,"Ġrising":2861,"Ġsoybe":2862,"cker":2863,"Ġdespite":2864,"urobond":2865,"84":2866,"Ġaid":2867,"alers":2868,"Ġalthough":2869,"Ġcreditors":2870,"Ġlike":2871,"countr":2872,"akers":2873,"agreement":2874,"Ġmonetary":2875,"Ġreduction":2876,"ĠTexaco":2877,"ID":2878,"Ġ1984":2879,"ify":2880,"Ġholders":2881,"islation":2882,"idence":2883,"Ġreject":2884,"forman":2885,"ĠEnergy":2886,"ortgage":2887,"79":2888,"OL":2889,"ino":2890,"Ġlic":2891,"Ġcharge":2892,"Ġview":2893,"ocoa":2894,"Ġthep":2895,"Ġfield":2896,"ption":2897,"Ġrefin":2898,"Ġdirectors":2899,"600":2900,"tonn":2901,"ars":2902,"ĠSEC":2903,"ĠBundesbank":2904,"emicon":2905,"Ġbetter":2906,"Ġfiling":2907,"hel":2908,"leg":2909,"Ġstates":2910,"ĠĠĠĠĠĠĠĠĠĠĠ":2911,"Ġunchanged":2912,"emiconduct":2913,"MF":2914,"ĠIf":2915,"ource":2916,"ĠChairman":2917,"74":2918,"atch":2919,"Ġmarg":2920,"ĠCommittee":2921,"Ġsoft":2922,"ulative":2923,"ĠKore":2924,"Ġbelieve":2925,"ĠElectric":2926,"go":2927,"ane":2928,"Ġoun":2929,"ĠCapital":2930,"ĠĠĠĠĠĠĠĠĠĠ":2931,"Ġpayable":2932,"Ġdiffer":2933,"wait":2934,"Ġcred":2935,"Ġph":2936,"atin":2937,"atist":2938,"ivers":2939,"ĠHold":2940,"obert":2941,"Ġlimit":2942,"Ġstudy":2943,"expected":2944,"likely":2945,"ry":2946,"ening":2947,"Ġtore":2948,"ĠCalif":2949,"ĠSal":2950,"this":2951,"ĠMAY":2952,"olic":2953,"Ġending":2954,"Ġmainly":2955,"Ġflow":2956,"ĠPrime":2957,"road":2958,"Ġ43":2959,"ĠKong":2960,"Ġeconomists":2961,"Ġgrant":2962,"TC":2963,"includ":2964,"ering":2965,"arson":2966,"Ġenergy":2967,"ateral":2968,"Ġfood":2969,"que":2970,"ecomm":2971,"Ġplus":2972,"Ġexcludes":2973,"Ġsituation":2974,"formance":2975,"23":2976,"Ġstep":2977,"igation":2978,"Ġfigure":2979,"ĠPhilipp":2980,"Ex":2981,"Ġreach":2982,"ĠCit":2983,"against":2984,"operation":2985,"ĠMotors":2986,"Ġwon":2987,"ither":2988,"MC":2989,"Ġtem":2990,"Ġlb":2991,"urpos":2992,"Ġforthe":2993,"Ġstreng":2994,"ĠDevelopment":2995,"April":2996,"den":2997,"Ġdou":2998,"Ġnor":2999,"Ġable":3000,"Ġseries":3001,"Ġmov":3002,"Ġreason":3003,"ĠMorgan":3004,"Ġrepurchase":3005,"Ġrevenue":3006,"ĠAustralian":3007,"DP":3008,"Ġtook":3009,"Ġ66":3010,"Ġrestructuring":3011,"Ġcrit":3012,"Ġland":3013,"Ġagreements":3014,"itary":3015,"Ġincreases":3016,"ĠChicago":3017,"Ġpolicies":3018,"ĠLynch":3019,"Ġtra":3020,"Ġtaking":3021,"Ġagain":3022,"Ġparticular":3023,"400":3024,"800":3025,"Ġcop":3026,"Ġeas":3027,"ĠHong":3028,"Ġintervention":3029,"attle":3030,"Ġrules":3031,"iers":3032,"rate":3033,"Ġhous":3034,"ĠSup":3035,"ift":3036,"Ġestabl":3037,"This":3038,"craft":3039,"iet":3040,"ires":3041,"Ġforce":3042,"RA":3043,"high":3044,"ĠMal":3045,"ĠMich":3046,"rought":3047,"Ġ1992":3048,"Ġbroad":3049,"committee":3050,"reet":3051,"Ġ41":3052,"Ġclaim":3053,"Ġslightly":3054,"tributed":3055,"Ġruling":3056,"ĠWhite":3057,"iy":3058,"Ġred":3059,"Ġoffice":3060,"Ġstrate":3061,"CT":3062,"isis":3063,"ems":3064,"ĠStandard":3065,"Ġdisput":3066,"Ġdiscount":3067,"700":3068,"Ġahead":3069,"Ġresearch":3070,"Ġissuing":3071,"Ġsimilar":3072,"zer":3073,"arily":3074,"Ġdaily":3075,"irm":3076,"Ġwhol":3077,"Ġ400":3078,"ĠAnalysts":3079,"Ġattack":3080,"Ġretail":3081,"stitution":3082,"te":3083,"aries":3084,"Ġtothe":3085,"ĠTaiwan":3086,"Ġexch":3087,"ram":3088,"March":3089,"dollar":3090,"aring":3091,"Ġvis":3092,"Ġbilliondlrs":3093,"Ġlimited":3094,"Ġlisted":3095,"CH":3096,"Europe":3097,"ences":3098,"ĠPoor":3099,"ained":3100,"Ġseen":3101,"76":3102,"coura":3103,"Ġuns":3104,"Ġfind":3105,"Ġimmediately":3106,"illing":3107,"ĠCommerce":3108,"Ġdeleg":3109,"announ":3110,"Ġunderwriting":3111,"ĠBrothers":3112,"Ġextraordinary":3113,"fall":3114,"iber":3115,"Ġpoll":3116,"ĠWill":3117,"epend":3118,"ecessary":3119,"ST":3120,"omon":3121,"irc":3122,"Ġcommit":3123,"certain":3124,"Japanese":3125,"Ġcombined":3126,"West":3127,"Ġes":3128,"Ġsol":3129,"thern":3130,"Ġintent":3131,"Ġpurchases":3132,"Ġprincipal":3133,"ham":3134,"king":3135,"Ġinformation":3136,"iles":3137,"Ġreports":3138,"ĠMid":3139,"ĠPenn":3140,"ĠEd":3141,"Ġ64":3142,"prov":3143,"Ġsuit":3144,"ĠCont":3145,"three":3146,"Ġheavy":3147,"ipel":3148,"Ġoperation":3149,"crib":3150,"Ġpotential":3151,"ecommunications":3152,"04":3153,"Ġmater":3154,"ĠCourt":3155,"ĠSch":3156,"osp":3157,"iron":3158,"Ġdisclosed":3159,"ressed":3160,"Ġcarry":3161,"Ġquestion":3162,"'re":3163,"tered":3164,"Ġ99":3165,"Ġclass":3166,"ĠArgent":3167,"evision":3168,"alm":3169,"ĠMerrill":3170,"ulated":3171,"employ":3172,"Ġ69":3173,"Ġjob":3174,"06":3175,"Ġgener":3176,"ĠPe":3177,"opt":3178,"Ġresol":3179,"ĠForeign":3180,"83":3181,"had":3182,"idual":3183,"urb":3184,"ĠIraq":3185,"acc":3186,"ody":3187,"ops":3188,"Ġrisk":3189,"Ġdeposits":3190,"Ġinvolved":3191,"Co":3192,"aded":3193,"ĠSaudi":3194,"Al":3195,"ke":3196,"Ġinsurance":3197,"Ġhit":3198,"ĠCO":3199,"Ġcurrencies":3200,"ĠResources":3201,"ĠIs":3202,"ĠWall":3203,"Ġ67":3204,"Ġshareholder":3205,"Ġprem":3206,"ĠSte":3207,"Ġrather":3208,"ĠOFF":3209,"Ġgrowing":3210,"been":3211,"Ġsharp":3212,"ĠRepublic":3213,"lin":3214,"ories":3215,"Ġexerc":3216,"Ġtaxes":3217,"Ġnewsp":3218,"ĠIndones":3219,"Ġexpansion":3220,"Ġdro":3221,"ĠRich":3222,"ĠSun":3223,"Ġ250":3224,"1987":3225,"production":3226,"ĠtheU":3227,"Ġconstruction":3228,"berg":3229,"Ġinterview":3230,"istic":3231,"Ġ85":3232,"Ġadvis":3233,"21":3234,"Ġsom":3235,"ING":3236,"Ġconcern":3237,"EL":3238,"Oper":3239,"zuel":3240,"ster":3241,"ĠTotal":3242,"Ġcaused":3243,"bur":3244,"oon":3245,"two":3246,"Ġrede":3247,"ĠDutch":3248,"ĠIndustry":3249,"ĠGen":3250,"ĠGas":3251,"Ġdiscontinued":3252,"Ġleaders":3253,"stead":3254,"tonnes":3255,"Ġach":3256,"Ġdistribution":3257,"ĠComp":3258,"uesday":3259,"Ġquota":3260,"board":3261,"Ġpat":3262,"ĠPaul":3263,"ĠDel":3264,"ĠLaw":3265,"Ġpaying":3266,"ilders":3267,"investment":3268,"If":3269,"aut":3270,"business":3271,"Ġut":3272,"utures":3273,"sth":3274,"ĠMin":3275,"aging":3276,"Ġcommission":3277,"Ġoverall":3278,"Brit":3279,"New":3280,"aster":3281,"ĠIm":3282,"Ġcompl":3283,"Ġvers":3284,"Ġ68":3285,"anging":3286,"Ġquotas":3287,"prices":3288,"ĠAustralia":3289,"ĠAfrica":3290,"atistics":3291,"ool":3292,"Ġtons":3293,"ĠFl":3294,"Ġ53":3295,"profit":3296,"Ġsharply":3297,"oe":3298,"Ġsent":3299,"Ġstabil":3300,"Ġalmost":3301,"rown":3302,"Ġlaws":3303,"Ġlegislation":3304,"Ġcustomers":3305,"Ġhar":3306,"Ġproduce":3307,"Ġsettlement":3308,"January":3309,"UR":3310,"Ġfound":3311,"Ġdiplom":3312,"Ġ95":3313,"Ġprep":3314,"Ġautom":3315,"Ġdeposit":3316,"ĠMexico":3317,"Ġcredits":3318,"TH":3319,"Ġnight":3320,"Ġexper":3321,"ĠNo":3322,"ored":3323,"ounter":3324,"trade":3325,"Ġenough":3326,"Ġcontinuing":3327,"ĠMonetary":3328,"isf":3329,"ental":3330,"ĠOther":3331,"foreign":3332,"ĠAll":3333,"Ġextended":3334,"Ġturnover":3335,"PC":3336,"Ġton":3337,"ĠRobert":3338,"ĠEast":3339,"bert":3340,"grams":3341,"Ġattempt":3342,"enezuel":3343,"Ġsuggest":3344,"Ġpartnership":3345,"Ġcertificates":3346,"Ġsession":3347,"Ġwid":3348,"Ġdil":3349,"Ġnation":3350,"Ġyou":3351,"Ġcrisis":3352,"........":3353,"cuador":3354,"rep":3355,"eng":3356,"Ġpurpos":3357,"Ġfr":3358,"Ġvote":3359,"Ġexcess":3360,"Ġraising":3361,"Ġprovided":3362,"Ġrespectively":3363,"49":3364,"icro":3365,"Ġthreat":3366,"panies":3367,"Ġ1989":3368,"argo":3369,"Ġdeveloping":3370,"Ġdelay":3371,"embour":3372,"ominations":3373,"Ġprotection":3374,"Ġdelivery":3375,"ĠVolcker":3376,"uxembour":3377,"sup":3378,"ways":3379,"Ġsat":3380,"than":3381,"oston":3382,"Ġproducer":3383,"enses":3384,"ornia":3385,"ĠLoan":3386,"OT":3387,"ingap":3388,"aders":3389,"ancing":3390,"rend":3391,"Ġachie":3392,"Re":3393,"ĠBanc":3394,"Ġinvestor":3395,"awa":3396,"Ġdollars":3397,"version":3398,"Ġestimates":3399,"ĠIranian":3400,"bet":3401,"Ġche":3402,"ĠMoody":3403,"Ġjoin":3404,"Ġefforts":3405,"ĠChrysler":3406,"uxembourg":3407,"ingapore":3408,"Ġnorm":3409,"ĠBel":3410,"Ġleft":3411,"look":3412,"Ġremaining":3413,"stitute":3414,"Ġparticip":3415,"Ġredeem":3416,"46":3417,"dlr":3418,"oid":3419,"well":3420,"alt":3421,"oman":3422,"ĠHar":3423,"while":3424,"Ġcharges":3425,"call":3426,"urers":3427,"ĠBar":3428,"ands":3429,"abour":3430,"Ġinterests":3431,"ĠCompany":3432,"Ġbuffer":3433,"Ġoffers":3434,"Ġbrokers":3435,"Ġliquidity":3436,"ruptcy":3437,"draw":3438,"Ġlost":3439,"Ġstaff":3440,"Ġshipp":3441,"tration":3442,"Ġweak":3443,"Ġtermin":3444,"ynd":3445,"Ġserious":3446,"Ġgreater":3447,"Brazil":3448,"General":3449,"hic":3450,"ality":3451,"ĠDav":3452,"ividual":3453,"ourse":3454,"Ġ125":3455,"Ġmiles":3456,"atively":3457,"ison":3458,"Ġemer":3459,"ĠTer":3460,"ĠSm":3461,"ĠEarlier":3462,"Ġspecific":3463,"Ġremains":3464,"contract":3465,"west":3466,"ĠInsurance":3467,"ĠLou":3468,"Ġencoura":3469,"Ġannouncement":3470,"Ġinstitutions":3471,".-":3472,"cas":3473,"Ġsterling":3474,"Ġoc":3475,"Ġmiss":3476,"Ġeurobond":3477,"ĠCity":3478,"ĠMed":3479,"ĠGovernment":3480,"Ġ58":3481,"Ġproduced":3482,"Ġbook":3483,"Ġaccounts":3484,"Ġbusinesses":3485,"Ġtransactions":3486,"Ġestimate":3487,"Ġimproved":3488,"markets":3489,"Se":3490,"lant":3491,"Ġpubl":3492,"icted":3493,"ocial":3494,"Ġelectron":3495,"Commission":3496,"Ġtempor":3497,"men":3498,"Ġcame":3499,"urt":3500,"ully":3501,"Ġrequired":3502,"Ġopened":3503,"Ġaimed":3504,"Ġnatural":3505,"ĠBanking":3506,"Ġstruct":3507,"Ġemployees":3508,"ĠMotor":3509,"Ġclosing":3510,"Ġengine":3511,"Ġtechnology":3512,"Ġinc":3513,"ilateral":3514,"Ġlonger":3515,"Ġbeginning":3516,"Ġfailed":3517,"uwait":3518,"asone":3519,"ĠAb":3520,"ung":3521,"akasone":3522,"Ġtrust":3523,"Ġchanged":3524,"Ġ101":3525,"ĠShearson":3526,"Ġmedium":3527,"56":3528,"eut":3529,"Ġwor":3530,"ilt":3531,"eting":3532,"Ġevery":3533,"ĠTuesday":3534,"ills":3535,"Ġ59":3536,"they":3537,"ensive":3538,"increase":3539,"Ġoverseas":3540,"May":3541,"PA":3542,"ao":3543,"iring":3544,"price":3545,"because":3546,"ĠPre":3547,"Ġconcess":3548,"ĠGe":3549,"Ġagricultural":3550,"Ġperformance":3551,"Ġknow":3552,"Ġrestrict":3553,"Canada":3554,"ĠKorea":3555,"72":3556,"uted":3557,"Ġonthe":3558,"ĠPer":3559,"Ġaltern":3560,"Ġsepar":3561,"ĠBrazilian":3562,"bit":3563,"nown":3564,"Ġaward":3565,"Ġsource":3566,"Ġpercent":3567,"Ġcompar":3568,"ĠDealers":3569,"Ġnetwork":3570,"Ġnearly":3571,"ĠEconomic":3572,"capital":3573,"more":3574,"ĠCouncil":3575,"Ġalong":3576,"Ġdesigned":3577,"Ġstarted":3578,"Ġmanufacturing":3579,"BC":3580,"US":3581,"Ġparent":3582,"Ġbus":3583,"ĠAut":3584,"banks":3585,"operations":3586,"Ġsteel":3587,"Ġaffected":3588,"eries":3589,"ĠtheS":3590,"ĠDlrs":3591,"agn":3592,"Ġ61":3593,"ĠStreet":3594,"Ġparty":3595,"Ġowns":3596,"Ġrelated":3597,"ĠWilliam":3598,"Ġsavings":3599,"arrow":3600,"Ġfeed":3601,"mental":3602,"Ġmajority":3603,"Ġmatur":3604,"Ġintroduced":3605,"ĠItaly":3606,"Ġpremium":3607,"iro":3608,"Ġcited":3609,"Ġinst":3610,"urk":3611,"Ġprogress":3612,"ĠProdu":3613,"ĠIMF":3614,"ĠBoston":3615,"endit":3616,"forms":3617,"sidiary":3618,"anger":3619,"Ġopposition":3620,"orporation":3621,"ipeline":3622,"En":3623,"Ġothers":3624,"Ġlight":3625,"ĠCy":3626,"Ġexceed":3627,"Ġcalls":3628,"Ġallowed":3629,"Ġimportant":3630,"Ġactivity":3631,"96":3632,"Ġfully":3633,"Ġmult":3634,"Ġlink":3635,"plan":3636,"Ġreserve":3637,"But":3638,"ded":3639,"requ":3640,"Ġbeh":3641,"raph":3642,"ulate":3643,"ĠGr":3644,"They":3645,"Ġprevent":3646,"cording":3647,"ĠInvestors":3648,"Ġshipments":3649,"debt":3650,"right":3651,"Ġpound":3652,"Ġstability":3653,"imately":3654,"Ġ600":3655,"complet":3656,"Ġopening":3657,"Ġrejected":3658,"81":3659,"SR":3660,"mitted":3661,"ĠGre":3662,"ĠWed":3663,"Ġcompetition":3664,"Ġnewspaper":3665,"Fin":3666,"TS":3667,"pe":3668,"org":3669,"Ġhouse":3670,"Ġdeclared":3671,"Ġneeds":3672,"Ġobtain":3673,"Ġpersonal":3674,"olidated":3675,"Ġtotalled":3676,"Ġdropped":3677,"IS":3678,"Ġident":3679,"Ġbest":3680,"iding":3681,"eter":3682,"vey":3683,"ĠDEC":3684,"ubber":3685,"disclosed":3686,"economic":3687,"ĠMalays":3688,"iaries":3689,"ony":3690,"illed":3691,"ĠSan":3692,"Ġprime":3693,"Ġquarterly":3694,"Ġblock":3695,"onald":3696,"Ġactivities":3697,"viron":3698,"Ġtariffs":3699,"ask":3700,"uts":3701,"ĠIBM":3702,"Ġprograms":3703,"ards":3704,"years":3705,"Ġcannot":3706,"Ġdeterm":3707,"ĠServices":3708,"Ġviol":3709,"Ġrecommend":3710,"Ġprepared":3711,"lig":3712,"rest":3713,"level":3714,"lying":3715,"enders":3716,"Ġoutside":3717,"Ġmilitary":3718,"Ġrespons":3719,"51":3720,"CA":3721,"National":3722,"Ġtechn":3723,"Ġformed":3724,"ĠMe":3725,"ĠDome":3726,"Ġ72":3727,"ranch":3728,"Ġprojects":3729,"Ġbelieved":3730,"Ġprotect":3731,"Ġelectric":3732,"Ġeffort":3733,"ependent":3734,"LC":3735,"RE":3736,"Ġtrend":3737,"Ġsecurity":3738,"rex":3739,"Ġmax":3740,"ĠDiv":3741,"December":3742,"ĠHoldings":3743,"ĠSalomon":3744,"president":3745,"Ġretal":3746,"Ġretain":3747,"Ġhim":3748,"Ġminimum":3749,"54":3750,"BT":3751,"gl":3752,"grow":3753,"night":3754,"Ġgross":3755,"close":3756,"Ġ62":3757,"Ġfalling":3758,"ealand":3759,"Ġguaranteed":3760,"Ġbreak":3761,"900":3762,"Tex":3763,"Ġtos":3764,"Ġdraw":3765,"Ġlife":3766,"Ġreli":3767,"Ġnecessary":3768,"Ġstores":3769,"Ġorgan":3770,"prise":3771,"can":3772,"Ġwer":3773,"Ġlines":3774,"ĠSix":3775,"Ġcoming":3776,"Ġhealth":3777,"Ġusing":3778,"Ġowners":3779,"Ġfactor":3780,"Ġhouses":3781,"73":3782,"Ġinvent":3783,"Ġhours":3784,"Ġstop":3785,"ternal":3786,"Ġrole":3787,"Ġfactors":3788,"nesday":3789,"fol":3790,"Ġct":3791,"Ġcocoa":3792,"Ġface":3793,"ades":3794,"common":3795,"Ġ92":3796,"airs":3797,"ĠThat":3798,"mont":3799,"previous":3800,"shareholders":3801,"Ġsubstantial":3802,"between":3803,"OS":3804,"ael":3805,"ilver":3806,"ĠBankers":3807,"Ġindicated":3808,"Ġreleased":3809,"ky":3810,"Ġmine":3811,"ĠEqu":3812,"exchange":3813,"consider":3814,"ailed":3815,"Ġoperate":3816,"Ġprovisions":3817,"ĠAdministration":3818,"iminary":3819,"UG":3820,"ding":3821,"fund":3822,"ana":3823,"atur":3824,"Ġandthe":3825,"Ġeither":3826,"otton":3827,"Ġ76":3828,"Ġsoybean":3829,"South":3830,"Ġide":3831,"Ġsays":3832,"ĠFood":3833,"Ġ120":3834,"ĠExpress":3835,"Ġbelieves":3836,"Ġexploration":3837,"ĠSEP":3838,"Ġdoub":3839,"credit":3840,"hib":3841,"time":3842,"woman":3843,"ston":3844,"ĠPower":3845,"umin":3846,"elling":3847,"Ġcomputers":3848,"Ġguilders":3849,"ĠAirlines":3850,"Ġgranted":3851,"Ġvisit":3852,"ĠIndonesia":3853,"ze":3854,"Ġte":3855,"Ġtimes":3856,"rec":3857,"itor":3858,"Ġcirc":3859,"Ġpract":3860,"ĠSant":3861,"urned":3862,"ĠLuxembourg":3863,"agreed":3864,"Ġ96":3865,"Ġinvestments":3866,"gether":3867,"uclear":3868,"Ġarrange":3869,"Ġsupplies":3870,"ivalent":3871,"Ġdifferent":3872,"President":3873,"dam":3874,"rug":3875,"ĠEcuador":3876,"clus":3877,"Ġround":3878,"Ġplants":3879,"Ġmanagers":3880,"ĠUNTR":3881,"ĠParty":3882,"ĠCalifornia":3883,"ĠUNTRD":3884,"dle":3885,"uk":3886,"vis":3887,"Ġreb":3888,"Ġrating":3889,"eech":3890,"umulative":3891,"ported":3892,"ugar":3893,"Ġ800":3894,"Ġ145":3895,"Ġacquisitions":3896,"Ġconsidering":3897,"emiconductor":3898,"ĠArgentina":3899,"71":3900,"Ph":3901,"icorp":3902,"Ġdefin":3903,"ĠFord":3904,"Ġconn":3905,"Ġunless":3906,"Ġhesaid":3907,"amily":3908,"Ġearned":3909,"ternoon":3910,"Ġmonthly":3911,"Ġoffset":3912,"Ġcompetitive":3913,"emption":3914,"enezuela":3915,"ĠDavid":3916,"could":3917,"ination":3918,"Ġinf":3919,"ĠChemical":3920,"ĠSc":3921,"Ġundisclosed":3922,"arks":3923,"Ġtry":3924,"Ġ63":3925,"ĠKuwait":3926,"Ġremained":3927,"Ġmeasure":3928,"Ġanticip":3929,"Ġvehic":3930,"ED":3931,"din":3932,"hman":3933,"ker":3934,"Ġed":3935,"iling":3936,"ĠNakasone":3937,"ĠGATT":3938,"trans":3939,"oyd":3940,"1985":3941,"Ġpurchased":3942,"Ġrelations":3943,"Ġaircraft":3944,"Ġlegal":3945,"WA":3946,"uction":3947,"Ġ...":3948,"ingle":3949,"Ġstim":3950,"ains":3951,"Ġquick":3952,"Ġregion":3953,"Ġconsidered":3954,"ĠAPRIL":3955,"ĠComputer":3956,"SA":3957,"gu":3958,"Ġhome":3959,"ĠMet":3960,"Ġ700":3961,"Ġmean":3962,"Ġdispute":3963,"bro":3964,"Ġmortgage":3965,"through":3966,"Ġnote":3967,"lands":3968,"pecially":3969,"Ġregulatory":3970,"Ġdiluted":3971,"yesterday":3972,"Ġce":3973,"Ġpos":3974,"ows":3975,"ĠLatin":3976,"ags":3977,"prises":3978,"Ġaccess":3979,"Ġholds":3980,"financial":3981,"Ġstarting":3982,"Ġimplement":3983,"IDS":3984,"Ġsoftware":3985,"Ass":3986,"Ġtro":3987,"ĠĠĠĠĠĠĠĠĠĠĠĠ":3988,"ishing":3989,"Ġindustries":3990,"Ġcoal":3991,"ĠInvestment":3992,"Ġparticularly":3993,"Ġpurposes":3994,"Ltd":3995,"rated":3996,"ule":3997,"adjust":3998,"ĠDec":3999,"Ġalle":4000,"ĠZealand":4001,"Ġtelevision":4002,"ĠQu":4003,"Ġwanted":4004,"Ġbuilding":4005,"ĠOffice":4006,"Ġentered":4007,"Ġproperty":4008,"Ġlaunched":4009,"Ġfee":4010,"ĠRoy":4011,"iger":4012,"Ġ73":4013,"aps":4014,"Ġfollowed":4015,"Ġparliament":4016,"Ġsteady":4017,"Ġlaunch":4018,"Ġgovernments":4019,"announced":4020,"Ġpercentage":4021,"into":4022,"Ġpes":4023,"astern":4024,"Ġlot":4025,"Ġevent":4026,"Ġstand":4027,"Ġconversion":4028,"aining":4029,"Ġunlikely":4030,"position":4031,"ĠUSAir":4032,"ĠArabia":4033,"Ġprimary":4034,"European":4035,"ĠRichard":4036,"MS":4037,"zoil":4038,"Ġchemical":4039,"Ġwater":4040,"Ġconduct":4041,"Ġrad":4042,"ĠDen":4043,"Ġassoci":4044,"Ġfacilities":4045,"Ġfeet":4046,"ĠOrgan":4047,"BB":4048,"disc":4049,"Ġinstead":4050,"Ġgiving":4051,"Ġpricing":4052,"Ġgroups":4053,"lobal":4054,"Ġsubsidies":4055,"Ġoptim":4056,"Ġactive":4057,"Ġavoid":4058,"Ġdenominations":4059,"countries":4060,"AD":4061,"Fr":4062,"bus":4063,"gies":4064,"point":4065,"yl":4066,"rew":4067,"Ġcargo":4068,"veraged":4069,"Ġdebts":4070,"Ġsuper":4071,"Ġindividual":4072,"Ġholdings":4073,"Ġaffil":4074,"Ġpredicted":4075,"Ġmargin":4076,"aize":4077,"div":4078,"uz":4079,"read":4080,"Ġcol":4081,"aro":4082,"ĠWith":4083,"Ġkil":4084,"Ġattract":4085,"ĠAsked":4086,"Ġconsumers":4087,"America":4088,"Ġlooking":4089,"made":4090,"Ġfuel":4091,"Ġren":4092,"Ġhapp":4093,"ĠBell":4094,"Ġshipment":4095,"Ġbythe":4096,"outstanding":4097,"ĠBanks":4098,"ĠAlli":4099,"ĠWhile":4100,"ĠPartners":4101,"industry":4102,"Ġstrategy":4103,"callable":4104,"aus":4105,"opp":4106,"Ġtight":4107,"Ġsaw":4108,"Ġpan":4109,"ention":4110,"Ġitself":4111,"Ġrum":4112,"ification":4113,"Ġrap":4114,"Ġtransfer":4115,"Ġauthorities":4116,"Ġwarrant":4117,"Ġimprovement":4118,"rexel":4119,"98":4120,"ians":4121,"ature":4122,"Ġmach":4123,"ĠMont":4124,"ota":4125,"Ġeconomist":4126,"shore":4127,"Ġequal":4128,"ĠEnter":4129,"ursday":4130,"Ġwholly":4131,"Ġharvest":4132,"ĠWednesday":4133,"First":4134,"long":4135,"tel":4136,"onus":4137,"ĠHome":4138,"Ġagriculture":4139,"ĠIncsaid":4140,"Ġreschedu":4141,"Ġ94":4142,"ĠPhilippines":4143,"employment":4144,"Ġnormal":4145,"eutter":4146,"third":4147,"Ġrig":4148,"program":4149,"Ġmeans":4150,"Ġasset":4151,"including":4152,"cribed":4153,"NP":4154,"Ġtreat":4155,"Ġwants":4156,"Ġrenew":4157,"Ġgreat":4158,"Ġwilling":4159,"Ġcommodity":4160,"Ġknown":4161,"Ġparts":4162,"Ġratio":4163,"organization":4164,"Ġborrowing":4165,"olicy":4166,"MA":4167,"Pr":4168,"erate":4169,"Ġbull":4170,"Ġwage":4171,"Ġmakes":4172,"Ġ98":4173,"Ġoutlook":4174,"Ġpartly":4175,"Ġmeetings":4176,"Ġweather":4177,"Ġexpendit":4178,"ufacturing":4179,"Ġconsumption":4180,"compet":4181,"Ġdiscussions":4182,"Ġrequirements":4183,"Ġclaims":4184,"ĠTerms":4185,"93":4186,"ault":4187,"Ġneg":4188,"Ġnomin":4189,"ĠIts":4190,"Ġashare":4191,"ĠJUN":4192,"rowns":4193,"Ġaccounting":4194,"abilities":4195,"Ġapplication":4196,"current":4197,"Ġounces":4198,"yndic":4199,"casts":4200,"oice":4201,"yd":4202,"rece":4203,"ĠSA":4204,"ĠMAR":4205,"ĠBl":4206,"Ġwithdraw":4207,"ancell":4208,"istrict":4209,"Ġopport":4210,"Ġintends":4211,"Ġperiods":4212,"Ġtelephone":4213,"Ġauthorized":4214,"ĠOfficials":4215,"Ġelection":4216,"Ġrecovery":4217,"07":4218,"Ag":4219,"del":4220,"world":4221,"Ġaway":4222,"Ġcoll":4223,"Ġpres":4224,"Ġfair":4225,"utton":4226,"ĠST":4227,"ĠBusiness":4228,"ĠFeb":4229,"ĠInstitute":4230,"management":4231,"Ġproducing":4232,"Ġspokeswoman":4233,"Ġestate":4234,"Ġfollows":4235,"ĠAgency":4236,"Ġlargely":4237,"United":4238,"held":4239,"rect":4240,"any":4241,"ĠSum":4242,"odities":4243,"Ġ93":4244,"flation":4245,"official":4246,"Canadian":4247,"Ġmoves":4248,"Ġmaximum":4249,"eaking":4250,"international":4251,"inental":4252,"eration":4253,"Ġthegovernment":4254,"osl":4255,"Ġexporters":4256,"ĠJe":4257,"ĠJan":4258,"Ġplaced":4259,"ugosl":4260,"Ġspot":4261,"Ġquality":4262,"Ġjud":4263,"Ġcreditor":4264,"control":4265,"Ġaccepted":4266,"acquisition":4267,"Ġsuspended":4268,"Ġlbs":4269,"Ġcopper":4270,"British":4271,"Ġawarded":4272,"--":4273,"lined":4274,"Ġthec":4275,"ĠSingapore":4276,"ĠEm":4277,"achs":4278,"Ġconsult":4279,"Ġpossibility":4280,"Ġcovering":4281,"Ġprospects":4282,"ym":4283,"Ġdut":4284,"Ġsaidthe":4285,"ĠJUL":4286,"sequ":4287,"Ġ74":4288,"Ġ97":4289,"ounty":4290,"ĠManagement":4291,"Ġobject":4292,"Wh":4293,"uge":4294,"Ġbrought":4295,"Ġinstitution":4296,"econd":4297,"coming":4298,"Ġspeech":4299,"Ġprel":4300,"ervative":4301,"Ġdealer":4302,"Ġsurvey":4303,"Ġdesign":4304,"Standard":4305,"compared":4306,"Ġunderwriters":4307,"Ġposted":4308,"Ġurged":4309,"ĠCurrent":4310,"ox":4311,"Ġtank":4312,"oron":4313,"Ġcouncil":4314,"Ġpush":4315,"Ġfoc":4316,"Ġmot":4317,"Ġstandard":4318,"impro":4319,"ocu":4320,"ĠDan":4321,"Ġwhose":4322,"ereg":4323,"emand":4324,"Ġtrying":4325,"ĠDef":4326,"Ġamounts":4327,"ĠAfter":4328,"Ġexchanges":4329,"bl":4330,"anley":4331,"Ġcause":4332,"Ġpipeline":4333,"Ġwinter":4334,"ute":4335,"Ġhaving":4336,"ille":4337,"Ġproceed":4338,"Ġ1983":4339,"place":4340,"Ġacres":4341,"Ġassum":4342,"Ġairline":4343,"underwrit":4344,"Ġprinciple":4345,"payments":4346,"Ġregistration":4347,"Ġbiggest":4348,"ĠBelg":4349,"Ar":4350,"inion":4351,"Ġsingle":4352,"encies":4353,"trading":4354,"alling":4355,"ĠCommodity":4356,"okesman":4357,"Ġdeveloped":4358,"Ġconcession":4359,"ugoslav":4360,"AP":4361,"Austral":4362,"called":4363,"ĠX":4364,"Ġtim":4365,"ert":4366,"Ġpending":4367,"osing":4368,"ĠThese":4369,"ĠPort":4370,"ĠPLC":4371,"due":4372,"agu":4373,"ager":4374,"Ġplay":4375,"commercial":4376,"companies":4377,"Ġweekly":4378,"Ġ130":4379,"Ġleader":4380,"Ġreflected":4381,"Ġreplace":4382,"Ġvoting":4383,"date":4384,"iency":4385,"inet":4386,"Ġreforms":4387,"Ġnarrow":4388,"ĠMos":4389,"ossible":4390,"ĠAlthough":4391,"Ġsubsidiaries":4392,"annual":4393,"Ġprojected":4394,"ĠSmith":4395,"Ġtemporary":4396,"Ġpreliminary":4397,"97":4398,"Moody":4399,"Ġz":4400,"Ġtreasury":4401,"Ġsize":4402,"Ġmo":4403,"ros":4404,"Ġithas":4405,"ĠSecurity":4406,"there":4407,"Ġability":4408,"Ġspread":4409,"available":4410,"ideo":4411,"Ġentire":4412,"Ġcomplete":4413,"Ġpositions":4414,"ĠDemocratic":4415,"Ġbrokerage":4416,"Ġcritic":4417,"ĠMichael":4418,"Ġsatisf":4419,"62":4420,"eared":4421,"loyd":4422,"ximately":4423,"heat":4424,"Ġcounter":4425,"Ġlack":4426,"ĠCoffee":4427,"ĠRo":4428,"Ġbeef":4429,"Ġvir":4430,"ĠPublic":4431,"ĠData":4432,"Ġcommun":4433,"Ind":4434,"ollowing":4435,"Ġexpenses":4436,"Ġdeter":4437,"Ġdividends":4438,"Ġelimin":4439,"ĠArab":4440,"burg":4441,"br":4442,"Ġsche":4443,"ĠSachs":4444,"unt":4445,"Ġexcept":4446,"ĠFutures":4447,"Ġrated":4448,"Ġuncertain":4449,"Ġnewly":4450,"Ġtotaled":4451,"ĠIndustrial":4452,"Ġversus":4453,"miss":4454,"enger":4455,"orge":4456,"Ġtowards":4457,"Ġhav":4458,"ĠAIDS":4459,"products":4460,"ystems":4461,"Ġhope":4462,"ĠLehman":4463,"Ġimmediate":4464,"Ġrespond":4465,"Sw":4466,"field":4467,"serv":4468,"order":4469,"lead":4470,"imb":4471,"ĠFranc":4472,"Ġwillbe":4473,"aine":4474,"ĠDrexel":4475,"Ġbuyers":4476,"Ġspeculation":4477,"ĠProceeds":4478,"dr":4479,"ique":4480,"pin":4481,"today":4482,"when":4483,"inese":4484,"Ġtheb":4485,"Ġev":4486,"estim":4487,"Ġwiththe":4488,"Ġbankruptcy":4489,"Ġabs":4490,"Ġsuffer":4491,"ĠAgreement":4492,"Ġcompletion":4493,"Ġpossib":4494,"Ġcontrols":4495,"Ġseasonally":4496,"Ġshipping":4497,"91":4498,"BS":4499,"uit":4500,"ĠCa":4501,"Ġforces":4502,"unaro":4503,"using":4504,"ĠWar":4505,"Ġ71":4506,"ipt":4507,"ĠĠĠĠĠĠĠĠĠĠĠĠĠ":4508,"ĠNews":4509,"Ġreducing":4510,"Ġbasic":4511,"ippon":4512,"grade":4513,"Ġvarious":4514,"Ġsuccessful":4515,"yers":4516,"Ġcare":4517,"Ġbonus":4518,"ĠTo":4519,"Ġships":4520,"Ġwhole":4521,"minus":4522,"ampa":4523,"Ġfailure":4524,"ĠLawson":4525,"LE":4526,"ĠApp":4527,"Ġforced":4528,"chairman":4529,"ĠNon":4530,"Ġ1980":4531,"endar":4532,"ĠHutton":4533,"Ġparties":4534,"Ġ140":4535,"ointed":4536,"Ġarms":4537,"develop":4538,"Ġprivately":4539,"ĠAssoci":4540,"Ġoblig":4541,"statement":4542,"Ġcalc":4543,"42":4544,"effect":4545,"itch":4546,"orts":4547,"orage":4548,"ida":4549,"Ġdest":4550,"ĠTurk":4551,"earnings":4552,"ĠLife":4553,"isted":4554,"Ġ86":4555,"propos":4556,"Ġregular":4557,"Ġvalued":4558,"Ġcrops":4559,"Ġproperties":4560,"Ġdelegates":4561,"02":4562,"GE":4563,"June":4564,"OP":4565,"ole":4566,"Ġwait":4567,"Ġdone":4568,"ilson":4569,"ĠBe":4570,"mann":4571,"Ġ77":4572,"Ġdistribut":4573,"Ġtradition":4574,"Ġnorthern":4575,"iyaz":4576,"Ġespecially":4577,"Ġbushel":4578,"Ġty":4579,"Ġtext":4580,"Ġwent":4581,"oward":4582,"ĠDou":4583,"Ġunf":4584,"period":4585,"Ġlastyear":4586,"Ġ110":4587,"ĠVW":4588,"ĠTrading":4589,"Ġtransport":4590,"Ġdamage":4591,"Ġbenefits":4592,"Ġoccur":4593,"lantic":4594,"cow":4595,"group":4596,"run":4597,"Ġtogether":4598,"iled":4599,"omb":4600,"ĠIll":4601,"ĠPC":4602,"ĠFarm":4603,"Ġrule":4604,"aint":4605,"ivate":4606,"wood":4607,"Ġ87":4608,"Ġweekend":4609,"Ġassistance":4610,"ĠThursday":4611,"Ġequivalent":4612,"Ġgenerally":4613,"Ġconcerned":4614,"Ġrepayment":4615,"Ġpositive":4616,"ience":4617,"oot":4618,"Ġcurb":4619,"idel":4620,"ĠCL":4621,"Ġthough":4622,"elt":4623,"resh":4624,"Ġissu":4625,"ĠAfrican":4626,"Ġcommitment":4627,"completed":4628,"OW":4629,"Ġground":4630,"ĠPR":4631,"Ġals":4632,"Ġresources":4633,"iana":4634,"Ġexpectations":4635,"ĠYeutter":4636,"Ġbrief":4637,"01":4638,"52":4639,"mission":4640,"turn":4641,"iting":4642,"Ġcrowns":4643,"ĠCF":4644,"Ġstable":4645,"Ġ91":4646,"Ġafternoon":4647,"Ġworldwide":4648,"increased":4649,"Exchange":4650,"Ġseparate":4651,"53":4652,"Treasury":4653,"UM":4654,"cost":4655,"hod":4656,"hest":4657,"espite":4658,"ently":4659,"ĠMart":4660,"ĠBa":4661,"seed":4662,"beral":4663,"Ġ83":4664,"ĠCoast":4665,"ĠFrank":4666,"ĠResearch":4667,"Ġrelatively":4668,"Ġnegotiating":4669,"Ġconfidence":4670,"Ġstrength":4671,"43":4672,"Federal":4673,"sw":4674,"sthe":4675,"ĠMac":4676,"Ġexecut":4677,"ĠFunaro":4678,"convert":4679,"ortium":4680,"ECD":4681,"months":4682,"OND":4683,"echnologies":4684,"Ġprompt":4685,"Ġoriginal":4686,"Ġrapid":4687,"61":4688,"AC":4689,"As":4690,"aft":4691,"here":4692,"Ġsouthern":4693,"ĠCr":4694,"Ġdead":4695,"umer":4696,"Ġthisyear":4697,"Ġindependent":4698,"puty":4699,"Ġextend":4700,"related":4701,"ĠAsia":4702,"Ġlimits":4703,"ĠPennzoil":4704,"five":4705,"non":4706,"yen":4707,"Ġpurs":4708,"Ġmaize":4709,"Ġinstru":4710,"ĠPric":4711,"ĠEuro":4712,"clops":4713,"ureau":4714,"ĠExports":4715,"ĠShare":4716,"Ġrises":4717,"ĠSpain":4718,"Ġhopes":4719,"Ġoriginally":4720,"glas":4721,"OC":4722,"house":4723,"sc":4724,"tic":4725,"redu":4726,"Ġcumulative":4727,"around":4728,"Ġwestern":4729,"Ġ1982":4730,"allow":4731,"Ġresigned":4732,"ĠStanley":4733,"Ġtrader":4734,"Ġforecasts":4735,"Ġmining":4736,"Ġadjustment":4737,"officials":4738,"Ġanti":4739,"Ġcharged":4740,"Ġsummer":4741,"Ġstructure":4742,"Ġtechnical":4743,"oronto":4744,"Man":4745,"MAY":4746,"gic":4747,"gency":4748,"loss":4749,"Ġsought":4750,"ĠBudget":4751,"Ġexpos":4752,"ĠGl":4753,"force":4754,"ĠStatistics":4755,"Ġdrilling":4756,"fficient":4757,"ĠSwed":4758,"Ġfloor":4759,"Ġstrengthe":4760,"Ġelectronic":4761,"eing":4762,"Ġsyndic":4763,"Ġfra":4764,"oline":4765,"Ġrice":4766,"Ġtruck":4767,"Ġmerch":4768,"Ġhelped":4769,"Ġexercise":4770,"ĠRoyal":4771,"Col":4772,"erated":4773,"Ġtobe":4774,"Ġdocu":4775,"oment":4776,"ĠAA":4777,"Ġforward":4778,"Ġglobal":4779,"ĠFull":4780,"ughes":4781,"Ġ82":4782,"Ġoils":4783,"ĠCommunications":4784,"Ġrail":4785,"ronics":4786,"currency":4787,"Ġvoted":4788,"AF":4789,"Sh":4790,"ered":4791,"ita":4792,"ica":4793,"ĠAct":4794,"Ġonce":4795,"Ġvia":4796,"ĠMost":4797,"ĠBP":4798,"race":4799,"ĠNov":4800,"ables":4801,"Ġ78":4802,"Ġcompon":4803,"Ġcontinues":4804,"Ġ1997":4805,"meeting":4806,"Ġprocessing":4807,"Ġsubstantially":4808,"Ġdepend":4809,"Ġmaterials":4810,"iyazawa":4811,"gel":4812,"iment":4813,"ming":4814,"Ġactions":4815,"Ġauction":4816,"ario":4817,"Ġbags":4818,"asing":4819,"Ġ79":4820,"Ġopinion":4821,"verse":4822,"Ġcooper":4823,"Ġsupported":4824,"Ġrepresenting":4825,"Ġconfident":4826,"Ġrelease":4827,"Ġpublished":4828,"Ġrescheduling":4829,".)":4830,"At":4831,"ara":4832,"Ġofs":4833,"ura":4834,"Ġstat":4835,"ĠBu":4836,"ĠNY":4837,"ĠLabour":4838,"umb":4839,"Ġabroad":4840,"uster":4841,"Ġpretax":4842,"Ġdivers":4843,"Ġ04":4844,"ĠExport":4845,"Industr":4846,"aceut":4847,"armaceut":4848,"irector":4849,"China":4850,"September":4851,"Ġcomparable":4852,"Ġquickly":4853,"bass":4854,"gment":4855,"real":4856,"Ġflex":4857,"Ġofits":4858,"Ġhuge":4859,"ĠATT":4860,"urer":4861,"anda":4862,"Ġremarks":4863,"orporate":4864,"inois":4865,"ĠSteel":4866,"Ġrestrictions":4867,"58":4868,"HE":4869,"Pro":4870,"Tel":4871,"iac":4872,"Ġbad":4873,"ety":4874,"Ġitems":4875,"ĠMill":4876,"Ġdecreas":4877,"ocal":4878,"ĠEastern":4879,"abinet":4880,"ourn":4881,"Ġacre":4882,"ĠDepos":4883,"before":4884,"ĠProducts":4885,"iveness":4886,"Ġportfol":4887,"ĠCiticorp":4888,"armaceutical":4889,"may":4890,"Ġside":4891,"itzer":4892,"Ġfees":4893,"ighest":4894,"prot":4895,"issue":4896,"izing":4897,"Ġ03":4898,"ĠAnother":4899,"introdu":4900,"growth":4901,"German":4902,"IG":4903,"aur":4904,"ĠBal":4905,"resp":4906,"ĠPol":4907,"ama":4908,"condition":4909,"antage":4910,"Ġinterested":4911,"Ġregard":4912,"ĠSea":4913,"ilding":4914,"ĠBoeing":4915,"Ġwarned":4916,"Ġjobs":4917,"Ġownership":4918,"Ġalleged":4919,"'ve":4920,"08":4921,"68":4922,"ATE":4923,"APR":4924,"IB":4925,"Le":4926,"dom":4927,"four":4928,"ri":4929,"ville":4930,"Ġmaker":4931,"oul":4932,"ĠCorporation":4933,"ĠMo":4934,"verted":4935,"Ġdepress":4936,"ambert":4937,"Ġ84":4938,"ĠĠĠĠĠĠĠĠĠĠĠĠĠĠ":4939,"product":4940,"ĠVal":4941,"Ġrain":4942,"Ġlowered":4943,"computer":4944,"Ġauthority":4945,"Ġborrowings":4946,"Ġregistered":4947,"Ġcalendar":4948,"ĠContinental":4949,"Ġutility":4950,"dinary":4951,"adjusted":4952,"03":4953,"War":4954,"Ġcotton":4955,"ĠSub":4956,"owers":4957,"Ġ81":4958,"ĠVenezuela":4959,"Ġcutting":4960,"Ġmatter":4961,"Ġfeel":4962,"Ġredemption":4963,"ĠProduction":4964,"cor":4965,"Ġfight":4966,"ĠinFebruary":4967,"ombia":4968,"Ġready":4969,"ĠBur":4970,"ĠBurn":4971,"Ġdefic":4972,"Ġexternal":4973,"Ġ900":4974,"ously":4975,"ĠChinese":4976,"Ġregional":4977,"Ġrequirement":4978,"Ġdiplomats":4979,"Ġmaturity":4980,"Ġnegative":4981,"hance":4982,"uh":4983,"urol":4984,"Ġaud":4985,"Ġsouth":4986,"Ġdist":4987,"Ġlire":4988,"Ġhot":4989,"ĠChe":4990,"Ġask":4991,"Ġunemployment":4992,"Ġhearing":4993,"Ġbanker":4994,"formed":4995,"Ġ89":4996,"Ġimpos":4997,"ailand":4998,"Ġload":4999,"ĠYugoslav":5000,"Ġprovides":5001,"Ġfunda":5002,"Ġbids":5003,"Department":5004,"Ġportion":5005,"industrial":5006,"Ġfavor":5007,"country":5008,"Ġconnection":5009,"Association":5010,"itzerland":5011,"Ad":5012,"bel":5013,"Ġold":5014,"also":5015,"igital":5016,"imp":5017,"Ġpled":5018,"Ġapprove":5019,"Ġresulted":5020,"Ġsectors":5021,"Ġliberal":5022,"ĠIndia":5023,"MEX":5024,"ĠQue":5025,"ĠTelephone":5026,"ĠClass":5027,"ITI":5028,"Ġwrite":5029,"TI":5030,"hio":5031,"Ġore":5032,"Ġcity":5033,"Ġpalm":5034,"isse":5035,"Ġands":5036,"ĠCable":5037,"addition":5038,"ache":5039,"puters":5040,"development":5041,"ĠExchangeCommission":5042,"Ġexpressed":5043,"financing":5044,"preferred":5045,"ĠBoth":5046,"gressive":5047,"going":5048,"Ġounce":5049,"Ġrelief":5050,"ĠMoscow":5051,"ampaign":5052,"IA":5053,"anctions":5054,"orida":5055,"Ġwel":5056,"omes":5057,"ĠSouthern":5058,"oted":5059,"Ġrubber":5060,"ivity":5061,"accept":5062,"exp":5063,"Ġassociation":5064,"ĠThom":5065,"Ġconsortium":5066,"Ġintended":5067,"Ġfunding":5068,"forming":5069,"Ġretire":5070,"Ġresulting":5071,"Ġrepresents":5072,"Ġcustomer":5073,"author":5074,"Ġalternative":5075,"urolator":5076,"48":5077,"MI":5078,"OB":5079,"rates":5080,"Ġthel":5081,"ĠRed":5082,"oting":5083,"Ġconclud":5084,"Ġatthe":5085,"Ġthatthe":5086,"ĠDu":5087,"Ġtranc":5088,"Ġ102":5089,"Ġcompens":5090,"Ġ127":5091,"Ġeffects":5092,"Ġcooperation":5093,"ominated":5094,"ĠGoldman":5095,"ET":5096,"ipan":5097,"Ġbur":5098,"Ġwin":5099,"Ġmillion":5100,"ĠTechnology":5101,"elves":5102,"ĠBond":5103,"early":5104,"ĠEl":5105,"ĠJose":5106,"ĠLiber":5107,"ichi":5108,"Ġlarger":5109,"higher":5110,"ĠDouglas":5111,"63":5112,"MB":5113,"eated":5114,"half":5115,"sales":5116,"help":5117,"Ġsilver":5118,"itors":5119,"Ġcattle":5120,"Ġban":5121,"Ġmoment":5122,"Ġinj":5123,"asis":5124,"Ġthought":5125,"Ġvess":5126,"ĠNAS":5127,"Ġconcent":5128,"porter":5129,"ĠEach":5130,"Ġordinary":5131,"opted":5132,"Ġseat":5133,"ĠAlso":5134,"Ġvalues":5135,"Ġentit":5136,"ĠPrior":5137,"Ġrepresentatives":5138,"Ġsucceed":5139,"Ġopposed":5140,"economy":5141,"Ġpassed":5142,"ĠTransport":5143,"Ġrefinery":5144,"cus":5145,"ios":5146,"vre":5147,"inger":5148,"unit":5149,"child":5150,"earlier":5151,"oliv":5152,"istan":5153,"project":5154,"Ġsubs":5155,"Ġsubcommittee":5156,"ixons":5157,"Ġstatements":5158,"Ġprivat":5159,"Ġpershare":5160,"Ġestablish":5161,"Ġsuggested":5162,"Ġscheme":5163,"convertible":5164,"ournal":5165,"Res":5166,"met":5167,"worth":5168,"Ġincent":5169,"utes":5170,"Ġhist":5171,"ĠTWA":5172,"adv":5173,"ĠAff":5174,"ĠMer":5175,"ĠWork":5176,"olds":5177,"Ġimbal":5178,"Ġoffices":5179,"Ġappeal":5180,"ounting":5181,"Ġamend":5182,"herlands":5183,"Ġshortage":5184,"ufacturers":5185,"Ġrestated":5186,"attan":5187,"graded":5188,"Ġgrew":5189,"Ġrunning":5190,"ĠGenCorp":5191,"represent":5192,"Ġbehind":5193,"Finance":5194,"ONDON":5195,"FR":5196,"She":5197,"cover":5198,"Ġill":5199,"oney":5200,"Ġpick":5201,"Ġfamily":5202,"ĠCos":5203,"unction":5204,"unities":5205,"Ġstood":5206,"Ġye":5207,"ulk":5208,"Ġfromthe":5209,"ĠGree":5210,"Ġ88":5211,"itsu":5212,"Ġappeared":5213,"Ġinvestig":5214,"Ġplanning":5215,"Ġapproximately":5216,"isco":5217,"Ġmanaging":5218,"Ġthemarket":5219,"Ġiniti":5220,"Ġdiscussed":5221,"Ġcorporation":5222,"Ġyields":5223,"Ġdenied":5224,"ĠLouis":5225,"ĠCyclops":5226,"Ġdetermined":5227,"da":5228,"kers":5229,"mid":5230,"no":5231,"oo":5232,"Ġpet":5233,"Ġmakers":5234,"idge":5235,"cts":5236,"ĠTra":5237,"ĠICO":5238,"ĠMach":5239,"ĠMiyazawa":5240,"igan":5241,"irms":5242,"Ġshut":5243,"ĠLloyd":5244,"ĠHoward":5245,"Ġhect":5246,"ubic":5247,"priate":5248,"apter":5249,"Ġ104":5250,"Ġseem":5251,"Ġ160":5252,"Ġcommonstock":5253,"Ġtelecommunications":5254,"investors":5255,"SEP":5256,"Ġthefirst":5257,"ĠSuper":5258,"ĠBancorp":5259,"Ġparticipation":5260,"Ġexposure":5261,"JUL":5262,"MP":5263,"hattan":5264,"zen":5265,"rose":5266,"ayton":5267,"Ġconv":5268,"Ġcongress":5269,"open":5270,"Ġke":5271,"Ġkind":5272,"Ġsigns":5273,"Ġrefused":5274,"Ġmostly":5275,"ĠOPEN":5276,"Ġhoped":5277,"Ġestablished":5278,"utsche":5279,"aturday":5280,"Ġteam":5281,"Ġpesos":5282,"general":5283,"gpin":5284,"take":5285,"van":5286,"Ġpop":5287,"Ġmicro":5288,"Ġreorganization":5289,"Ġhost":5290,"Ġ350":5291,"conf":5292,"ope":5293,"pri":5294,"Ġinterven":5295,"Ġ108":5296,"ĠĠĠĠĠĠĠĠĠĠĠĠĠĠĠ":5297,"Ġbuyout":5298,"egotiations":5299,"Ġformal":5300,"Ġconfirmed":5301,"ĠAccording":5302,"offering":5303,"ospital":5304,"EP":5305,"member":5306,"Ġens":5307,"edown":5308,"Ġpoor":5309,"Ġfresh":5310,"Ġdraft":5311,"ĠSim":5312,"Ġstay":5313,"igger":5314,"oto":5315,"ĠNiger":5316,"Ġcontribut":5317,"Ġadequ":5318,"Ġspring":5319,"irection":5320,"proposed":5321,"ĠKing":5322,"Ġpays":5323,"ĠChase":5324,"holding":5325,"Ġconsist":5326,"Ġgained":5327,"Ġadvanced":5328,"ĠLyng":5329,"ĠCurrency":5330,"Ġdelayed":5331,"Ġachieve":5332,"Phil":5333,"Ġpanel":5334,"ĠAssociates":5335,"Nor":5336,"Ġsaf":5337,"reme":5338,"ĠinJanuary":5339,"ouston":5340,"ete":5341,"still":5342,"Ġhighest":5343,"ĠSugar":5344,"Ġdev":5345,"quisition":5346,"ploration":5347,"ĠOECD":5348,"clos":5349,"Ġimposed":5350,"gypt":5351,"valuation":5352,"Ġshortly":5353,"Ġreflects":5354,"Ġsignificantly":5355,"ĠMarkets":5356,"dividend":5357,"57":5358,"CI":5359,"hard":5360,"ration":5361,"ream":5362,"arrel":5363,"Ġfile":5364,"Ġcomments":5365,"ĠNV":5366,"ignificant":5367,"Ġ126":5368,"Ġappear":5369,"ĠTraders":5370,"Ġinteg":5371,"valu":5372,"prec":5373,"Ġmethod":5374,"ĠGMT":5375,"Ġmaterial":5376,"bitra":5377,"Ġidea":5378,"uminium":5379,"Ġdefinitive":5380,"Iran":5381,"iance":5382,"kl":5383,"my":5384,"pers":5385,"rey":5386,"Ġtoward":5387,"Ġlif":5388,"quir":5389,"ugg":5390,"Ġcompares":5391,"Ġannounce":5392,"Ġapplications":5393,"ĠRepresent":5394,"buy":5395,"Ġelections":5396,"Ġoptimistic":5397,"41":5398,"cut":5399,"court":5400,"sen":5401,"erosp":5402,"Ġthedollar":5403,"Ġinv":5404,"ĠTwo":5405,"Ġcontr":5406,"ecom":5407,"their":5408,"Ġprec":5409,"process":5410,"Ġalloc":5411,"Ġenviron":5412,"Ġraw":5413,"fully":5414,"fferies":5415,"Ġcreate":5416,"elected":5417,"Ġsoybeans":5418,"iversity":5419,"Ġsteps":5420,"oeh":5421,"Ġobligations":5422,"Cons":5423,"overs":5424,"Ġer":5425,"itz":5426,"asons":5427,"icated":5428,"ĠICC":5429,"ĠPan":5430,"andal":5431,"ode":5432,"ĠOhio":5433,"export":5434,"Ġchip":5435,"Ġrecession":5436,"Ġdebtor":5437,"Ġoffshore":5438,"ĠPlan":5439,"ĠStocks":5440,"Ġsheet":5441,"Ġprimarily":5442,"ĠSunday":5443,"ĠBurnham":5444,"ipants":5445,"250":5446,"EB":5447,"Per":5448,"VER":5449,"ford":5450,"making":5451,"Ġayear":5452,"Ġsust":5453,"esars":5454,"Ġcoin":5455,"Ġband":5456,"Ġlay":5457,"Ġhal":5458,"Ġdlrsin":5459,"Ġpctof":5460,"romise":5461,"ĠHughes":5462,"tores":5463,"Ġcommodities":5464,"proble":5465,"actory":5466,"Ġ124":5467,"Ġapproach":5468,"iedmont":5469,"money":5470,"Ġ1991":5471,"Ġminor":5472,"ĠPayment":5473,"Ġmetal":5474,"erry":5475,"Ġpointed":5476,"continue":5477,"tenberg":5478,"Ġexclude":5479,"Ġregulations":5480,"ĠItalian":5481,"Ġmargins":5482,"Ġencourage":5483,"previously":5484,"NY":5485,"demand":5486,"uj":5487,"init":5488,"Ġsem":5489,"reported":5490,"orb":5491,"Ġtob":5492,"Ġdu":5493,"utual":5494,"Ġnorth":5495,"ĠAB":5496,"ĠII":5497,"ersey":5498,"ĠReg":5499,"oltenberg":5500,"ulating":5501,"Ġ1981":5502,"ĠDollar":5503,"ĠLDP":5504,"ĠGNP":5505,"Ġresign":5506,"oke":5507,"Ġ103":5508,"erals":5509,"Ġappears":5510,"Ġbuilt":5511,"obile":5512,"Ġrecorded":5513,"ĠOngpin":5514,"Ġallowing":5515,"ĠAssets":5516,"Ġimported":5517,"uccess":5518,"Ġsmaller":5519,"Ġprovisional":5520,"Trans":5521,"Ġmoving":5522,"ĠGeorge":5523,"ĠMalaysia":5524,"Ġfocus":5525,"69":5526,"French":5527,"Ġcourse":5528,"Ġpension":5529,"Ġdereg":5530,"ĠTurn":5531,"ĠCD":5532,"ĠCounty":5533,"Ġproced":5534,"imited":5535,"Ġrand":5536,"Ġhasbeen":5537,"exports":5538,"ultz":5539,"Ġtrades":5540,"Ġinflu":5541,"Ġrisen":5542,"Ġtargets":5543,"Ġshel":5544,"Ġpassenger":5545,"Ġfloating":5546,"ĠPhilippine":5547,"Ġsolution":5548,"Ġnominal":5549,"ĠDefense":5550,"Warner":5551,"OY":5552,"ease":5553,"farm":5554,"Ġten":5555,"Ġsanctions":5556,"Ġways":5557,"Ġlabor":5558,"ĠSpr":5559,"ĠSaturday":5560,"ĠIr":5561,"ĠDistrict":5562,"acing":5563,"amb":5564,"ĠOut":5565,"Ġstockholders":5566,"Ġ105":5567,"Ġimpl":5568,"venue":5569,"Ġassess":5570,"ike":5571,"quarters":5572,"Ġadvisory":5573,"Ġvehicles":5574,"ĠMiller":5575,"AW":5576,"Washington":5577,"makers":5578,"ple":5579,"inflation":5580,"Ġthed":5581,"Ġpo":5582,"Ġreact":5583,"Ġstorage":5584,"ĠLambert":5585,"ebber":5586,"Ġsees":5587,"egal":5588,"Ġproviding":5589,"Ġarg":5590,"Ġdevelopments":5591,"Ġadvance":5592,"Ġratings":5593,"uctu":5594,"bonds":5595,"ĠJohnson":5596,"Ġcommitments":5597,"Ġinventory":5598,"ĠAllied":5599,"59":5600,"hi":5601,"kin":5602,"range":5603,"Ġsides":5604,"Ġcases":5605,"Ġtough":5606,"Ġnuclear":5607,"Ġbeg":5608,"Ġveto":5609,"ĠPurolator":5610,"ĠWal":5611,"ubsidiary":5612,"Ġacross":5613,"istant":5614,"Ġ146":5615,"Invest":5616,"Ġsecondary":5617,"pread":5618,"Ġmaturing":5619,"Ġcarries":5620,"Ġdifficulties":5621,"Ġwidely":5622,"Ġemergency":5623,"ĠMedical":5624,"received":5625,"Chr":5626,"during":5627,"further":5628,"ien":5629,"Ġwind":5630,"ila":5631,"Ġsaidits":5632,"unch":5633,"Ġcompr":5634,"ĠDonald":5635,"ĠHer":5636,"agen":5637,"Ġ750":5638,"ibank":5639,"apse":5640,"Ġupon":5641,"ĠHealth":5642,"Ġdoing":5643,"Ġdescribed":5644,"Ġdirectly":5645,"Ġinitially":5646,"Ġsummit":5647,"Ġstimulate":5648,"Ġcomponents":5649,"geles":5650,"NE":5651,"ka":5652,"low":5653,"ma":5654,"xon":5655,"only":5656,"Ġcampaign":5657,"Ġpetroleum":5658,"Ġreally":5659,"Ġeast":5660,"ĠSince":5661,"ĠSoybe":5662,"ĠBec":5663,"olm":5664,"ĠNippon":5665,"executive":5666,"Ġcommitted":5667,"Ġcomplex":5668,"ĠJapanes":5669,"Ġaccr":5670,"ship":5671,"arris":5672,"Ġcontrolled":5673,"ĠAmong":5674,"ogn":5675,"Ġtotalling":5676,"ĠDemocrats":5677,"Ġcreated":5678,"approved":5679,"ĠFlorida":5680,"Af":5681,"Pl":5682,"Securities":5683,"lower":5684,"main":5685,"rees":5686,"esale":5687,"arles":5688,"Ġeased":5689,"ĠStores":5690,"ĠBrown":5691,"rael":5692,"ande":5693,"ĠGrain":5694,"Ġleave":5695,"venues":5696,"Ġapply":5697,"ĠYesterday":5698,"Ġ147":5699,"ĠSwitzerland":5700,"Ġretaliation":5701,"Ġunfair":5702,"erospace":5703,"Group":5704,"fell":5705,"inn":5706,"reight":5707,"ites":5708,"Ġcli":5709,"ĠToronto":5710,"Ġbear":5711,"ĠMiss":5712,"ĠMining":5713,"estock":5714,"import":5715,"akistan":5716,"strong":5717,"Ġchance":5718,"ailing":5719,"ssaid":5720,"Inter":5721,"Ġdeclining":5722,"Ġexpire":5723,"Ġnegotiate":5724,"Ġgasoline":5725,"ĠManhattan":5726,"Ġgrade":5727,"Ġjointly":5728,"Ġconfirm":5729,"Ġdefense":5730,"expects":5731,"Ġelabor":5732,"Ġguarantee":5733,"debentures":5734,"ĠRepublican":5735,"Ġradio":5736,"discuss":5737,"Am":5738,"do":5739,"ha":5740,"ki":5741,"tra":5742,"yr":5743,"Ġserve":5744,"Ġbarr":5745,"Ġbulk":5746,"Ġmis":5747,"Ġnever":5748,"ĠTax":5749,"ĠTechnologies":5750,"thqu":5751,"Ġcomes":5752,"leet":5753,"ĠMor":5754,"ĠMTH":5755,"Ġstage":5756,"ĠBer":5757,"ĠNIL":5758,"Ġconverted":5759,"ecured":5760,"plans":5761,"eller":5762,"Ġpartner":5763,"Ġoperators":5764,"Ġmanaged":5765,"Ġtalk":5766,"ĠAirbus":5767,"ucks":5768,"ample":5769,"Ġmodest":5770,"remely":5771,"sthat":5772,"ĠAbout":5773,"Ġrigs":5774,"For":5775,"He":5776,"Law":5777,"Mc":5778,"Qtr":5779,"Ġsemiconductor":5780,"Ġcubic":5781,"Ġmass":5782,"Ġever":5783,"iration":5784,"immed":5785,"Ġwhy":5786,"ĠLos":5787,"Ġunable":5788,"Ġchips":5789,"Ġcontact":5790,"Ġovernight":5791,"Ġ129":5792,"oods":5793,"Ġreporting":5794,"Ġnothing":5795,"ĠWestGerman":5796,"obil":5797,"inking":5798,"Ġannually":5799,"Ġdrive":5800,"Ġguil":5801,"Ġmanufacturers":5802,"ĠGuarant":5803,"Ġinstitutional":5804,"Ġvirt":5805,"franc":5806,"za":5807,"Ġple":5808,"alty":5809,"start":5810,"Ġgot":5811,"Ġdepart":5812,"ĠHigh":5813,"Ġadopted":5814,"Ġspeed":5815,"ĠCommercial":5816,"mselves":5817,"Ġtheyear":5818,"Ġunderlying":5819,"ĠThailand":5820,"Ġ170":5821,"Ġsecured":5822,"volving":5823,"affirmed":5824,"ĠDemocrat":5825,"ĠImports":5826,"Ġexpenditure":5827,"estimated":5828,"Ġpossibly":5829,"Ġtraditional":5830,"ĠIllinois":5831,"Ġportfolio":5832,"Car":5833,"Congress":5834,"Minister":5835,"ya":5836,"Ġcabinet":5837,"Ġfro":5838,"etr":5839,"ĠCal":5840,"ĠMerc":5841,"ĠFar":5842,"ĠDow":5843,"ĠHouston":5844,"ĠOffer":5845,"allen":5846,"ansas":5847,"Ġmeat":5848,"Ġmeant":5849,"Ġsole":5850,"Ġbacked":5851,"DAQ":5852,"Ġveget":5853,"Ġresolve":5854,"ĠDivision":5855,"Net":5856,"PI":5857,"augh":5858,"ground":5859,"water":5860,"Ġtap":5861,"income":5862,"Ġcle":5863,"arts":5864,"Ġbed":5865,"stim":5866,"stances":5867,"Ġreaction":5868,"Ġher":5869,"Ġhalt":5870,"ĠCor":5871,"ĠBureau":5872,"Ġshift":5873,"andon":5874,"ĠDaily":5875,"ĠLa":5876,"Ġrecogn":5877,"egraph":5878,"Ġoperates":5879,"ĠThird":5880,"Ġbarley":5881,"chedule":5882,"Ġruled":5883,"Ġordered":5884,"Ġborrowers":5885,"nowled":5886,"Ġstrikes":5887,"Ġesc":5888,"Ġachieved":5889,"Ġanticipated":5890,"Ġtreatment":5891,"improve":5892,"ĠCFTC":5893,"average":5894,"des":5895,"Ġaide":5896,"record":5897,"anque":5898,"orgh":5899,"Ġlenders":5900,"ĠCCC":5901,"ĠReyn":5902,"osn":5903,"ector":5904,"Ġ450":5905,"Ġadopt":5906,"Ġresume":5907,"Ġprofitable":5908,"ĠKen":5909,"Ġ180":5910,"Ġextension":5911,"operating":5912,"Ġlocated":5913,"Ġcombination":5914,"ĠInterest":5915,"Ġsuspension":5916,"Ġpredict":5917,"Ġresponsible":5918,"Ġceiling":5919,"ancellor":5920,"SC":5921,"ken":5922,"policy":5923,"Ġsocial":5924,"analysts":5925,"Ġthet":5926,"Ġbes":5927,"rovers":5928,"ĠTe":5929,"ĠCan":5930,"Ġmlntonnes":5931,"ivil":5932,"ĠHaw":5933,"performing":5934,"amer":5935,"ĠOf":5936,"manager":5937,"Ġlease":5938,"fort":5939,"chequ":5940,"arry":5941,"ĠAlleg":5942,"offs":5943,"Ġdemands":5944,"Ġallows":5945,"Ġliabilities":5946,"States":5947,"cript":5948,"ĠLoans":5949,"Ġidentified":5950,"ĠMalaysian":5951,"Ġassociated":5952,"Ġaffiliate":5953,"Ġexecutives":5954,"Ġhectares":5955,"750":5956,"Con":5957,"Elect":5958,"TA":5959,"following":5960,"gical":5961,"law":5962,"public":5963,"some":5964,"Ġtin":5965,"Ġsym":5966,"Ġmor":5967,"Ġmill":5968,"stg":5969,"Ġhour":5970,"Ġisexpected":5971,"Ġdeep":5972,"ĠLand":5973,"ferring":5974,"ĠOver":5975,"comes":5976,"Ġquiet":5977,"airy":5978,"Ġrepeated":5979,"Ġcorrect":5980,"value":5981,"......":5982,"Ġaccounted":5983,"ette":5984,"ĠAcquisition":5985,"emiconductors":5986,"zero":5987,"Texas":5988,"ĠCaesars":5989,"ĠReynolds":5990,"'m":5991,"IR":5992,"October":5993,"Pacific":5994,"Rep":5995,"World":5996,"fac":5997,"pokesman":5998,"tario":5999,"yond":6000,"atures":6001,"Ġbranch":6002,"Ġfire":6003,"Ġfears":6004,"ĠofS":6005,"Ġlin":6006,"Ġhum":6007,"Ġitwill":6008,"ĠSep":6009,"Ġbeyond":6010,"Ġrup":6011,"Ġranging":6012,"Ġunions":6013,"ĠOct":6014,"princip":6015,"apers":6016,"Ġeconomies":6017,"ĠChapter":6018,"enspan":6019,"1988":6020,"should":6021,"Ġdecide":6022,"ranches":6023,"Ġgoal":6024,"Ġparticipants":6025,"acquired":6026,"ĠSETT":6027,"Ġfields":6028,"Ġdouble":6029,"ĠLouvre":6030,"Ġmissiles":6031,"Ġworr":6032,"Ġacreage":6033,"Ġensure":6034,"oehl":6035,"LL":6036,"MAR":6037,"Par":6038,"affect":6039,"power":6040,"inery":6041,"Ġaveraged":6042,"Ġbody":6043,"Ġfinis":6044,"Ġmar":6045,"uture":6046,"Ġease":6047,"ĠMines":6048,"imate":6049,"ushed":6050,"ĠFees":6051,"Ġtrigger":6052,"plant":6053,"appl":6054,"ĠNetwork":6055,"onnell":6056,"Ġroom":6057,"weet":6058,"Ġ135":6059,"short":6060,"deficit":6061,"Ġextent":6062,"ĠUnitedStates":6063,"Ġprotest":6064,"approval":6065,"Ġrecommendation":6066,"ĠOrganization":6067,"Cent":6068,"MR":6069,"budget":6070,"det":6071,"domestic":6072,"minister":6073,"pass":6074,"Ġsure":6075,"Ġreasons":6076,"ada":6077,"ĠBay":6078,"ĠFair":6079,"ĠDis":6080,"ĠDomestic":6081,"Ġdisclose":6082,"Ġoutl":6083,"ĠNetherlands":6084,"Ġapprec":6085,"Ġjump":6086,"casting":6087,"Ġcarried":6088,"workers":6089,"Ġemployment":6090,"Ġinvolving":6091,"Ġclosely":6092,"ething":6093,"Ġhands":6094,"Ġgovernor":6095,"Ġpatent":6096,"Ġengineering":6097,"Ġpractices":6098,"ydro":6099,"OPEC":6100,"Ġstatus":6101,"ĠQuebec":6102,"Ġbegun":6103,"Aug":6104,"Cont":6105,"HK":6106,"avi":6107,"ients":6108,"larg":6109,"uan":6110,"omo":6111,"mentals":6112,"ĠDespite":6113,"ĠDixons":6114,"Ġagencies":6115,"Ġdebate":6116,"Ġdispos":6117,"ĠKe":6118,"ĠKar":6119,"ĠCharles":6120,"Ġanything":6121,"Ġreductions":6122,"Ġthroughout":6123,"Ġconsideration":6124,"ahn":6125,"Ġdefend":6126,"ĠUNCH":6127,"subsidiary":6128,"Ġwritedown":6129,"Ġrenewed":6130,"ĠTurnover":6131,"orghum":6132,"Med":6133,"Or":6134,"TV":6135,"dif":6136,"ris":6137,"Ġpen":6138,"Ġpace":6139,"Ġbilateral":6140,"Ġfast":6141,"Ġlit":6142,"ĠTan":6143,"ado":6144,"ĠSar":6145,"ĠAT":6146,"Ġstore":6147,"Ġgives":6148,"ĠBorg":6149,"Ġexam":6150,"ĠJersey":6151,"ĠHen":6152,"emp":6153,"allad":6154,"Ġleaving":6155,"Ġchoice":6156,"Ġ106":6157,"issued":6158,"Ġrecapital":6159,"Ġ149":6160,"Ġenable":6161,"tainment":6162,"ĠAngeles":6163,"Ġsubsidy":6164,"deal":6165,"Ġinternal":6166,"Ġlowest":6167,"Ġsmel":6168,"priced":6169,"Ġscandal":6170,"ĠShell":6171,"Ġfreeze":6172,"Ġlicens":6173,"ĠJefferies":6174,"Ġbushels":6175,"MO":6176,"North":6177,"custom":6178,"gers":6179,"net":6180,"another":6181,"itr":6182,"idder":6183,"Ġdirection":6184,"ĠTaft":6185,"panish":6186,"umstances":6187,"ĠCorpsaid":6188,"ches":6189,"Ġdealing":6190,"everal":6191,"valued":6192,"ĠShultz":6193,"ĠParliament":6194,"Ġunderwriter":6195,"tenance":6196,"Ġpeak":6197,"Ġtesting":6198,"Reagan":6199,"ĠSanta":6200,"Ġevidence":6201,"ĠNYSE":6202,"additional":6203,"DEC":6204,"Donnell":6205,"Our":6206,"ero":6207,"aters":6208,"Ġhurt":6209,"ĠSocial":6210,"urning":6211,"andid":6212,"ĠLabor":6213,"Ġhed":6214,"acco":6215,"amen":6216,"ĠWright":6217,"opper":6218,"computers":6219,"Ġspend":6220,"ĠVir":6221,"log":6222,"Ġshows":6223,"Ġvolat":6224,"Ġscale":6225,"Ġdelivered":6226,"Ġrequested":6227,"ĠColombia":6228,"ĠIraqi":6229,"Ġlinked":6230,"Ġmoved":6231,"Ġdepressed":6232,"150":6233,"EE":6234,"London":6235,"LONDON":6236,"cash":6237,"ges":6238,"told":6239,"vals":6240,"war":6241,"Ġthecountry":6242,"Ġmem":6243,"oma":6244,"ĠMil":6245,"Ġprof":6246,"respect":6247,"ĠPost":6248,"ocon":6249,"ĠDrug":6250,"ĠGer":6251,"expan":6252,"Ġplat":6253,"Ġ109":6254,"Ġprovin":6255,"def":6256,"ĠSeven":6257,"embly":6258,"Ġprogramme":6259,"Ġemph":6260,"Ġadvantage":6261,"Ġmovement":6262,"ĠAsian":6263,"ĠAtlantic":6264,"Ġmodels":6265,"Ġinvolve":6266,"umping":6267,"Ġbringing":6268,"ĠMiddle":6269,"ĠGreen":6270,"ĠEnterprises":6271,"ĠTurkey":6272,"Ġsyndicate":6273,"ĠNigeria":6274,"thquake":6275,"aver":6276,"greg":6277,"taking":6278,"yan":6279,"Ġzero":6280,"Ġbott":6281,"aly":6282,"ĠTariffs":6283,"ĠToday":6284,"Ġthings":6285,"ĠSam":6286,"ĠMore":6287,"ĠBas":6288,"ĠPet":6289,"ĠPoehl":6290,"ĠEgypt":6291,"ĠHo":6292,"Ġtrip":6293,"ells":6294,"antile":6295,"Ġpermit":6296,"Ġcompromise":6297,"Ġaddress":6298,"Ġ123":6299,"Ġaccel":6300,"itting":6301,"Ġdeclines":6302,"Ġdecisions":6303,"Ġcoast":6304,"raining":6305,"Ġfluctu":6306,"ĠAirways":6307,"ĠĠĠĠĠĠĠĠĠĠĠĠĠĠĠĠĠĠĠ":6308,"Ġgrad":6309,"Ġrecommended":6310,"Ġcomplaint":6311,"IGH":6312,"July":6313,"NA":6314,"free":6315,"his":6316,"ref":6317,"oupon":6318,"Ġne":6319,"ĠRiver":6320,"adel":6321,"ĠAF":6322,"aying":6323,"osen":6324,"irac":6325,"imports":6326,"Ġalone":6327,"according":6328,"amount":6329,"ĠWilson":6330,"allas":6331,"comb":6332,"private":6333,"ĠStoltenberg":6334,"Ġdisapp":6335,"Ġ128":6336,"Ġ111":6337,"Ġbuyer":6338,"Ġdeals":6339,"Ġsetting":6340,"lington":6341,"Ġstrongly":6342,"AST":6343,"orney":6344,"pecial":6345,"Ġgetting":6346,"Ġsettle":6347,"building":6348,"decl":6349,"Ġdamages":6350,"atcher":6351,"Ġintention":6352,"Ġthreatened":6353,"Ġmaturities":6354,"Ġinventories":6355,"Ġconducted":6356,"AG":6357,"DB":6358,"IV":6359,"cks":6360,"major":6361,"whe":6362,"western":6363,"recent":6364,"Ġcard":6365,"Ġwide":6366,"roy":6367,"Ġthr":6368,"added":6369,"ĠMel":6370,"ĠBah":6371,"Ġexclus":6372,"ola":6373,"ected":6374,"ĠJust":6375,"ĠJones":6376,"abody":6377,"ĠWheat":6378,"Ġwouldbe":6379,"pping":6380,"comed":6381,"Ġprefer":6382,"Ġcommunity":6383,"Ġsubmitted":6384,"Ġmorethan":6385,"ishi":6386,"Ġcenter":6387,"Ġcarrying":6388,"Ġmetals":6389,"Ġconcerns":6390,"idespread":6391,"Ġregulators":6392,"Ġrepayments":6393,"ĠChrist":6394,"ĠIsrael":6395,"require":6396,"Ġdetermine":6397,"Ġjudge":6398,"ĠBelgian":6399,"Ġcommunique":6400,"Ġinstruments":6401,"HEAT":6402,"respond":6403,"Ġconcluded":6404,"ĠSoybean":6405,"Ġvegetable":6406,"osnoff":6407,"chequer":6408,"BR":6409,"Ital":6410,"Webber":6411,"fe":6412,"named":6413,"purch":6414,"Ġtakes":6415,"Ġsite":6416,"Ġinspect":6417,"ico":6418,"Ġevalu":6419,"ĠCH":6420,"ĠMat":6421,"ĠMark":6422,"ĠPiedmont":6423,"ĠFe":6424,"ĠLib":6425,"Ġagent":6426,"agree":6427,"Ġspeaking":6428,"forward":6429,"Ġdismiss":6430,"Ġ122":6431,"viously":6432,"ĠEnd":6433,"ipped":6434,"Ġadvances":6435,"Ġtendered":6436,"Ġmembership":6437,"Ġelected":6438,"Ġreflecting":6439,"equity":6440,"Ġmulti":6441,"Ġduties":6442,"Australia":6443,"ĠPortug":6444,"Ġcongressional":6445,"Ġclients":6446,"BE":6447,"Gulf":6448,"SG":6449,"beg":6450,"corp":6451,"ih":6452,"va":6453,"Ġdi":6454,"Ġdeprec":6455,"ĠPaine":6456,"ĠEcus":6457,"Ġcontain":6458,"Ġpreference":6459,"Ġweight":6460,"Ġkilled":6461,"certific":6462,"Ġfallen":6463,"Ġpresented":6464,"ourable":6465,"Ġjoined":6466,"Ġobtained":6467,"Agriculture":6468,"ĠDeposits":6469,"ĠLiberal":6470,"Ġelaborate":6471,"BO":6472,"Cl":6473,"ca":6474,"clear":6475,"mod":6476,"reen":6477,"ĠtheUnited":6478,"Ġcere":6479,"atter":6480,"Ġinject":6481,"ĠCSR":6482,"ĠStr":6483,"ĠSeries":6484,"chief":6485,"establ":6486,"ĠPat":6487,"ĠNavy":6488,"ĠFive":6489,"Ġcontributed":6490,"Ġattributed":6491,"ĠED":6492,"ĠEar":6493,"Ġheav":6494,"Ġupward":6495,"Ġprepar":6496,"Ġinvestigation":6497,"ĠThree":6498,"Ġusers":6499,"Ġbusinessmen":6500,"Ġarbitra":6501,"Ġactual":6502,"ĠOntario":6503,"Ġshowing":6504,"Ġsevere":6505,"atories":6506,"Ġrepresented":6507,"Ġcovered":6508,"Ġcaut":6509,"Ġformerly":6510,"Ġplacement":6511,"Ġwritten":6512,"And":6513,"Ġlicense":6514,"iety":6515,"ĠMidland":6516,"Ġarrangement":6517,"Ġrumors":6518,"Ġopportunity":6519,"ĠYugoslavia":6520,"Ġkept":6521,"Ġderegulation":6522,"GM":6523,"SL":6524,"furt":6525,"lic":6526,"pes":6527,"sl":6528,"Ġsqu":6529,"itter":6530,"Ġofa":6531,"star":6532,"ĠAMC":6533,"ĠIR":6534,"Ġstated":6535,"Ġ210":6536,"ĠBBB":6537,"ige":6538,"Ġexc":6539,"ĠFOB":6540,"ulatory":6541,"ĠDomin":6542,"ĠLight":6543,"ĠHan":6544,"ubishi":6545,"portion":6546,"sever":6547,"Ġseats":6548,"itsubishi":6549,"Ġappointed":6550,"ĠExxon":6551,"Ġacquiring":6552,"Ġappropriate":6553,"Ġremo":6554,"meas":6555,"ĠEconomists":6556,"Ġexpanded":6557,"ĠSupreme":6558,"Ġelectronics":6559,"Ġaccrued":6560,"AUG":6561,"November":6562,"paid":6563,"oring":6564,"etter":6565,"Ġlive":6566,"Ġlabour":6567,"ĠCBT":6568,"ĠAp":6569,"esto":6570,"ĠFuj":6571,"ĠInformation":6572,"ulph":6573,"Ġring":6574,"ĠEST":6575,"ĠJun":6576,"ĠJul":6577,"perties":6578,"ĠOCT":6579,"Ġearn":6580,"Ġends":6581,"Ġoilseed":6582,"assets":6583,"Ġcommonshares":6584,"Ġrequires":6585,"Ġ1994":6586,"finance":6587,"Ġreluct":6588,"Ġstronger":6589,"ĠManila":6590,"Ġcompete":6591,"Ġcompetit":6592,"Ġexcluding":6593,"Ġelig":6594,"payment":6595,"Ġwholesale":6596,"Ġweakness":6597,"Ġinstall":6598,"Ġdoubt":6599,"Ġduty":6600,"effective":6601,"conditions":6602,"Ġimpose":6603,"ĠWorkers":6604,"FC":6605,"UT":6606,"eals":6607,"Ġtests":6608,"Ġcross":6609,"Ġinform":6610,"Ġdrought":6611,"asuh":6612,"ĠSosnoff":6613,"changes":6614,"Ġ240":6615,"ĠBonn":6616,"dul":6617,"Ġitsaid":6618,"Ġalleg":6619,"aste":6620,"Ġresident":6621,"Ġspace":6622,"undred":6623,"Ġcommunications":6624,"Ġdisease":6625,"ebt":6626,"ervatives":6627,"Ġ112":6628,"Ġ115":6629,"ĠChancellor":6630,"aware":6631,"Ġrepurch":6632,"being":6633,"Ġbecame":6634,"inding":6635,"ĠOperating":6636,"ĠManufacturing":6637,"ĠCongressional":6638,"Ġguarantees":6639,"Ġtraffic":6640,"ĠMichigan":6641,"account":6642,"Ġsentiment":6643,"Reuters":6644,"Ġvehicle":6645,"Ġcollapse":6646,"Ġminority":6647,"Ġcautious":6648,"AB":6649,"LR":6650,"iable":6651,"wa":6652,"Ġthemselves":6653,"Ġbranches":6654,"Ġtow":6655,"Ġdanger":6656,"omura":6657,"Ġgap":6658,"otive":6659,"ircu":6660,"owa":6661,"Ġdeg":6662,"ĠGross":6663,"udential":6664,"odak":6665,"ifying":6666,"ineering":6667,"Ġinterbank":6668,"Ġseems":6669,"izon":6670,"ĠUnit":6671,"Ġclimb":6672,"Ġcentre":6673,"Ġ175":6674,"Ġworkforce":6675,"Ġsignal":6676,"Ġservic":6677,"That":6678,"stitutions":6679,"ĠMany":6680,"heny":6681,"Ġcorporations":6682,"Ġbalances":6683,"Ġapplied":6684,"Ġcertificate":6685,"Ġopportunities":6686,"Ġamendment":6687,"Chrysler":6688,"asuhiro":6689,"direct":6690,"iated":6691,"possible":6692,"uisse":6693,"Ġsound":6694,"itude":6695,"itomo":6696,"Ġports":6697,"Ġanew":6698,"Ġeuro":6699,"ĠCocoa":6700,"lein":6701,"Ġsto":6702,"Ġstra":6703,"Ġstatistics":6704,"ĠBy":6705,"result":6706,"igures":6707,"Ġdlrsfrom":6708,"Ġexample":6709,"Ġ190":6710,"ĠNe":6711,"ĠDirector":6712,"aret":6713,"Ġalways":6714,"ĠHot":6715,"Ġtrucks":6716,"strate":6717,"Ġacom":6718,"Ġabandon":6719,"Ġofficers":6720,"onnel":6721,"Ġjournal":6722,"Ġconsolid":6723,"Ġtherefore":6724,"Ġpolice":6725,"Ġextremely":6726,"Ġsecretary":6727,"Ġdiscover":6728,"Ġshortfall":6729,"Ġnegotiated":6730,"Ġsurpluses":6731,"Ġrisks":6732,"arently":6733,"Ġgrains":6734,"oftware":6735,"Ġphys":6736,"Ġprotectionist":6737,"Ġuncertainty":6738,"Ġpursue":6739,"ĠThomas":6740,"Ġvessels":6741,"andez":6742,"'ll":6743,"ais":6744,"cap":6745,"gen":6746,"knowled":6747,"oen":6748,"pet":6749,"rise":6750,"Ġ'":6751,"reak":6752,"Ġfelt":6753,"Ġinsider":6754,"Ġlift":6755,"ĠRob":6756,"uries":6757,"ĠBill":6758,"Ġdemon":6759,"ĠPeter":6760,"ĠNEC":6761,"ĠJAN":6762,"ĠLy":6763,"ĠGDP":6764,"ĠWood":6765,"conference":6766,"Ġadvert":6767,"Ġchallen":6768,"issues":6769,"Ġseamen":6770,"Ġ155":6771,"Ġ131":6772,"mediate":6773,"Ġholder":6774,"Ġexported":6775,"ipping":6776,"intervention":6777,"Ġpressures":6778,"ĠIndian":6779,"ĠSpeaking":6780,"ĠBroad":6781,"ĠForce":6782,"Ġdeliveries":6783,"ernandez":6784,"Ġincreasingly":6785,"Ġphase":6786,"ĠAutom":6787,"Ġstandards":6788,"Ġwaiting":6789,"ĠMartin":6790,"IBOR":6791,"ĠGreece":6792,"Ġpetition":6793,"aughter":6794,"Bo":6795,"House":6796,"On":6797,"Taiwan":6798,"plement":6799,"Ġread":6800,"ĠCorn":6801,"illips":6802,"elman":6803,"ĠAN":6804,"charg":6805,"ĠMON":6806,"Ġpros":6807,"ĠFour":6808,"ula":6809,"accr":6810,"try":6811,"ĠOt":6812,"anted":6813,"oph":6814,"ireless":6815,"artered":6816,"Ġoperated":6817,"partic":6818,"Ġworked":6819,"loan":6820,"who":6821,"Ġemployers":6822,"both":6823,"ĠTelecommunications":6824,"regis":6825,"Ġintroduce":6826,"Ġboosted":6827,"ĠConsolidated":6828,"ĠCitibank":6829,"Ġeasier":6830,"Ġfront":6831,"aska":6832,"Ġkilos":6833,"EG":6834,"Gen":6835,"PL":6836,"bid":6837,"ein":6838,"pol":6839,"zi":6840,"Ġsoy":6841,"anwhile":6842,"Ġcore":6843,"Ġfear":6844,"Ġmy":6845,"Ġanagreement":6846,"Ġreuter":6847,"chan":6848,"Ġcomprise":6849,"Ġstressed":6850,"Ġstarts":6851,"Ġshown":6852,"oliday":6853,"ĠNatural":6854,"ĠFDA":6855,"ĠUtil":6856,"ĠGAF":6857,"Ġnoting":6858,"managed":6859,"manufacturing":6860,"ellig":6861,"adequ":6862,"overnor":6863,"ervation":6864,"ĠDeutsche":6865,"Ġ134":6866,"Ġhighly":6867,"ĠAlan":6868,"Ġintend":6869,"inco":6870,"Ġplanted":6871,"127":6872,"Ġfaced":6873,"ronic":6874,"Ġrepresentative":6875,"ĠFederation":6876,"ethat":6877,"ĠMarketing":6878,"profits":6879,"support":6880,"ĠtheSecurities":6881,"Texaco":6882,"Ġattractive":6883,"proposal":6884,"Ġwelcomed":6885,"Ġtranche":6886,"ĠRepresentative":6887,"Ġrecapitalization":6888,"Ġstopped":6889,"350":6890,"SI":6891,"hand":6892,"members":6893,"win":6894,"itable":6895,"iterated":6896,"Ġcour":6897,"Ġcount":6898,"Ġcandid":6899,"ato":6900,"Ġfats":6901,"ĠToy":6902,"ĠChem":6903,"Ġ225":6904,"ĠBB":6905,"Ġdeputy":6906,"raised":6907,"andise":6908,"ĠLi":6909,"ĠHel":6910,"ricted":6911,"Ġ550":6912,"ipe":6913,"Ġmonitor":6914,"Ġprin":6915,"ĠVice":6916,"Ġowed":6917,"Ġcontinu":6918,"Ġcalling":6919,"Ġcoordin":6920,"ynam":6921,"ĠProgram":6922,"Ġmerge":6923,"Ġflights":6924,"central":6925,"Ġblood":6926,"Ġheaded":6927,"Ġmoderate":6928,"Ġborrower":6929,"ĠUNC":6930,"consum":6931,"Ġquestions":6932,"underwriting":6933,"Australian":6934,"Ġflexibility":6935,"Ġdecrease":6936,"Ġdeficits":6937,"Ġburden":6938,"ĠMachines":6939,"ĠLloyds":6940,"Ġshelf":6941,"ĠGuaranty":6942,"Ġvirtually":6943,"ĠMercantile":6944,"Ġheavily":6945,"All":6946,"Gu":6947,"bour":6948,"cle":6949,"eem":6950,"first":6951,"iot":6952,"ko":6953,"mar":6954,"pat":6955,"insurance":6956,"Ġwages":6957,"Ġmand":6958,"Ġincur":6959,"Ġhog":6960,"ĠTimes":6961,"Ġthing":6962,"Ġthus":6963,"ĠSuch":6964,"owed":6965,"imal":6966,"ĠPakistan":6967,"umbia":6968,"pled":6969,"ighter":6970,"ipts":6971,"Ġcommitt":6972,"Ġdistributed":6973,"ĠKodak":6974,"Ġmanage":6975,"ĠThatcher":6976,"Ġsufficient":6977,"Ġ165":6978,"Ġacting":6979,"Ġreturned":6980,"Ġexpiration":6981,"enefic":6982,"Ġentry":6983,"Ġdry":6984,"Ġperson":6985,"Ġdefence":6986,"ĠTelegraph":6987,"stein":6988,"ĠClayton":6989,"ĠCarl":6990,"provide":6991,"Ġalternatives":6992,"Ġtextile":6993,"Ġsemi":6994,"Ġdepreciation":6995,"ulphur":6996,"CBT":6997,"Iraq":6998,"OM":6999,"bpd":7000,"next":7001,"pack":7002,"syl":7003,"ta":7004,"uctions":7005,"reated":7006,"itation":7007,"Ġcoun":7008,"Ġcold":7009,"oming":7010,"ĠRen":7011,"Ġstation":7012,"ĠUt":7013,"ĠEX":7014,"ĠLong":7015,"ĠHarris":7016,"astic":7017,"agon":7018,"theast":7019,"elled":7020,"TED":7021,"Ġspent":7022,"Ġinterim":7023,"Ġprev":7024,"Ġprofitability":7025,"Ġunderway":7026,"Ġ152":7027,"Ġroad":7028,"Ġ114":7029,"Ġ118":7030,"Ġ119":7031,"Ġ148":7032,"Ġweaken":7033,"partners":7034,"Ġattend":7035,"hority":7036,"willing":7037,"fficiency":7038,"Ġthesame":7039,"Ġmodel":7040,"Ġmodern":7041,"currently":7042,"Ġbrings":7043,"ĠConservative":7044,"ĠPeabody":7045,"Ġutil":7046,"Ġversion":7047,"ĠMeanwhile":7048,"Ġfairly":7049,"ĠSweden":7050,"Ġyeare":7051,"Ġinitiative":7052,"Ġenvironment":7053,"problems":7054,"roversial":7055,"alladur":7056,"Dec":7057,"Fed":7058,"Sen":7059,"Secretary":7060,"cc":7061,"efin":7062,"securities":7063,"wise":7064,"yield":7065,"esaid":7066,"Ġcanc":7067,"Ġcivil":7068,"already":7069,"Ġinsur":7070,"rock":7071,"aser":7072,"Ġlisting":7073,"Ġhon":7074,"ĠCap":7075,"Ġthin":7076,"ĠMITI":7077,"Ġprohib":7078,"oshib":7079,"ĠPetro":7080,"ulations":7081,"Ġrally":7082,"ĠDallas":7083,"ivestock":7084,"Ġcompanysaid":7085,"outhe":7086,"Ġacknowled":7087,"Ġimm":7088,"viation":7089,"ĠKidder":7090,"arget":7091,"ĠUniversity":7092,"Ġfirstquarter":7093,"Ġremainder":7094,"Ġattention":7095,"meal":7096,"Ġnearby":7097,"Ġlooks":7098,"Ġintroduction":7099,"Ġengines":7100,"provision":7101,"Britain":7102,"Ġrelationship":7103,"ĠOrganisation":7104,"Prime":7105,"competitive":7106,"Indones":7107,"Ġsuffered":7108,"Ġdeadline":7109,"Ġdocuments":7110,"iacom":7111,"Ge":7112,"Im":7113,"fr":7114,"git":7115,"hous":7116,"iates":7117,"lor":7118,"rs":7119,"Ġrow":7120,"Ġult":7121,"Ġturned":7122,"ĠtheInternational":7123,"Ġpushed":7124,"Ġoften":7125,"Ġreference":7126,"ĠRATE":7127,"ĠSOY":7128,"terdam":7129,"ĠMortgage":7130,"Ġcontribution":7131,"ĠLake":7132,"ewhere":7133,"ĠGreat":7134,"ubordinated":7135,"ĠOkl":7136,"construction":7137,"ifth":7138,"merger":7139,"Ġfirmer":7140,"ĠBankAmerica":7141,"Ġearthquake":7142,"ĠKi":7143,"Ġlots":7144,"particip":7145,"Ġrains":7146,"Ġmovements":7147,"ĠPayable":7148,"Ġspecialty":7149,"Development":7150,"Ġcertainly":7151,"Ġclearing":7152,"Ġclearly":7153,"Ġmaintained":7154,"ĠIND":7155,"Ġunsecured":7156,"Ġdiplomat":7157,"Ġexperts":7158,"Ġretained":7159,"uminum":7160,"Ġeventually":7161,"Ġexpenditures":7162,"Ġeliminate":7163,"Ġprompted":7164,"ĠPrice":7165,"Ġimbalances":7166,"vania":7167,"Ġpopular":7168,"Philipp":7169,"closure":7170,"ĠJustice":7171,"Ġyearearlier":7172,"IX":7173,"borrow":7174,"cott":7175,"futures":7176,"pot":7177,"present":7178,"ua":7179,"Ġir":7180,"eres":7181,"Ġschedule":7182,"ĠSoci":7183,"Ġstem":7184,"usion":7185,"ĠNomura":7186,"ĠInt":7187,"ĠDuring":7188,"ewh":7189,"ĠGrow":7190,"Ġ420":7191,"umn":7192,"seven":7193,"ardine":7194,"ellite":7195,"Ġspir":7196,"ibles":7197,"talks":7198,"ensions":7199,"ĠVOL":7200,"chem":7201,"grain":7202,"Ġexpires":7203,"Ġfaces":7204,"hens":7205,"ORN":7206,"Ġpromote":7207,"Union":7208,"Trade":7209,"Ġparticipate":7210,"Ġterminal":7211,"contracts":7212,"Ġcircumstances":7213,"ĠSantos":7214,"Ġchemicals":7215,"Ġmotor":7216,"ĠBelgium":7217,"Ġoccurred":7218,"hancement":7219,"ĠICCO":7220,"ĠVirgin":7221,"respectively":7222,"adelph":7223,"BEAN":7224,"ĠPaineWebber":7225,"adequate":7226,"sylvania":7227,"oshiba":7228,"BA":7229,"EA":7230,"IF":7231,"Ministry":7232,"Vol":7233,"aire":7234,"die":7235,"pret":7236,"wagen":7237,"Ġasthe":7238,"Ġcable":7239,"atisf":7240,"Ġbattle":7241,"Ġmines":7242,"isable":7243,"ilo":7244,"Ġthous":7245,"ĠAUG":7246,"ĠNik":7247,"quoted":7248,"eck":7249,"ĠGood":7250,"ĠGros":7251,"aka":7252,"ĠWireless":7253,"Ġadministr":7254,"Ġmechan":7255,"active":7256,"ĠKansas":7257,"Ġsubsequ":7258,"ĠYasuhiro":7259,"ĠCham":7260,"ountries":7261,"Ġ132":7262,"ĠExploration":7263,"banking":7264,"Ġspeculative":7265,"Ġmarked":7266,"obs":7267,"Ġdetailed":7268,"Ġflat":7269,"Ġliability":7270,"Ġairlines":7271,"producers":7272,"Ġseasonal":7273,"Community":7274,"iamond":7275,"ĠNorthern":7276,"Ġfavour":7277,"Ġdrugs":7278,"Ġexcessive":7279,"ĠHarcourt":7280,"Ġshipped":7281,"Ġseriously":7282,"ĠGreenspan":7283,"opping":7284,"Ġcalculated":7285,"Ġissuance":7286,"ĠNASDAQ":7287,"initial":7288,"unchanged":7289,"Ġguilder":7290,"ĠHanover":7291,"adelphia":7292,"CP":7293,"ION":7294,"IBM":7295,"face":7296,"key":7297,"sm":7298,"Ġsemiconductors":7299,"report":7300,"restruct":7301,"ĠtheB":7302,"Ġtool":7303,"stake":7304,"ĠRet":7305,"ĠSterling":7306,"ĠSpanish":7307,"uns":7308,"Ġstations":7309,"ĠBanque":7310,"reserves":7311,"igel":7312,"Ġ1979":7313,"rack":7314,"ĠLP":7315,"ĠHis":7316,"ĠWhen":7317,"ĠWHEAT":7318,"agers":7319,"Ġresc":7320,"ervis":7321,"angu":7322,"forecast":7323,"Ġdownward":7324,"roll":7325,"ĠSept":7326,"Ġfalls":7327,"Ġpublicly":7328,"Ġexpense":7329,"Ġflood":7330,"Ġpriority":7331,"Ġimproving":7332,"State":7333,"atorium":7334,"Ġ2002":7335,"ĠSpec":7336,"pecified":7337,"Ġmanufacturer":7338,"Ġexplained":7339,"increasing":7340,"Ġaffecting":7341,"ĠClub":7342,"Ġswitch":7343,"Ġruns":7344,"marks":7345,"Ġhousing":7346,"Ġresolution":7347,"Brazilian":7348,"Ġworst":7349,"ĠPeru":7350,"ĠKuwaiti":7351,"Ġhappen":7352,"Ġdeterior":7353,"drige":7354,"Ġpledged":7355,"ĠTransportation":7356,"York":7357,"coupon":7358,"hour":7359,"rong":7360,"uff":7361,"vanced":7362,"wt":7363,"eria":7364,"Ġsave":7365,"itan":7366,"alys":7367,"ĠofM":7368,"omorrow":7369,"Ġrevers":7370,"ĠTenn":7371,"Ġthre":7372,"ĠSP":7373,"ĠAverage":7374,"ĠMur":7375,"ĠBang":7376,"Ġ195":7377,"ĠNic":7378,"dum":7379,"ĠFR":7380,"Ġitsboard":7381,"Ġunus":7382,"ounder":7383,"Ġaggressive":7384,"umes":7385,"perial":7386,"berger":7387,"former":7388,"ĠĠĠĠĠĠĠĠĠĠĠĠĠĠĠĠĠ":7389,"Ġoutcome":7390,"ervices":7391,"conomic":7392,"ĠMarine":7393,"ĠDeputy":7394,"ĠThai":7395,"Ġweaker":7396,"Ġ169":7397,"ĠFinal":7398,"verseas":7399,"Ġgoes":7400,"Ġgrades":7401,"Ġstudies":7402,"ĠInterstate":7403,"balance":7404,"Comp":7405,"Ġstrategic":7406,"Ġresolved":7407,"Ġbooks":7408,"Ġtroops":7409,"France":7410,"Ġmachinery":7411,"Swiss":7412,"idelines":7413,"ĠBaa":7414,"Ġhistory":7415,"Ġcontribute":7416,"Ġadequate":7417,"empts":7418,"ĠEDT":7419,"125":7420,"DS":7421,"EX":7422,"Gold":7423,"No":7424,"Tokyo":7425,"hares":7426,"iant":7427,"joint":7428,"pending":7429,"rd":7430,"Ġself":7431,"Ġselected":7432,"Ġwidespread":7433,"Ġfores":7434,"Ġvict":7435,"imony":7436,"Ġranges":7437,"ĠHam":7438,"Ġhear":7439,"aces":7440,"traders":7441,"rent":7442,"rence":7443,"Ġdiss":7444,"hran":7445,"Ġdivest":7446,"kswagen":7447,"venture":7448,"depos":7449,"dealers":7450,"Ġheadquarters":7451,"Ġstudying":7452,"Ġswap":7453,"Ġexpanding":7454,"Ġdamaged":7455,"ĠMexican":7456,"backed":7457,"RAD":7458,"Ġsomething":7459,"Ġparliamentary":7460,"Ġrapidly":7461,"Ġincentives":7462,"Ġhalted":7463,"Ġresignation":7464,"ĠWestGermany":7465,"Ġappreciation":7466,"Ġsmelter":7467,"several":7468,"Ġeligible":7469,"ĠKiichi":7470,"chemical":7471,"Calif":7472,"MM":7473,"bol":7474,"base":7475,"basis":7476,"govern":7477,"ries":7478,"Ġtariff":7479,"alks":7480,"Ġmixed":7481,"Ġinn":7482,"Ġinits":7483,"utz":7484,"entially":7485,"etime":7486,"ĠIC":7487,"until":7488,"ira":7489,"earing":7490,"ateg":7491,"Ġpctin":7492,"ĠJim":7493,"Ġaggreg":7494,"performance":7495,"udge":7496,"Ġabol":7497,"ervice":7498,"ĠtoldReuters":7499,"Ġ133":7500,"Ġplanes":7501,"Ġ163":7502,"graph":7503,"Ġdealings":7504,"Ġuses":7505,"Ġconsolidated":7506,"flow":7507,"Ġreceiving":7508,"uffic":7509,"Ġbidding":7510,"Ġrestrain":7511,"Ġaffairs":7512,"ĠBoes":7513,"Ġmatch":7514,"Ġadjustments":7515,"Ġblack":7516,"Ġcaution":7517,"ientific":7518,"decline":7519,"Ġmedical":7520,"Ġdepending":7521,"planned":7522,"Ġbehalf":7523,"Ġorganization":7524,"Ġpractice":7525,"deliver":7526,"ĠSwedish":7527,"Ġdocument":7528,"olivia":7529,"Ġprocedures":7530,"francs":7531,"Ġhuman":7532,"Ġlitigation":7533,"Government":7534,"gas":7535,"gold":7536,"ij":7537,"purchase":7538,"inical":7539,"Ġcities":7540,"ari":7541,"Ġfoot":7542,"ĠinDecember":7543,"Ġreferring":7544,"ĠConn":7545,"ĠCME":7546,"ĠIV":7547,"Ġgrace":7548,"ĠBull":7549,"aby":7550,"acy":7551,"Ġplun":7552,"Ġreserv":7553,"Ġchain":7554,"Ġoverthe":7555,"Ġdebtors":7556,"Ġjet":7557,"Ġ137":7558,"Ġindirect":7559,"Ġtalking":7560,"ippi":7561,"ĠResults":7562,"Ġminers":7563,"Ġfactory":7564,"ĠĠĠĠĠĠĠĠĠĠĠĠĠĠĠĠĠĠ":7565,"ĠCenter":7566,"Ġpromised":7567,"like":7568,"ĠArgentine":7569,"Ġstabilise":7570,"Ġencouraging":7571,"vironmental":7572,"Ġindividuals":7573,"Ġbullish":7574,"Ġstrengthen":7575,"bassy":7576,"Ġfundamentals":7577,"ĠLouisiana":7578,"Ġmicroch":7579,"Ġrupees":7580,"ĠSarney":7581,"Bel":7582,"Dutch":7583,"Mal":7584,"UME":7585,"firms":7586,"iatory":7587,"vs":7588,"inced":7589,"Ġsulphur":7590,"atible":7591,"Ġbere":7592,"Ġfaster":7593,"Ġfranch":7594,"Ġtof":7595,"Ġtobuy":7596,"Ġdn":7597,"utions":7598,"Ġlose":7599,"Ġhundred":7600,"Ġitem":7601,"Ġitexpects":7602,"ĠMu":7603,"Ġgall":7604,"ĠBalladur":7605,"otterdam":7606,"ĠFOR":7607,"Ġconfl":7608,"ĠDr":7609,"Ġwhil":7610,"Ġnotice":7611,"ĠWang":7612,"concer":7613,"Ġleveraged":7614,"Ġofferings":7615,"issions":7616,"aval":7617,"Ġapparently":7618,"ountain":7619,"Ġassume":7620,"Ġassembly":7621,"ĠVen":7622,"Ġenj":7623,"Ġgrowers":7624,"Ġapprovals":7625,"ĠAlger":7626,"Ġcorrespond":7627,"ahoma":7628,"Ġbroke":7629,"Ġcarrier":7630,"Ġsimply":7631,"EST":7632,"Ġprospectus":7633,"Ġgenerated":7634,"Ġcheck":7635,"ĠMetal":7636,"Ġlaunching":7637,"Ġcollect":7638,"Ġzinc":7639,"ĠFrankfurt":7640,"ĠPrices":7641,"Ġfraud":7642,"Ġcooperate":7643,"Ġbarriers":7644,"ervisory":7645,"Bar":7646,"GATT":7647,"HL":7648,"Hong":7649,"IMF":7650,"Pe":7651,"iem":7652,"vised":7653,"revenues":7654,"Ġpowers":7655,"Ġbarg":7656,"Ġwatch":7657,"Ġmutual":7658,"Ġtour":7659,"Ġliving":7660,"stone":7661,"Ġrevolving":7662,"ĠRubber":7663,"Ġitis":7664,"ĠSeveral":7665,"lner":7666,"ĠIv":7667,"ĠMicro":7668,"rap":7669,"olis":7670,"ĠNE":7671,"quest":7672,"Ġasking":7673,"ĠLank":7674,"ĠHIGH":7675,"ĠGene":7676,"Ġheart":7677,"Ġ480":7678,"play":7679,"ambia":7680,"tron":7681,"ĠOl":7682,"comment":7683,"Ġlev":7684,"Ġcontained":7685,"Ġquite":7686,"ebted":7687,"issuing":7688,"Ġ159":7689,"Ġ138":7690,"Ġkm":7691,"Ġ168":7692,"grains":7693,"ointment":7694,"Ġrefined":7695,"department":7696,"Ġeffectively":7697,"ounded":7698,"Ġcomparedwith":7699,"without":7700,"ĠUSSR":7701,"ĠPhillips":7702,"Chicago":7703,"stantial":7704,"producing":7705,"officer":7706,"Ġarranged":7707,"ĠNorway":7708,"ĠNoranda":7709,"ĠMcDonnell":7710,"Ġkeeping":7711,"ĠKorean":7712,"Ġcritical":7713,"supply":7714,"Ġidentify":7715,"Ġelectricity":7716,"Ġabsorb":7717,"Ġmerchant":7718,"Ġentitled":7719,"ĠBecause":7720,"Ġfrozen":7721,"Ġworried":7722,"ĠDominion":7723,"GL":7724,"JUN":7725,"PP":7726,"SO":7727,"Sch":7728,"Will":7729,"dep":7730,"haps":7731,"lock":7732,"since":7733,"total":7734,"reached":7735,"Ġthecurrent":7736,"Ġcancell":7737,"Ġansw":7738,"Ġandother":7739,"Ġrein":7740,"Ġreverse":7741,"ĠTR":7742,"ĠRock":7743,"ĠRio":7744,"ĠApr":7745,"Ġ220":7746,"ĠPent":7747,"ĠWis":7748,"ifts":7749,"Ġresum":7750,"days":7751,"issippi":7752,"Ġ154":7753,"Ġquarters":7754,"ĠVideo":7755,"Ġamid":7756,"Ġhighs":7757,"ĠNewYork":7758,"loans":7759,"razy":7760,"Ġarm":7761,"160":7762,"Ġslight":7763,"Ġmaintenance":7764,"Ġavail":7765,"Ġauto":7766,"Ġplanting":7767,"ĠManufacturers":7768,"ĠConable":7769,"Ġreasonable":7770,"Ġviolations":7771,"levels":7772,"Ġcoalition":7773,"ADB":7774,"Ġmachines":7775,"thirds":7776,"Ġtankers":7777,"Ġcriticism":7778,"costs":7779,"protection":7780,"Ġfighting":7781,"Ġconcentrate":7782,"ĠAffairs":7783,"uccessful":7784,"Ġmassive":7785,"Ġbottom":7786,"declared":7787,"Ġcompetitiveness":7788,"Ġphysical":7789,"iemens":7790,"Br":7791,"Cit":7792,"Democr":7793,"Sp":7794,"Saudi":7795,"TO":7796,"barrel":7797,"col":7798,"counter":7799,"fiscal":7800,"firm":7801,"haul":7802,"need":7803,"warr":7804,"Ġtent":7805,"erious":7806,"Ġcas":7807,"Ġcif":7808,"aragu":7809,"Ġpool":7810,"ala":7811,"Ġina":7812,"Ġinquir":7813,"Ġdairy":7814,"uth":7815,"eta":7816,"ĠRad":7817,"ĠSand":7818,"ĠAz":7819,"Ġmlnstg":7820,"Ġ230":7821,"Ġisland":7822,"Ġexist":7823,"Ġexact":7824,"Ġ1978":7825,"eco":7826,"ĠHill":7827,"accord":7828,"compl":7829,"ĠCooperation":7830,"iang":7831,"ĠMarg":7832,"Ġ151":7833,"Ġoperator":7834,"Ġ117":7835,"Ġ2012":7836,"Ġfinanced":7837,"ĠAnt":7838,"rane":7839,"Ġslaughter":7840,"Ġmerged":7841,"ĠUSA":7842,"continuing":7843,"Ġthesecond":7844,"Ġtestimony":7845,"Ġsettled":7846,"Ġvotes":7847,"ĠWein":7848,"Ġlicences":7849,"atinum":7850,"announcement":7851,"Ġsolve":7852,"ĠIndonesian":7853,"Ġleadership":7854,"Ġlawsuit":7855,"raphics":7856,"ĠDenmark":7857,"Ġjudgment":7858,"Ġsatisfactory":7859,"ĠFrancisco":7860,"developed":7861,"Ġtype":7862,"ĠBurlington":7863,"Period":7864,"oconut":7865,"Ġringgit":7866,"ĠUtilities":7867,"AX":7868,"BP":7869,"Bro":7870,"DV":7871,"Fl":7872,"care":7873,"filed":7874,"gener":7875,"hd":7876,"lon":7877,"morning":7878,"post":7879,"points":7880,"Ġsinking":7881,"anese":7882,"Ġtheworld":7883,"Ġtheeconomy":7884,"ora":7885,"Ġcorp":7886,"Ġben":7887,"Ġword":7888,"Ġmaj":7889,"Ġtost":7890,"ĠCas":7891,"ĠCash":7892,"Ġbecoming":7893,"those":7894,"Ġongoing":7895,"Ġgilt":7896,"Ġ2000":7897,"Ġ215":7898,"ĠPress":7899,"ĠNaz":7900,"ĠLines":7901,"ĠGovernor":7902,"rick":7903,"oung":7904,"ancy":7905,"Ġupto":7906,"Ġdisk":7907,"ĠMarc":7908,"eyer":7909,"Ġaccum":7910,"Ġprovince":7911,"ĠAlbert":7912,"indicated":7913,"Ġexpensive":7914,"ĠAgricultural":7915,"ĠArmy":7916,"Ġmatters":7917,"Ġemployee":7918,"Ġpersonnel":7919,"Ġwarning":7920,"Ġindication":7921,"quidity":7922,"declined":7923,"Ġinstitute":7924,"Ġexperience":7925,"ĠBarney":7926,"ĠAuthority":7927,"Ġpounds":7928,"orgia":7929,"Ġdrawn":7930,"Ġarrangements":7931,"Argent":7932,"umbers":7933,"introduced":7934,"ĠMerch":7935,"Afric":7936,"Ġmoratorium":7937,"ĠFairchild":7938,"agreements":7939,"certificates":7940,"ĠEarnings":7941,"measures":7942,"Ġjournalists":7943,"Ġincurred":7944,"'d":7945,"AO":7946,"DR":7947,"HP":7948,"Mon":7949,"NO":7950,"car":7951,"data":7952,"sel":7953,"Ġawait":7954,"Ġsun":7955,"Ġsour":7956,"Ġsolid":7957,"Ġtheend":7958,"itely":7959,"alified":7960,"Ġfix":7961,"Ġdin":7962,"Ġded":7963,"election":7964,"ĠAa":7965,"charge":7966,"olf":7967,"ĠPret":7968,"ĠEr":7969,"ĠJr":7970,"Ġwhite":7971,"ĠGar":7972,"emon":7973,"Ġtried":7974,"eex":7975,"trations":7976,"Ġ747":7977,"oster":7978,"ape":7979,"Ġdebenture":7980,"aves":7981,"Ġassur":7982,"Ġ167":7983,"Ġusually":7984,"875":7985,"Ġworks":7986,"Ġexpired":7987,"Ġrelative":7988,"ĠUSX":7989,"oviets":7990,"Ġconcerning":7991,"stocks":7992,"offered":7993,"ĠColumbia":7994,"Ġfavourable":7995,"Ġpharmaceutical":7996,"ĠEddie":7997,"sterdam":7998,"Ġstabilize":7999,"controlled":8000,"Reserve":8001,"Ġillegal":8002,"Ġintervened":8003,"ĠLaboratories":8004,"ĠBahrain":8005,"particular":8006,"eneficial":8007,"East":8008,"KR":8009,"LI":8010,"SS":8011,"Western":8012,"ement":8013,"ny":8014,"pac":8015,"xy":8016,"yer":8017,"Ġess":8018,"inness":8019,"Ġastatement":8020,"anon":8021,"Ġtheprevious":8022,"ituation":8023,"enk":8024,"Ġbit":8025,"Ġwaters":8026,"Ġfreight":8027,"ingent":8028,"Ġreiterated":8029,"ĠTO":8030,"ĠCPC":8031,"Ġmlnshares":8032,"Ġventures":8033,"ĠMobil":8034,"anks":8035,"ulators":8036,"ĠLAST":8037,"Ġaluminium":8038,"arked":8039,"udes":8040,"season":8041,"Ġspin":8042,"Ġchanging":8043,"Ġ107":8044,"cluding":8045,"owners":8046,"Ġ136":8047,"Ġdivisions":8048,"ships":8049,"Ġconservative":8050,"Ġartic":8051,"meet":8052,"ANK":8053,"Ġbegins":8054,"Ġindicators":8055,"ucky":8056,"ortgages":8057,"backs":8058,"Ġtwice":8059,"Ġeastern":8060,"Ġgenerate":8061,"options":8062,"Ġdiscontinuedoperations":8063,"Ġnormally":8064,"Ġmissile":8065,"Ġrecommendations":8066,"Ġtiming":8067,"Ġdetermin":8068,"losses":8069,"Ġcompensation":8070,"ĠMTHS":8071,"immediately":8072,"ĠTehran":8073,"Ġfinished":8074,"Ġfluctuations":8075,"ĠVirginia":8076,"ae":8077,"ds":8078,"family":8079,"wheat":8080,"information":8081,"Ġsens":8082,"Ġsnow":8083,"atically":8084,"Ġbales":8085,"Ġmen":8086,"ider":8087,"Ġha":8088,"ĠTreas":8089,"ĠCost":8090,"ĠRel":8091,"Ġstance":8092,"Ġprove":8093,"oses":8094,"rag":8095,"ĠPont":8096,"ĠPolicy":8097,"uses":8098,"Ġ320":8099,"ĠUAW":8100,"uper":8101,"ĠDlr":8102,"ubs":8103,"odies":8104,"claim":8105,"conn":8106,"ĠIncome":8107,"opening":8108,"Ġlastmonth":8109,"Ġproduces":8110,"Ġfirmed":8111,"probably":8112,"Ġunderstanding":8113,"Ġ113":8114,"ĠChirac":8115,"Ġ144":8116,"ĠViacom":8117,"eps":8118,"Ġsecret":8119,"ĠOnly":8120,"Ġcovers":8121,"ĠECU":8122,"marketing":8123,"Ġformally":8124,"Ġputting":8125,"ĠElectronics":8126,"Ġswaps":8127,"Ġreplaced":8128,"Ġslowed":8129,"Ġvariety":8130,"Ġattacks":8131,"Ġattacked":8132,"ĠPennsylvania":8133,"Ġredeemable":8134,"Ġterminated":8135,"Ġresponsibility":8136,"ĠDaniel":8137,"scale":8138,"Ġdueto":8139,"Electric":8140,"outheast":8141,"Indonesia":8142,"),\"":8143,"340":8144,"CS":8145,"Hold":8146,"ICC":8147,"John":8148,"Mid":8149,"Morgan":8150,"With":8151,"even":8152,"each":8153,"eaker":8154,"negotiations":8155,"technology":8156,"Ġ.":8157,"Ġtell":8158,"Ġsli":8159,"enc":8160,"eder":8161,"Ġwa":8162,"ented":8163,"Ġlosing":8164,"Ġefficiency":8165,"ĠRain":8166,"ĠSil":8167,"ĠSears":8168,"urplus":8169,"ĠIc":8170,"Ġbeet":8171,"cher":8172,"Ġvo":8173,"ĠMths":8174,"otes":8175,"imary":8176,"Ġ340":8177,"ĠFerr":8178,"ĠInit":8179,"oca":8180,"ĠJac":8181,"ĠDisc":8182,"ĠLOW":8183,"ĠHung":8184,"ĠGill":8185,"ples":8186,"exper":8187,"ptions":8188,"These":8189,"cludes":8190,"Ġmeal":8191,"issan":8192,"activ":8193,"izens":8194,"Ġlob":8195,"Ġaccused":8196,"Ġassigned":8197,"ikh":8198,"Ġamajor":8199,"bean":8200,"Ġsets":8201,"Ġ1999":8202,"Ġactually":8203,"Ġslide":8204,"echnical":8205,"Ġminus":8206,"Ġdifference":8207,"Ġthenew":8208,"Ġstead":8209,"ĠAtt":8210,"Ġdefault":8211,"Ġfailing":8212,"Ġindicate":8213,"Ġsuspend":8214,"Ġdelegation":8215,"option":8216,"Ġpurpose":8217,"Ġcheap":8218,"agnost":8219,"Ġcargoes":8220,"ĠAlliance":8221,"Ġpresence":8222,"ĠTurkish":8223,"usterity":8224,"Ġfavorable":8225,"Ġlifted":8226,"uggish":8227,"ĠPlanning":8228,"Ġimplications":8229,"Ġplatform":8230,"directors":8231,"capacity":8232,"ĠVOLUME":8233,"restructuring":8234,"ĠBoesky":8235,"420":8236,"NC":8237,"Penn":8238,"Roy":8239,"corporate":8240,"fect":8241,"har":8242,"oly":8243,"uer":8244,"inations":8245,"Ġaware":8246,"Ġciting":8247,"Ġcateg":8248,"asil":8249,"Ġsaidthat":8250,"enter":8251,"Ġhospital":8252,"ĠRail":8253,"ĠSo":8254,"ĠSuisse":8255,"ĠBen":8256,"Ġwaste":8257,"ĠGE":8258,"above":8259,"anti":8260,"Ġhadbeen":8261,"ighted":8262,"ervous":8263,"Ġapparent":8264,"ensus":8265,"wealth":8266,"Ġsupports":8267,"Ġsupplement":8268,"ĠCommun":8269,"away":8270,"Ġ185":8271,"Ġproductivity":8272,"Ġserved":8273,"Ġslump":8274,"Ġattempts":8275,"where":8276,"within":8277,"Ġamounted":8278,"Stock":8279,"ĠGenerale":8280,"Ġheads":8281,"Ġcausing":8282,"Ġrevision":8283,"Ġtomake":8284,"ettlement":8285,"ĠColor":8286,"Ġsupplier":8287,"electric":8288,"Ġflows":8289,"ĠControl":8290,"ĠPeking":8291,"Ġexercisable":8292,"ĠDelaware":8293,"businesses":8294,"ĠWilliams":8295,"Ġelectrical":8296,"ĠEquity":8297,"ĠFoods":8298,"Ġeduc":8299,"uzzi":8300,"ĠEntertainment":8301,"What":8302,"Ġzone":8303,"ĠWarburg":8304,"proposals":8305,"bassador":8306,"helps":8307,"Shearson":8308,"traordinary":8309,"ĠAllegheny":8310,"Ġemphas":8311,"Ġarbitrage":8312,"120":8313,"360":8314,"EAR":8315,"HI":8316,"Singapore":8317,"eat":8318,"eeting":8319,"mes":8320,"nation":8321,"institutions":8322,"Ġaver":8323,"Ġsweet":8324,"orse":8325,"Ġbourse":8326,"Ġwest":8327,"Ġdual":8328,"ilts":8329,"ilton":8330,"omen":8331,"Ġharm":8332,"ĠCopper":8333,"add":8334,"Ġones":8335,"Ġstream":8336,"Ġprob":8337,"Ġ260":8338,"earns":8339,"olina":8340,"ĠNev":8341,"ques":8342,"oche":8343,"ĠJardine":8344,"ĠWil":8345,"agaz":8346,"agricultural":8347,"managers":8348,"existing":8349,"Ġcontra":8350,"Ġsharesof":8351,"ĠStart":8352,"Ġforeignexchange":8353,"Ġ161":8354,"cession":8355,"loat":8356,"Ġsurprise":8357,"Ġ1993":8358,"Ġcool":8359,"Ġcru":8360,"Ġcrush":8361,"Ġ277":8362,"Ġexporting":8363,"Ġminutes":8364,"Ġconsiderable":8365,"Ġfacing":8366,"CCC":8367,"ormal":8368,"pressure":8369,"Ġmanufacture":8370,"ĠMoney":8371,"ĠPhilips":8372,"Ġreturns":8373,"Ġreplied":8374,"ITY":8375,"Ġvariable":8376,"Ġreaching":8377,"stitutional":8378,"ĠPeople":8379,"ĠRepublicans":8380,"transaction":8381,"Ġkilo":8382,"ĠCLSG":8383,"belie":8384,"authorized":8385,"Shell":8386,"covering":8387,"oneywell":8388,"priations":8389,"Ġconsistent":8390,"Ġcontrast":8391,"Ġinfluence":8392,"Lawn":8393,"whether":8394,"Ġreluctant":8395,"ircuit":8396,"Ġdemonstr":8397,"ĠToyota":8398,"ĠOklahoma":8399,"ĠLanka":8400,".>":8401,"eight":8402,"how":8403,"hai":8404,"late":8405,"necessary":8406,"Ġiron":8407,"Ġsk":8408,"itate":8409,"ids":8410,"Ġtoincrease":8411,"Ġtoshareholders":8412,"Ġdrain":8413,"Ġdram":8414,"Ġdumping":8415,"Ġhrs":8416,"ĠAL":8417,"ĠAqu":8418,"thy":8419,"Ġvideo":8420,"ĠMitsubishi":8421,"Ġgra":8422,"osion":8423,"Ġdlrsper":8424,"ĠUse":8425,"Ġranged":8426,"ĠDigital":8427,"ĠWy":8428,"odge":8429,"conduct":8430,"ignal":8431,"Ġquant":8432,"apolis":8433,"ĠCooper":8434,"Ġofficially":8435,"egates":8436,"ĠChile":8437,"Ġexpectedto":8438,"Ġrefining":8439,"Ġsurge":8440,"Ġsecure":8441,"Ġreceipts":8442,"Ġflight":8443,"Ġwells":8444,"Ġsense":8445,"Ġlawyers":8446,"INs":8447,"ĠPrudential":8448,"notes":8449,"Ġunderwritten":8450,"Ġblamed":8451,"Ġdiscussion":8452,"Ġlegisl":8453,"ĠLead":8454,"ĠClark":8455,"Ġsubordinateddebentures":8456,"Ġenterprises":8457,"Ġaims":8458,"Ġtemper":8459,"ĠIsland":8460,"ĠPrev":8461,"Ġretaliate":8462,"adesh":8463,"creditors":8464,"Ġcirculation":8465,"Ġrebate":8466,"Ġoptimism":8467,"Ġrenegoti":8468,"ĠMontreal":8469,"ydney":8470,"ĠSumitomo":8471,"ĠCoastal":8472,"ĠBaldrige":8473,"Ġfundamental":8474,"Ġretirement":8475,"ooth":8476,"Ġcomprising":8477,"Ġdepartments":8478,"ĠOffered":8479,"Republic":8480,"combined":8481,"ĠBroadcasting":8482,"ĠUtah":8483,"hensive":8484,"Malays":8485,"AE":8486,"CE":8487,"DI":8488,"fact":8489,"figures":8490,"lim":8491,"ladesh":8492,"negoti":8493,"sewhere":8494,"ĠtheEuropean":8495,"oro":8496,"alties":8497,"icate":8498,"Ġandwill":8499,"stutz":8500,"Ġnumbers":8501,"ĠCard":8502,"ĠRud":8503,"illy":8504,"ĠAlex":8505,"Ġbecomes":8506,"veiled":8507,"othe":8508,"Ġdlrsand":8509,"ĠNigel":8510,"Ġ330":8511,"ĠFitz":8512,"ĠbyMoody":8513,"ĠEMS":8514,"ĠLuf":8515,"ework":8516,"astics":8517,"ĠOs":8518,"opport":8519,"Ġresistance":8520,"priv":8521,"forwards":8522,"istill":8523,"ĠKa":8524,"oind":8525,"izations":8526,"Ġ143":8527,"party":8528,"Ġtotaling":8529,"Ġrepair":8530,"Ġcenters":8531,"ĠAmericans":8532,"Ġsurpr":8533,"Ġactively":8534,"uffer":8535,".....":8536,"Ġowner":8537,"oving":8538,"Ġchiefexecutive":8539,"Ġairport":8540,"Ġcoverage":8541,"Ġbalanced":8542,"ĠBrokers":8543,"Ġpackages":8544,"ĠAmoco":8545,"ĠAmsterdam":8546,"Ġpowerful":8547,"aiwa":8548,"Ġhandling":8549,"Ġsuppliers":8550,"Trust":8551,"Ġunspecified":8552,"sthrough":8553,"Ġnationwide":8554,"Ġideas":8555,"Ġimplemented":8556,"Friday":8557,"ĠDefence":8558,"Ġcriticised":8559,"Ġdestroy":8560,"Industries":8561,"Ġhotels":8562,"cription":8563,"Ġmemory":8564,"ĠMONTH":8565,"accrual":8566,"elligence":8567,"ynamics":8568,"ĠVenice":8569,"Ġanswer":8570,"ĠAquino":8571,"375":8572,"AA":8573,"Systems":8574,"fav":8575,"iat":8576,"nations":8577,"tech":8578,"vision":8579,"iter":8580,"Ġcat":8581,"arp":8582,"Ġfulf":8583,"Ġtoa":8584,"isations":8585,"ione":8586,"etic":8587,"stood":8588,"ĠSy":8589,"ĠSoviets":8590,"leading":8591,"Ġproved":8592,"ĠBear":8593,"Ġexporter":8594,"Ġpctfrom":8595,"ĠPers":8596,"ĠFEB":8597,"Ġran":8598,"ĠJack":8599,"ĠLocal":8600,"output":8601,"agency":8602,"manufact":8603,"mery":8604,"Ġupper":8605,"Ġcomply":8606,"identified":8607,"ropol":8608,"Ġ158":8609,"anghai":8610,"egu":8611,"Ġ141":8612,"Ġ142":8613,"ĠExchequer":8614,"Ġinterestrates":8615,"Ġpropose":8616,"Ġremove":8617,"Ġdowngrade":8618,"monetary":8619,"Ġspecify":8620,"Ġpresidential":8621,"Ġ1995":8622,"Ġguidelines":8623,"Ġcompletely":8624,"Ġbacklog":8625,"Ġrealized":8626,"Ġvolunt":8627,"Ġmiddle":8628,"Ġoppose":8629,"Ġbrand":8630,"acquire":8631,"consin":8632,"ĠConsumer":8633,"Ġrecovered":8634,"Ġfinding":8635,"Ġpolls":8636,"Ġexercised":8637,"Ġcompliance":8638,"Ġtonight":8639,"Ġfri":8640,"Ġmultilateral":8641,"ĠScott":8642,"broker":8643,"Ġmotion":8644,"services":8645,"Ġflexible":8646,"Ġhotel":8647,"ĠJoseph":8648,"Ġconvinced":8649,"Ġsustained":8650,"Ġgradually":8651,"ĠPortugal":8652,"political":8653,"Ġacknowledged":8654,"ĠSOYBEAN":8655,"ĠPretax":8656,"IM":8657,"Is":8658,"NS":8659,"OSE":8660,"Petroleum":8661,"bury":8662,"benefit":8663,"hould":8664,"kong":8665,"mo":8666,"mut":8667,"much":8668,"uay":8669,"ulner":8670,"Ġet":8671,"oria":8672,"Ġcode":8673,"Ġpork":8674,"Ġpict":8675,"although":8676,"Ġfer":8677,"Ġfine":8678,"ingthe":8679,"oured":8680,"store":8681,"Ġnervous":8682,"ĠTOT":8683,"ĠSat":8684,"Ġfora":8685,"Ġvital":8686,"ĠMic":8687,"ĠMass":8688,"Ġproportion":8689,"Ġdlrsof":8690,"Ġdeferred":8691,"Ġ1970":8692,"ĠNab":8693,"Ġ380":8694,"ules":8695,"Ġriy":8696,"Ġaside":8697,"ĠEEP":8698,"ĠDa":8699,"ĠDi":8700,"empor":8701,"class":8702,"clays":8703,"Ġhavebeen":8704,"Ġpermission":8705,"Ġcontroversial":8706,"Ġoutlined":8707,"ĠKo":8708,"Ġrough":8709,"ĠExecutive":8710,"Ġstruck":8711,"Ġ166":8712,"Ġconsists":8713,"Ġ174":8714,"Ġregulation":8715,"Ġdownturn":8716,"101":8717,"Ġarrest":8718,"Ġsurv":8719,"echst":8720,"Ġpurchasing":8721,"Ġdelays":8722,"ĠProt":8723,"cents":8724,"annes":8725,"Ġlows":8726,"AND":8727,"ahl":8728,"Ġthenext":8729,"Ġcommented":8730,"increases":8731,"Ġrestructure":8732,"equipment":8733,"Ġviews":8734,"Ġtrack":8735,"Ġpolled":8736,"Ġpatients":8737,"Ġcheaper":8738,"lanta":8739,"Ġtemporarily":8740,"Ġstructural":8741,"ĠGeorgia":8742,"Ġexceeded":8743,"Financial":8744,"Ġtrends":8745,"ĠDividend":8746,"Ġrebels":8747,"brokers":8748,"Swed":8749,"ĠChev":8750,"Ġmomentum":8751,"Ġprivatisation":8752,"Ġtobacco":8753,"Ġcomprised":8754,"principal":8755,"affected":8756,"Central":8757,"August":8758,"Organ":8759,"itrust":8760,"Ġdismissed":8761,"Ġstraight":8762,"Ġprosecut":8763,"ĠWeinberger":8764,"ĠTOTAL":8765,"AM":8766,"Aut":8767,"BI":8768,"Har":8769,"NT":8770,"ba":8771,"bought":8772,"mits":8773,"rum":8774,"ruct":8775,"Ġtone":8776,"Ġsch":8777,"Ġsof":8778,"reland":8779,"iture":8780,"Ġmess":8781,"Ġmission":8782,"Ġder":8783,"Ġdur":8784,"ashed":8785,"ĠToshiba":8786,"ĠCP":8787,"ĠRober":8788,"Ġfors":8789,"union":8790,"Ġgl":8791,"Ġ280":8792,"ĠBass":8793,"ĠUAL":8794,"enda":8795,"ĠLower":8796,"ĠGord":8797,"Ġund":8798,"eman":8799,"udson":8800,"amrock":8801,"ĠWag":8802,"odel":8803,"ĠOverseas":8804,"ague":8805,"exter":8806,"Ġcho":8807,"forcement":8808,"oking":8809,"ulti":8810,"ĠKim":8811,"Ġ121":8812,"ĠDean":8813,"izer":8814,"Ġdivided":8815,"Ġ164":8816,"Ġ171":8817,"Ġcane":8818,"Ġannouncing":8819,"Ġequally":8820,"Ġ270":8821,"Ġautumn":8822,"apped":8823,"Ġrestaur":8824,"ĠFederalReserve":8825,"ological":8826,"ĠShamrock":8827,"ANGE":8828,"ĠZambia":8829,"distribution":8830,"Ġyielding":8831,"affil":8832,"Ġexplore":8833,"Ġinvolves":8834,"ĠConra":8835,"acques":8836,"remain":8837,"consumer":8838,"Ġhandle":8839,"OLD":8840,"OLL":8841,"Ġtravel":8842,"Ġeasily":8843,"Ġbroadly":8844,"Alli":8845,"Ġpattern":8846,"ĠMinerals":8847,"Ġencouraged":8848,"clusion":8849,"guarant":8850,"Ġbullet":8851,"ĠEmploy":8852,"Ġobjective":8853,"Ġassumed":8854,"Ġexception":8855,"ĠAppro":8856,"Ġgrounds":8857,"ĠValley":8858,"Ġseemed":8859,"Ġsafety":8860,"Ġtriggered":8861,"reflect":8862,"ĠRenault":8863,"ufficient":8864,"FL":8865,"LM":8866,"Merrill":8867,"One":8868,"Sal":8869,"VI":8870,"eign":8871,"goods":8872,"might":8873,"ray":8874,"significant":8875,"zan":8876,"inning":8877,"Ġauctions":8878,"Ġausterity":8879,"Ġsend":8880,"Ġsorghum":8881,"anim":8882,"orter":8883,"Ġmention":8884,"Ġleng":8885,"ĠCam":8886,"Ġitwould":8887,"terms":8888,"lders":8889,"units":8890,"lev":8891,"ĠReed":8892,"ĠBally":8893,"Ġ196":8894,"ĠPaper":8895,"ĠNA":8896,"ĠNuclear":8897,"ĠFort":8898,"ĠFollowing":8899,"ulic":8900,"ĠLee":8901,"ĠLME":8902,"ewill":8903,"ĠHa":8904,"ĠHans":8905,"amil":8906,"ferent":8907,"uble":8908,"iple":8909,"Ġperhaps":8910,"ĠStra":8911,"prospect":8912,"Ġinvested":8913,"Ġ116":8914,"Ġ07":8915,"ubled":8916,"Ġenh":8917,"ĠAny":8918,"Ġregions":8919,"Ġbecaus":8920,"Ġpolit":8921,"Ġargu":8922,"bankers":8923,"Ġattorney":8924,"Ġgoals":8925,"poned":8926,"writers":8927,"Ġrestricted":8928,"Ġadvised":8929,"Ġformula":8930,"boost":8931,"ALL":8932,"ĠQtly":8933,"ĠAmstutz":8934,"ĠInvestments":8935,"ĠBrasil":8936,"ĠAcc":8937,"Ġfloat":8938,"ĠConservatives":8939,"spokesman":8940,"Ġtheres":8941,"Ġrefinancing":8942,"ĠEdward":8943,"accine":8944,"ĠLawrence":8945,"ĠImperial":8946,"profitable":8947,"Ġemerged":8948,"Ġocc":8949,"ĠSumita":8950,"Ġpushing":8951,"Ġresponding":8952,"Ġtranches":8953,"Ġimbalance":8954,"Ġinvited":8955,"Ġlicensing":8956,"Ġvolatility":8957,"ĠGerhard":8958,"Ġprovinces":8959,"Ġexclusive":8960,"requirements":8961,"Ġservicing":8962,"anguage":8963,"ĠNicaragu":8964,"Ġunusual":8965,"ĠGeneva":8966,"ropolitan":8967,"Banc":8968,"Mich":8969,"TX":8970,"bill":8971,"future":8972,"prom":8973,"pract":8974,"rid":8975,"rad":8976,"Ġsam":8977,"ena":8978,"aled":8979,"Ġfeas":8980,"ĠofC":8981,"Ġmind":8982,"Ġmortgages":8983,"Ġdigital":8984,"Ġandchief":8985,"etails":8986,"Ġlend":8987,"stream":8988,"Ġhomes":8989,"ĠCross":8990,"ĠCotton":8991,"Ġitcompleted":8992,"advis":8993,"chit":8994,"ĠMoh":8995,"ĠRevenue":8996,"Ġ290":8997,"ĠBra":8998,"Ġisissuing":8999,"Ġyour":9000,"ĠFree":9001,"Ġconstruct":9002,"ĠJa":9003,"ĠDar":9004,"ĠLIBOR":9005,"pling":9006,"overeign":9007,"ellent":9008,"Ġacid":9009,"posite":9010,"ĠStar":9011,"Ġoutright":9012,"acted":9013,"Ġ157":9014,"ĠYEAR":9015,"ĠChief":9016,"Ġassist":9017,"ĠVan":9018,"ointing":9019,"Ġindefin":9020,"Ġthereafter":9021,"struments":9022,"Ġrequests":9023,"Ġpurchas":9024,"Ġreceipt":9025,"inkel":9026,"Ġmergers":9027,"ĠEuropeanCommunity":9028,"Ġsection":9029,"ohl":9030,"ATION":9031,"ĠPhiladelphia":9032,"ĠEconomy":9033,"decision":9034,"Ġregistrations":9035,"subordinated":9036,"Ġdisputes":9037,"Ġnewspapers":9038,"sterling":9039,"ĠProducers":9040,"Ġtosell":9041,"ruguay":9042,"service":9043,"Ġtransportation":9044,"ĠCrude":9045,"OCK":9046,"Ġmerchandise":9047,"ĠPoland":9048,"Ġregarding":9049,"Ġincentive":9050,"itsui":9051,"farmers":9052,"Ġargued":9053,"Ġsymbol":9054,"Ġdisposal":9055,"Ġhedging":9056,"Ġprofess":9057,"ĠFujitsu":9058,"izona":9059,"Ġcounsel":9060,"ewhat":9061,"ĠChamber":9062,"alysis":9063,"William":9064,"ĠPentagon":9065,"barrels":9066,"650":9067,"625":9068,"COR":9069,"Ill":9070,"LY":9071,"Mexic":9072,"Qu":9073,"gn":9074,"known":9075,"must":9076,"six":9077,"sized":9078,"spec":9079,"taken":9080,"Ġign":9081,"Ġapart":9082,"energy":9083,"orian":9084,"Ġpul":9085,"Ġwrong":9086,"Ġfleet":9087,"Ġofc":9088,"Ġofabout":9089,"asaid":9090,"icians":9091,"ĠandExchange":9092,"enthe":9093,"Ġlivestock":9094,"Ġreaffirmed":9095,"ĠTool":9096,"ĠCare":9097,"ĠCrazy":9098,"adding":9099,"ĠSa":9100,"ĠSIL":9101,"ĠSilver":9102,"ĠSri":9103,"ĠAM":9104,"ĠAerospace":9105,"Ġver":9106,"ĠRealty":9107,"ĠBU":9108,"olution":9109,"ĠPINs":9110,"Ġ360":9111,"duce":9112,"Ġconcept":9113,"ĠIntel":9114,"Ġattribut":9115,"ĠDart":9116,"ĠDiplom":9117,"ĠDole":9118,"ewith":9119,"ĠGh":9120,"abr":9121,"abled":9122,"aki":9123,"acq":9124,"ĠWool":9125,"Ġareg":9126,"Ġ650":9127,"Ġadverse":9128,"iba":9129,"Ġperman":9130,"eeking":9131,"Ġdebit":9132,"ĠStearns":9133,"ĠKh":9134,"ritory":9135,"izes":9136,"Ġclinical":9137,"aching":9138,"ĠCommon":9139,"190":9140,"Ġindebted":9141,"ĠNewmont":9142,"Ġ183":9143,"Ġexchangeable":9144,"Ġrefund":9145,"Ġequities":9146,"ĠWestpac":9147,"Ġcorre":9148,"ussels":9149,"ĠStockExchange":9150,"Ġdoesn":9151,"Chairman":9152,"Ġacceptance":9153,"ĠOfficial":9154,"Ġgovernors":9155,"curring":9156,"ĠHolding":9157,"denominated":9158,"Ġexchanged":9159,"Ġexperien":9160,"Ġdifferentials":9161,"Ġtypes":9162,"ĠCLOSE":9163,"oultry":9164,"Ġsubscrib":9165,"Ġhostile":9166,"ĠMississippi":9167,"largest":9168,"ĠKarl":9169,"difficult":9170,"ĠAFG":9171,"Ġcommittees":9172,"California":9173,"oindexter":9174,"ĠSILVER":9175,"DIC":9176,"LME":9177,"Market":9178,"Soviet":9179,"Turk":9180,"ege":9181,"hin":9182,"mine":9183,"pur":9184,"tes":9185,"uels":9186,"voting":9187,"Ġid":9188,"Ġtrem":9189,"Ġtenders":9190,"Ġaerospace":9191,"heim":9192,"alk":9193,"Ġfifth":9194,"Ġreass":9195,"Ġnin":9196,"Ġham":9197,"ĠTH":9198,"ĠRate":9199,"ĠRam":9200,"ĠRost":9201,"least":9202,"ĠMad":9203,"ĠMax":9204,"ĠRefin":9205,"Ġgather":9206,"ĠBolivia":9207,"irates":9208,"olly":9209,"ĠPS":9210,"ĠPal":9211,"ĠPER":9212,"ĠPhelps":9213,"Ġrival":9214,"ocated":9215,"ĠDun":9216,"ivan":9217,"ĠHond":9218,"Ġtrue":9219,"Ġagenda":9220,"ĠWEE":9221,"ĠWaste":9222,"many":9223,"overy":9224,"ordan":9225,"orders":9226,"pects":9227,"Ġchances":9228,"forced":9229,"Ġcontent":9230,"Ġdisrupt":9231,"Ġdisclosure":9232,"ultane":9233,"Ġsegment":9234,"Ġunderstand":9235,"Ġpartially":9236,"egrated":9237,"Ġjun":9238,"ishment":9239,"Ġconsecutive":9240,"Ġrequiring":9241,"Ġextending":9242,"Ġplantings":9243,"pham":9244,"Ġmineral":9245,"preced":9246,"Ġaffair":9247,"rington":9248,"ulford":9249,"ĠZh":9250,"Ġcompeting":9251,"Ġcarriers":9252,"Ġindustrialised":9253,"ĠSpeaker":9254,"easing":9255,"investor":9256,"Ġmanufactured":9257,"parts":9258,"Ġpromot":9259,"ĠInterbank":9260,"Ġfewer":9261,"Communications":9262,"buying":9263,"Ġmedia":9264,"ĠVolkswagen":9265,"subsid":9266,"ecessarily":9267,"ATTLE":9268,"Ġcarryforward":9269,"Ġadvisers":9270,"enezuelan":9271,"Ġconcessions":9272,"Energy":9273,"ĠBlack":9274,"Ġwithdrawal":9275,"ĠJeff":9276,"bras":9277,"Ġintervene":9278,"Ġconfirmation":9279,"Ġclean":9280,"improvement":9281,"Italy":9282,"SLIC":9283,"houses":9284,"Ġenjoy":9285,"ĠNEW":9286,"ĠWisconsin":9287,"Ġawaiting":9288,"particularly":9289,"activities":9290,"Ġlobby":9291,"Ġcrucial":9292,"chitect":9293,"ĠWEEK":9294,"330":9295,"850":9296,"Donald":9297,"Em":9298,"Equ":9299,"break":9300,"drew":9301,"link":9302,"laun":9303,"nine":9304,"oan":9305,"pred":9306,"purpos":9307,"sa":9308,"uits":9309,"vice":9310,"inal":9311,"inch":9312,"Ġsort":9313,"Ġpump":9314,"Ġborder":9315,"Ġwit":9316,"Ġmagaz":9317,"ĠinMarch":9318,"ĠandL":9319,"ĠandP":9320,"Ġanda":9321,"etty":9322,"stac":9323,"Ġreorgan":9324,"ĠSaud":9325,"ĠSao":9326,"ĠAviation":9327,"menting":9328,"ĠIowa":9329,"thly":9330,"threat":9331,"ĠMD":9332,"Ġgone":9333,"Ġgues":9334,"ĠPCT":9335,"Ġyuan":9336,"ĠUpham":9337,"Ġrural":9338,"ĠJudge":9339,"ĠDilson":9340,"ĠHor":9341,"abric":9342,"ĠWard":9343,"ubb":9344,"closing":9345,"expl":9346,"Ġcontains":9347,"Ġlastweek":9348,"irement":9349,"Ġpreced":9350,"Ġdisaster":9351,"vene":9352,"Ġ153":9353,"Ġpartial":9354,"aircraft":9355,"ĠVict":9356,"Ġamended":9357,"partments":9358,"Ġenhance":9359,"Ġconsent":9360,"reedom":9361,"operate":9362,"Ġ265":9363,"Ġaffirmed":9364,"annel":9365,"Ġcontrolling":9366,"Ġlawmakers":9367,"ĠĠĠĠĠĠĠĠĠĠĠĠĠĠĠĠĠĠĠĠĠĠĠĠĠĠĠĠĠĠĠĠ":9368,"Ġsteering":9369,"discontinued":9370,"Ġpersu":9371,"Chalm":9372,"ICO":9373,"aux":9374,"Ġliquidation":9375,"Commerce":9376,"Ġcriteria":9377,"Ġeasing":9378,"ĠGencorp":9379,"Ġwider":9380,"growing":9381,"Ġimplementation":9382,"Ġproceedings":9383,"Ġvirus":9384,"below":9385,"Ġhistor":9386,"Ġyearen":9387,"Ġcoinc":9388,"important":9389,"stimated":9390,"Ġpreparing":9391,"Ġremoved":9392,"Ġoilseeds":9393,"ĠChemLawn":9394,"Ġultimately":9395,"ĠNikko":9396,"ĠAlgeria":9397,"Ġslipped":9398,"Chalmers":9399,")&#":9400,"Credit":9401,"Capital":9402,"GD":9403,"Lyn":9404,"MK":9405,"NG":9406,"OIL":9407,"bon":9408,"cret":9409,"large":9410,"limited":9411,"pons":9412,"sum":9413,"such":9414,"vin":9415,"ye":9416,"Ġtreas":9417,"invol":9418,"recurring":9419,"analyst":9420,"enos":9421,"Ġfob":9422,"Ġtoprovide":9423,"Ġtoacquire":9424,"Ġdied":9425,"ĠandCo":9426,"ouard":9427,"Ġlab":9428,"Ġnom":9429,"ĠRay":9430,"ĠRow":9431,"Ġitagreed":9432,"eld":9433,"ĠSir":9434,"ĠShip":9435,"ĠSemiconductor":9436,"ĠAR":9437,"ĠAk":9438,"Ġforms":9439,"aylor":9440,"chmark":9441,"Ġstick":9442,"Ġstands":9443,"Ġge":9444,"Ġgm":9445,"Ġ286":9446,"results":9447,"iguel":9448,"ĠFer":9449,"ĠUp":9450,"quired":9451,"Ġasubsidiary":9452,"aints":9453,"ĠEs":9454,"ĠJacques":9455,"ĠDP":9456,"ĠDes":9457,"ĠDynamics":9458,"orean":9459,"ĠHall":9460,"rich":9461,"Ġaggress":9462,"udden":9463,"ĠOw":9464,"exerc":9465,"anticip":9466,"ibb":9467,"print":9468,"oks":9469,"isture":9470,"erald":9471,"ressing":9472,"Ġ177":9473,"Ġleadmanager":9474,"Ġ189":9475,"105":9476,"Ġdecree":9477,"Ġdecade":9478,"Ġspeculated":9479,"ĠProfit":9480,"ĠProcess":9481,"commit":9482,"Ġflag":9483,"Ġnegotiators":9484,"anner":9485,"olog":9486,"volume":9487,"Ġformation":9488,"Ġprotein":9489,"Ġvolumes":9490,"eeping":9491,"iented":9492,"Ġimprovements":9493,"Ġthefour":9494,"Ġengaged":9495,"downgraded":9496,"Ġinsured":9497,"legislation":9498,"Ġeasy":9499,"Ġadviser":9500,"ĠFla":9501,"Ġautomotive":9502,"Ġexceeding":9503,"Ġbreakdown":9504,"ĠEquipment":9505,"owski":9506,"Ġrumours":9507,"acquisitions":9508,"ĠDanish":9509,"Atlantic":9510,"Administration":9511,"Ġvessel":9512,"Ġjumped":9513,"customers":9514,"Ġconsolidation":9515,"oenix":9516,"Ġchallenge":9517,"ccident":9518,"Ġsubsequent":9519,"Ġaggregate":9520,"ĠFitzwater":9521,"Ġpicture":9522,"320":9523,"450":9524,"Cy":9525,"DC":9526,"IP":9527,"Met":9528,"Mot":9529,"body":9530,"carr":9531,"carry":9532,"did":9533,"dens":9534,"eficit":9535,"fers":9536,"fra":9537,"follow":9538,"mal":9539,"nil":9540,"national":9541,"rights":9542,"weg":9543,"atar":9544,"Ġware":9545,"Ġfat":9546,"Ġfun":9547,"Ġfrequ":9548,"Ġmagn":9549,"Ġinside":9550,"Ġdamp":9551,"icom":9552,"Ġandunderwriting":9553,"stop":9554,"ĠTV":9555,"administration":9556,"ĠSons":9557,"ĠAustr":9558,"erson":9559,"ĠMun":9560,"osh":9561,"Ġ285":9562,"ĠBHP":9563,"otation":9564,"ĠFred":9565,"Ġatleast":9566,"Ġraid":9567,"ĠEPA":9568,"ĠHem":9569,"Ġunadjusted":9570,"Ġ425":9571,"amin":9572,"ubsid":9573,"ĠOpec":9574,"Ġabarrel":9575,"merz":9576,"Ġspur":9577,"Ġsubmit":9578,"siders":9579,"Ġrecip":9580,"Ġendof":9581,"Ġclar":9582,"Ġclimate":9583,"ught":9584,"isher":9585,"onsaid":9586,"Ġsells":9587,"Ġsellers":9588,"Ġsluggish":9589,"Ġquote":9590,"final":9591,"Ġpressing":9592,"ĠShares":9593,"minent":9594,"Ġlocations":9595,"Ġseeks":9596,"ĠIndex":9597,"Ġconvertibles":9598,"Ġtelex":9599,"ĠUnderwriters":9600,"riction":9601,"Ġinflationary":9602,"Ġindicator":9603,"Ġvicepresident":9604,"currencies":9605,"etti":9606,"build":9607,"ĠAGO":9608,"remier":9609,"Ġtherec":9610,"Ġdepends":9611,"include":9612,"ĠDelta":9613,"repurchase":9614,"Ġredeemed":9615,"Ġpublishing":9616,"ĠPreviously":9617,"Ġdrawing":9618,"funds":9619,"Ġreplacement":9620,"Ġbriefing":9621,"Ġdeficiency":9622,"impact":9623,"Ġsustain":9624,"Ġinformal":9625,"Volcker":9626,"ĠSPOT":9627,"Ġconflict":9628,"Ġlevy":9629,"ĠIcahn":9630,"ĠFerruzzi":9631,"ĠGillette":9632,"ĠColorado":9633,"Ġroughly":9634,"OLLAR":9635,"egean":9636,"140":9637,">'":9638,"CF":9639,"Ho":9640,"Monday":9641,"OD":9642,"Part":9643,"apt":9644,"ahead":9645,"cal":9646,"don":9647,"found":9648,"habil":9649,"nd":9650,"rans":9651,"session":9652,"tawa":9653,"var":9654,"vir":9655,"Ġties":9656,"Ġtable":9657,"Ġslrs":9658,"Ġsearch":9659,"Ġselect":9660,"reporters":9661,"Ġtheofficial":9662,"oral":9663,"Ġba":9664,"Ġber":9665,"Ġdomin":9666,"isclosed":9667,"ican":9668,"Ġlaid":9669,"stud":9670,"states":9671,"ĠCub":9672,"ĠRotterdam":9673,"ĠSiemens":9674,"ĠSydney":9675,"ĠAud":9676,"Ġvig":9677,"ĠML":9678,"ĠMills":9679,"Ġproxy":9680,"ĠBIL":9681,"Ġdlrsa":9682,"ĠEven":9683,"ĠEmery":9684,"ĠDaiwa":9685,"ĠLine":9686,"oren":9687,"oreign":9688,"ĠHous":9689,"ĠHospital":9690,"ĠHoneywell":9691,"Ġunders":9692,"aches":9693,"Ġtrial":9694,"essions":9695,"ĠWk":9696,"ĠWitter":9697,"ĠOak":9698,"aga":9699,"ellon":9700,"opter":9701,"ĠBankruptcy":9702,"ĠCompanies":9703,"Ġ156":9704,"Ġrock":9705,"Ġroll":9706,"Ġroute":9707,"Ġmeets":9708,"Ġplane":9709,"sson":9710,"Ġrepaid":9711,"Ġbuyback":9712,"cessaid":9713,"Ġ172":9714,"Ġ184":9715,"Ġsoared":9716,"Ġboards":9717,"Ġtransferred":9718,"Ġreceiv":9719,"Ġslower":9720,"Ġcrash":9721,"Ġ235":9722,"individual":9723,"Ġemb":9724,"attempt":9725,"afternoon":9726,"Ġmature":9727,"Ġmatures":9728,"Ġfactories":9729,"Ġemployed":9730,"dison":9731,"Ġexcluded":9732,"produced":9733,"Ġfeature":9734,"Ġcloser":9735,"Committee":9736,"ĠEngineering":9737,"become":9738,"payable":9739,"Ġdifficulty":9740,"ĠTransCanada":9741,"RAIN":9742,"ramm":9743,"ĠEdouard":9744,"Ġdiplomatic":9745,"ĠAuto":9746,"Ġfeedgrains":9747,"Ġmachine":9748,"competition":9749,"Ġnarrowed":9750,"imbab":9751,"Ġtextiles":9752,"Ġrailway":9753,"respons":9754,"ĠGreek":9755,"Ġmethods":9756,"personal":9757,"ĠIrving":9758,"Ġpoly":9759,"Investment":9760,"ĠChristian":9761,"partnership":9762,"Ġcancelled":9763,"enkowski":9764,"ĠTreasuries":9765,"BK":9766,"CR":9767,"Cal":9768,"Economic":9769,"Ford":9770,"OU":9771,"SM":9772,"Sc":9773,"You":9774,"distance":9775,"ganda":9776,"let":9777,"light":9778,"po":9779,"selling":9780,"wick":9781,"revenue":9782,"ederation":9783,"Ġcwt":9784,"Ġpence":9785,"Ġfounder":9786,"ĠofB":9787,"Ġofm":9788,"ĠinL":9789,"Ġinadequate":9790,"istration":9791,"iced":9792,"uty":9793,"streng":9794,"ĠTime":9795,"ĠRonald":9796,"eland":9797,"ĠAMR":9798,"ĠIreland":9799,"Ġbeans":9800,"ĠMas":9801,"ĠReal":9802,"Ġdeath":9803,"atever":9804,"ĠPa":9805,"ĠNations":9806,"Ġconsequ":9807,"ĠUs":9808,"ĠUruguay":9809,"ĠEcu":9810,"ĠEurobond":9811,"Ġwhom":9812,"Ġheard":9813,"Ġheating":9814,"rice":9815,"Ġhass":9816,"plies":9817,"then":9818,"redeem":9819,"Ġwhichwould":9820,"Ġleverage":9821,"ilever":9822,"ĠLtdsaid":9823,"ubles":9824,"Ġweap":9825,"holds":9826,"Ġapproached":9827,"aterials":9828,"ĠAlaska":9829,"Ġbelief":9830,"ĠFinland":9831,"Ġacted":9832,"what":9833,"Ġ278":9834,"ĠResorts":9835,"ception":9836,"appointed":9837,"Ġnegotiation":9838,"Ġbacking":9839,"etroit":9840,"Ġimportance":9841,"Ġobstac":9842,"ĠPharmaceutical":9843,"Ġdiscussing":9844,"ĠAtlanta":9845,"Ġpostponed":9846,"pressed":9847,"Ġacceptable":9848,"Ġmidday":9849,"Ġelsewhere":9850,"ĠBrands":9851,"ĠBrussels":9852,"iami":9853,"Ġfourthquarter":9854,"neapolis":9855,"olicies":9856,"ĠSupply":9857,"ĠPaulo":9858,"engers":9859,"Ġpremiums":9860,"Ġinstalled":9861,"ĠMeans":9862,"Ġretaliatory":9863,"Ġdoubled":9864,"Ġwillingness":9865,"Ġcollateral":9866,"Ġentirely":9867,"Ġsatisfied":9868,"Ġhaven":9869,"Ġdistributor":9870,"TION":9871,"Ġintegrated":9872,"Ġcoins":9873,"avier":9874,"Ġclimbed":9875,"ĠSociete":9876,"Ġthousands":9877,"DVSA":9878,"Ġarticle":9879,"ĠJacobs":9880,"agnostic":9881,"Ġtemperatures":9882,"crete":9883,"merzbank":9884,"imbabwe":9885,"Ara":9886,"OUR":9887,"PT":9888,"TL":9889,"Venezuela":9890,"iques":9891,"mb":9892,"pit":9893,"top":9894,"xi":9895,"ĠtheJapanese":9896,"Ġpure":9897,"Ġfill":9898,"Ġinformed":9899,"oub":9900,"ĠCel":9901,"ĠCORN":9902,"illings":9903,"elih":9904,"ĠSMC":9905,"ĠAires":9906,"ĠMem":9907,"cean":9908,"Ġ275":9909,"Ġ192":9910,"olster":9911,"ĠPoindexter":9912,"Ġyr":9913,"occo":9914,"ander":9915,"ĠJo":9916,"ĠLab":9917,"ĠGard":9918,"Ġunavailable":9919,"Ġunveiled":9920,"Ġunanim":9921,"perty":9922,"trad":9923,"ĠWays":9924,"Ġwouldhave":9925,"Ġareexpected":9926,"ibly":9927,"Ġleases":9928,"prior":9929,"Ġpermitted":9930,"reason":9931,"Ġstockp":9932,"soy":9933,"Ġinterpret":9934,"Ġmeg":9935,"ĠCommenting":9936,"Ġroutes":9937,"Ġbuoy":9938,"Ġ203":9939,"ĠVi":9940,"ĠExtraordinary":9941,"holdings":9942,"tained":9943,"taining":9944,"Ġreply":9945,"ĠTrump":9946,"Ġconsensus":9947,"Ġ178":9948,"load":9949,"Ġtakeovers":9950,"Ġsigning":9951,"return":9952,".......":9953,"ĠShanghai":9954,"Ġmeasured":9955,"distribut":9956,"Ġconditioned":9957,"ormous":9958,"iction":9959,"ĠTelecom":9960,"Ġmidnight":9961,"Ġreviewing":9962,"Banking":9963,"Ġsupplied":9964,"ĠINTER":9965,"nesota":9966,"Ġrefinance":9967,"tonne":9968,"Ġdifferences":9969,"included":9970,"autom":9971,"Ġjoining":9972,"Eng":9973,"Ġviolated":9974,"Ġhealthy":9975,"Ġresponded":9976,"ĠFarmers":9977,"ĠTrail":9978,"ĠKingdom":9979,"ĠSprinkel":9980,"ĠOffering":9981,"Ġprevailing":9982,"ĠMargaret":9983,"ĠAlberta":9984,"Ġsourcessaid":9985,"Ġsurprised":9986,"Ġdestroyed":9987,"ĠNabisco":9988,"ĠGordon":9989,"elihood":9990,"180":9991,"145":9992,"480":9993,"930":9994,"Ab":9995,"Bache":9996,"DD":9997,"Ecuador":9998,"IFF":9999,"Min":10000,"Mer":10001,"OG":10002,"Rud":10003,"SB":10004,"bow":10005,"ias":10006,"iences":10007,"jug":10008,"ligation":10009,"mond":10010,"pone":10011,"tender":10012,"inf":10013,"rears":10014,"ĠtheP":10015,"oran":10016,"origin":10017,"alse":10018,"Ġfit":10019,"Ġofrecord":10020,"Ġdim":10021,"iche":10022,"ctane":10023,"Ġandf":10024,"Ġsaidhe":10025,"stat":10026,"stations":10027,"Ġreve":10028,"Ġnature":10029,"ĠCamp":10030,"elco":10031,"Ġmlndlr":10032,"cho":10033,"Ġvan":10034,"Ġvaccine":10035,"lection":10036,"ĠME":10037,"ĠMary":10038,"ĠMiguel":10039,"cep":10040,"ĠRex":10041,"Ġsteep":10042,"Ġgilts":10043,"ĠBased":10044,"ĠBob":10045,"Ġdlrsfor":10046,"Ġdevaluation":10047,"raising":10048,"usal":10049,"ĠNow":10050,"ĠNBC":10051,"ĠNissan":10052,"ĠFN":10053,"ĠFeed":10054,"Ġitsigned":10055,"ectic":10056,"ĠDodge":10057,"ĠLew":10058,"ĠHas":10059,"ĠHydro":10060,"ĠHoliday":10061,"ĠGOLD":10062,"Ġhasreceived":10063,"alls":10064,"strike":10065,"elli":10066,"ellers":10067,"ibas":10068,"Ġcontaining":10069,"Ġqualified":10070,"undisclosed":10071,"istent":10072,"ĠStep":10073,"properties":10074,"Ġcompre":10075,"ĠKn":10076,"Ġoverhaul":10077,"orton":10078,"Ġotherwise":10079,"Ġ139":10080,"Ġplansto":10081,"Ġforeigners":10082,"Ġindications":10083,"Ġsixth":10084,"flows":10085,"Ġeconomics":10086,"Ġcallable":10087,"ields":10088,"ĠEnvironmental":10089,"Ġvalid":10090,"Ġattitude":10091,"Ġretired":10092,"Ġ228":10093,"Ġ233":10094,"incent":10095,"Ġ213":10096,"Ġallowance":10097,"ĠNationale":10098,"Ġ295":10099,"Ġseverely":10100,"Ste":10101,"Ġcompetitors":10102,"ĠSpA":10103,"fforts":10104,"ICE":10105,"Ġclosure":10106,"ĠNorthwest":10107,"Ġboosting":10108,"decided":10109,"Ġregister":10110,"ĠCarolina":10111,"dollars":10112,"ĠCOMEX":10113,"sthan":10114,"ĠAllis":10115,"Ġsatellite":10116,"Sept":10117,"ĠCyacq":10118,"REE":10119,"division":10120,"improved":10121,"placement":10122,"Ġassumption":10123,"Ġdestinations":10124,"Ġtraditionally":10125,"Cola":10126,"ĠDeposit":10127,"Ġmillions":10128,"ĠSupermarkets":10129,"ĠSimon":10130,"Ġlifting":10131,"Ġallocation":10132,"ĠIII":10133,"Ġbearish":10134,"ĠKenya":10135,"Paris":10136,"determ":10137,"ĠTanjug":10138,"Ġinvolvement":10139,"Ġevaluate":10140,"Ġcereals":10141,"ĠStrate":10142,"ĠHotel":10143,"ĠHelmut":10144,"Ġutilization":10145,"Philippines":10146,"Ġhearings":10147,"Belg":10148,"ĠRoberts":10149,"ĠWagner":10150,"ĠWoolworth":10151,"Ly":10152,"LDP":10153,"Lloyd":10154,"Ne":10155,"Nippon":10156,"OCT":10157,"POR":10158,"Sm":10159,"aired":10160,"bar":10161,"crop":10162,"gom":10163,"gain":10164,"later":10165,"paper":10166,"rand":10167,"vo":10168,"wing":10169,"Ġtied":10170,"Ġtask":10171,"inting":10172,"Ġsovereign":10173,"Ġthestock":10174,"esch":10175,"enced":10176,"enior":10177,"Ġcrown":10178,"Ġpipel":10179,"Ġdates":10180,"Ġdistrict":10181,"inghouse":10182,"ingdom":10183,"Ġ187":10184,"Ġnone":10185,"ĠTom":10186,"ĠTire":10187,"ĠCR":10188,"ĠCath":10189,"Ġitdowngraded":10190,"ĠSud":10191,"ĠSaf":10192,"ĠAli":10193,"ĠAsh":10194,"ĠAegean":10195,"Ġvac":10196,"lem":10197,"ĠRegan":10198,"osa":10199,"otments":10200,"Ġpctto":10201,"ĠPDVSA":10202,"ĠNil":10203,"ocol":10204,"ĠEight":10205,"ĠLeb":10206,"areas":10207,"ĠGTE":10208,"eef":10209,"umers":10210,"uda":10211,"redits":10212,"arded":10213,"Ġmarketed":10214,"opened":10215,"Ġresist":10216,"itional":10217,"olls":10218,"Ġimporters":10219,"Ġbutter":10220,"Ġunderground":10221,"Ġboy":10222,"argill":10223,"Ġroy":10224,"Ġtoldreporters":10225,"Ġassistant":10226,"Ġsupervisory":10227,"ĠVer":10228,"associ":10229,"show":10230,"Ġgrown":10231,"Ġ173":10232,"Ġ182":10233,"Ġwhenthe":10234,"Ġcrudes":10235,"Ġdesk":10236,"index":10237,"commission":10238,"Ġrelax":10239,"ickel":10240,"prem":10241,"attract":10242,"ĠArizona":10243,"ATS":10244,"ATUR":10245,"ĠPrivate":10246,"Ġimpossible":10247,"Ġexecutiveofficer":10248,"investments":10249,"Ġscope":10250,"Ġcoupled":10251,"stantially":10252,"ĠAdvis":10253,"ĠUND":10254,"rupted":10255,"Ġcalm":10256,"ĠMcC":10257,"COA":10258,"Ġtoreduce":10259,"Ġgeneration":10260,"Ġutilities":10261,"ĠAllen":10262,"Ġmeaning":10263,"ylene":10264,"Ġtighten":10265,"Ġpanic":10266,"Ġtanker":10267,"underwriters":10268,"India":10269,"Ġrailroad":10270,"ĠMoore":10271,"productive":10272,"implement":10273,"Ġliberalisation":10274,"ĠHerrington":10275,"discussions":10276,"principle":10277,"ĠDisney":10278,"ĠHenry":10279,"Ġinspection":10280,"Ġabandoned":10281,"Senate":10282,"Ġadministrative":10283,"ĠSpecial":10284,"ĠFRN":10285,"Computer":10286,"ĠIvory":10287,"Holdings":10288,"Ġsteadily":10289,"ioneer":10290,"ĠProtection":10291,"precedented":10292,"Ġmagazine":10293,"gomery":10294,"310":10295,"AV":10296,"Brown":10297,"Den":10298,"Del":10299,"FE":10300,"Foreign":10301,"II":10302,"Mo":10303,"MITI":10304,"To":10305,"ban":10306,"broad":10307,"hort":10308,"make":10309,"meg":10310,"tle":10311,"wer":10312,"Ġares":10313,"refund":10314,"revised":10315,"enberg":10316,"Ġcy":10317,"Ġcards":10318,"arn":10319,"arity":10320,"Ġpun":10321,"Ġpoultry":10322,"Ġwave":10323,"Ġwish":10324,"Ġfish":10325,"Ġfiber":10326,"Ġdated":10327,"icting":10328,"Ġandthat":10329,"etts":10330,"strain":10331,"Ġitwas":10332,"adorean":10333,"ĠSour":10334,"ĠSAL":10335,"ĠIADB":10336,"Ġonto":10337,"Ġvulner":10338,"ĠMajor":10339,"ĠMulford":10340,"ĠMiami":10341,"Ġstret":10342,"Ġstakes":10343,"osaid":10344,"Ġ216":10345,"ĠBag":10346,"ĠBern":10347,"ĠPL":10348,"ĠPark":10349,"ĠPty":10350,"ĠPAR":10351,"Ġ325":10352,"Ġ390":10353,"ĠFirms":10354,"ĠFleet":10355,"Ġatotal":10356,"ĠDiamond":10357,"ĠLev":10358,"area":10359,"Ġyearago":10360,"ĠHy":10361,"Ġ422":10362,"placed":10363,"ĠOp":10364,"Ġarecord":10365,"Ġmonop":10366,"Ġquake":10367,"ĠStaff":10368,"ĠCominco":10369,"Ġcompound":10370,"acter":10371,"Ġexpecting":10372,"Ġtheysaid":10373,"liquidity":10374,"vens":10375,"Ġrout":10376,"Ġpartof":10377,"Ġ205":10378,"ashi":10379,"ĠRevlon":10380,"ĠThose":10381,"1990":10382,"Ġenforcement":10383,"extra":10384,"Ġusual":10385,"Ġspokesmansaid":10386,"ĠAluminium":10387,"ventional":10388,"Ġsubsidized":10389,"ullivan":10390,"Ġflour":10391,"ĠPless":10392,"Ġaccords":10393,"prevent":10394,"ierce":10395,"Ġlocals":10396,"ERS":10397,"Ġpreferredstock":10398,"azon":10399,"investigation":10400,"Ġcapt":10401,"Ġpackaging":10402,"Ġmilk":10403,"ĠAgricultureDepartment":10404,"ĠAdvanced":10405,"Ġevening":10406,"Ġtargeted":10407,"Ġelse":10408,"Ġreplacing":10409,"Ġhardware":10410,"ĠINRA":10411,"Ġurging":10412,"ĠCurrently":10413,"Ġdepth":10414,"ĠForest":10415,"Ġtwoc":10416,"iversal":10417,"Ġredund":10418,"ĠEdelman":10419,"provisions":10420,"Ġcarryforwards":10421,"Ġexpert":10422,"Ġprotectionism":10423,"Ġterminals":10424,"Ġseparately":10425,"Ġorganisation":10426,"OSING":10427,"Ġtea":10428,"Ġconsulting":10429,"Ġobjections":10430,"While":10431,"ĠArabian":10432,"bridge":10433,"Ġdistribute":10434,"ĠCLOSING":10435,"Ġinstrument":10436,"ĠNova":10437,"Industrial":10438,"Ġrainfall":10439,"accepted":10440,"Ġpetrol":10441,"ĠRepresentatives":10442,"cutting":10443,"Consolidated":10444,"problem":10445,"Ġescal":10446,"ĠAllegis":10447,"criptions":10448,"Ġlinks":10449,"Ġexamine":10450,"ĠBasra":10451,"purchases":10452,"Ġalleges":10453,"Ġadvertising":10454,"Ġcandidates":10455,"Ġcancer":10456,"Ġrescue":10457,"Ġhundreds":10458,"Argentina":10459,"ĠHungary":10460,"istillers":10461,"Ġfertil":10462,"Ġcorrection":10463,"purua":10464,"ĠRostenkowski":10465,"involved":10466,"ccidental":10467,"050":10468,"130":10469,"950":10470,"IK":10471,"Land":10472,"Mark":10473,"Sun":10474,"Toronto":10475,"despite":10476,"fess":10477,"gs":10478,"hit":10479,"iors":10480,"mat":10481,"ping":10482,"publ":10483,"policies":10484,"rising":10485,"self":10486,"uice":10487,"xm":10488,"eseed":10489,"enret":10490,"oriented":10491,"Ġbound":10492,"Ġbomb":10493,"altern":10494,"Ġfoster":10495,"Ġfriction":10496,"asts":10497,"Ġandin":10498,"Ġnames":10499,"Ġefficient":10500,"Ġhom":10501,"Ġhur":10502,"ĠCattle":10503,"ĠCBS":10504,"aden":10505,"ĠAS":10506,"ayed":10507,"Ġcomposite":10508,"ĠMae":10509,"ĠRef":10510,"Ġstric":10511,"Ġprobe":10512,"resol":10513,"Ġisnot":10514,"imistic":10515,"Ġexempt":10516,"Ġ191":10517,"user":10518,"ĠFCC":10519,"ĠFernandez":10520,"ĠFDIC":10521,"Ġwithdrew":10522,"ecution":10523,"ĠEric":10524,"ĠElders":10525,"ĠDLR":10526,"ĠDMK":10527,"Ġwhites":10528,"arel":10529,"ĠGetty":10530,"Ġunexpected":10531,"emarket":10532,"Ġhelic":10533,"Ġ430":10534,"Ġtrillion":10535,"Ġtrials":10536,"agger":10537,"Ġplacing":10538,"Ġplastics":10539,"undy":10540,"viol":10541,"ĠKohl":10542,"Ġforest":10543,"ĠYEN":10544,"Ġoperational":10545,"Ġ201":10546,"Ġ301":10547,"Ġ176":10548,"Ġ186":10549,"Ġintens":10550,"205":10551,"Ġsignals":10552,"reliminary":10553,"Ġ273":10554,"ĠCommissioner":10555,"withdraw":10556,"commend":10557,"Ġnewsconference":10558,"Ġduringthe":10559,"Ġhelping":10560,"prep":10561,"Ġafford":10562,"Ġfacil":10563,"ĠArm":10564,"surplus":10565,"ARD":10566,"ĠPrince":10567,"Ġbroken":10568,"Ġratios":10569,"Ġthirdquarter":10570,"Ġindustrialized":10571,"structure":10572,"CCI":10573,"Ġthesale":10574,"investig":10575,"parliament":10576,"ICES":10577,"regulatory":10578,"Ġdenominated":10579,"industries":10580,"Ġmaintaining":10581,"ĠWeather":10582,"Ġslowing":10583,"ĠGuinness":10584,"Ġlimiting":10585,"includes":10586,"Ġcopy":10587,"ependence":10588,"ĠMinneapolis":10589,"people":10590,"Ġinfring":10591,"Ġaffiliates":10592,"Ġabsol":10593,"Ġstrengthened":10594,"Ġcooperative":10595,"ĠBuilding":10596,"Ġdiversified":10597,"Ġpledge":10598,"Ġinjunction":10599,"ĠNASD":10600,"Ġdevice":10601,"Ġprocedure":10602,"Qtrly":10603,"started":10604,"Ġrepeatedly":10605,"application":10606,"ministers":10607,"Ġprovincial":10608,"Ġneigh":10609,"Ġthrift":10610,"Ġallegations":10611,"Ġdegree":10612,"ĠOttawa":10613,"Ġsoymeal":10614,"participation":10615,"ilots":10616,"warrants":10617,"Ġinquiry":10618,"Ġessential":10619,"Ġfriend":10620,"baum":10621,"ĠSaudis":10622,"mbH":10623,"enrette":10624,"Ac":10625,"Baker":10626,"Che":10627,"Court":10628,"Gre":10629,"IAN":10630,"Je":10631,"Jan":10632,"MD":10633,"Mthly":10634,"Nakasone":10635,"RD":10636,"WT":10637,"aith":10638,"cure":10639,"dale":10640,"flo":10641,"hing":10642,"happ":10643,"ius":10644,"lam":10645,"move":10646,"mitting":10647,"ront":10648,"shr":10649,"wort":10650,"Ġtit":10651,"Ġtelling":10652,"inz":10653,"Ġapril":10654,"erick":10655,"Ġsus":10656,"Ġthedepartment":10657,"Ġcast":10658,"attered":10659,"Ġboliv":10660,"Ġwake":10661,"Ġmills":10662,"Ġtocontinue":10663,"Ġanger":10664,"asked":10665,"etus":10666,"stra":10667,"Ġreopen":10668,"ĠTop":10669,"ĠCra":10670,"ĠColl":10671,"ĠCrow":10672,"ĠCie":10673,"ĠCAN":10674,"ĠCustom":10675,"ĠRod":10676,"Ġitaffirmed":10677,"ĠITC":10678,"lroney":10679,"changed":10680,"ĠMine":10681,"ĠMitsui":10682,"ĠReag":10683,"Ġproven":10684,"Ġgiant":10685,"ĠPubl":10686,"Ġ370":10687,"ĠFire":10688,"ĠFurther":10689,"iesel":10690,"Ġwitha":10691,"ections":10692,"ĠEdison":10693,"ĠDOT":10694,"ĠDetroit":10695,"ĠGates":10696,"ĠGAO":10697,"Ġunw":10698,"Ġunrest":10699,"acer":10700,"percent":10701,"among":10702,"ubstantial":10703,"uez":10704,"Ġadvers":10705,"ancies":10706,"arding":10707,"Ġaccom":10708,"uggest":10709,"ibbean":10710,"Ġpermits":10711,"soon":10712,"ĠUnits":10713,"Ġloading":10714,"Ġros":10715,"Ġnots":10716,"Ġenvis":10717,"Ġifthe":10718,"Ġ310":10719,"Ġcontracted":10720,"Ġdoor":10721,"ĠAlf":10722,"Ġcostly":10723,"Ġ1996":10724,"Ġattached":10725,"Ġrecords":10726,"Ġdidnot":10727,"Ġentities":10728,"Ġrelating":10729,"cheduling":10730,"Ġcentralbank":10731,"ĠZaire":10732,"ĠSouthwest":10733,"Ġoftheir":10734,"Ġinflow":10735,"ĠIndiana":10736,"ĠSpa":10737,"crude":10738,"aza":10739,"rictions":10740,"Ġindicating":10741,"Ġpromising":10742,"Ġprocessors":10743,"Ġcapable":10744,"ĠBrian":10745,"Ġdeny":10746,"ENT":10747,"paying":10748,"Ġpacts":10749,"icipal":10750,"Ġinstitutes":10751,"electronic":10752,"Ġurgent":10753,"Ġthepast":10754,"Ġestablishing":10755,"Ġbroadcast":10756,"Ġexchanger":10757,"ramework":10758,"accounting":10759,"Ġdropping":10760,"burse":10761,"ĠHarper":10762,"Ġcomparison":10763,"planes":10764,"ĠGrand":10765,"positions":10766,"Ġassociate":10767,"Ġhappy":10768,"Ġhappened":10769,"ĠMontgomery":10770,"Ġtreaty":10771,"Ġrenewal":10772,"Ġwithdrawn":10773,"White":10774,"Ġmoisture":10775,"allowed":10776,"Colombia":10777,"Ġfeeling":10778,"Ġaudit":10779,"acceptable":10780,"Ġdeparture":10781,"passed":10782,"Continental":10783,"established":10784,"ĠIRNA":10785,"Ġremoval":10786,"ĠAppl":10787,"Ġresidents":10788,"Ġdegrees":10789,"leinwort":10790,"ĠRobin":10791,"iotechnology":10792,"Ġmandatory":10793,"governments":10794,"ĠICN":10795,"delivery":10796,"hdad":10797,"Monetary":10798,"emporary":10799,"Ġfeasibility":10800,"ĠJaime":10801,"wegian":10802,"Ġcomprehensive":10803,"xmire":10804,"116":10805,"295":10806,"City":10807,"Chemical":10808,"Fund":10809,"Good":10810,"Lou":10811,"Mill":10812,"MER":10813,"System":10814,"When":10815,"bide":10816,"good":10817,"iand":10818,"mall":10819,"poss":10820,"rather":10821,"sim":10822,"second":10823,"town":10824,"urom":10825,"wear":10826,"Ġturb":10827,"ini":10828,"inst":10829,"Ġaunit":10830,"heson":10831,"Ġsudden":10832,"reater":10833,"Ġtheacquisition":10834,"encoura":10835,"Ġcoconut":10836,"atings":10837,"Ġbolster":10838,"Ġfre":10839,"Ġofconvertible":10840,"Ġmounting":10841,"Ġsaidin":10842,"etween":10843,"Ġreferred":10844,"ĠTin":10845,"ĠTem":10846,"ĠSur":10847,"ĠSFR":10848,"ĠSoftware":10849,"ĠApl":10850,"ĠITT":10851,"veill":10852,"ĠonApril":10853,"ĠonMarch":10854,"Ġgen":10855,"ĠNP":10856,"Ġ375":10857,"ĠFiat":10858,"ĠFSLIC":10859,"Ġcondom":10860,"Ġrational":10861,"Ġasa":10862,"endy":10863,"ĠEaster":10864,"ĠDay":10865,"ĠLu":10866,"ĠLuk":10867,"ĠLTV":10868,"Ġaluminum":10869,"ivision":10870,"ĠHu":10871,"ĠHudson":10872,"ounce":10873,"Ġhasagreed":10874,"ĠON":10875,"ĠOIL":10876,"Ġadj":10877,"ifting":10878,"anto":10879,"iph":10880,"Ġleaves":10881,"Ġchar":10882,"Ġcharter":10883,"ĠYoung":10884,"Ġinvesting":10885,"Ġjets":10886,"ĠVis":10887,"ikes":10888,"ifications":10889,"jected":10890,"195":10891,"Ġ162":10892,"shall":10893,"Ġagainstthe":10894,"medium":10895,"Ġoffensive":10896,"Ġintothe":10897,"ledge":10898,"Ġdecides":10899,"Ġtransfers":10900,"Ġsaleof":10901,"Ġ276":10902,"Ġdesire":10903,"Ġ245":10904,"commodity":10905,"Ġ217":10906,"Ġrestore":10907,"Ġlawyer":10908,"ANG":10909,"Ġobligation":10910,"ĠParibas":10911,"working":10912,"Ġemploys":10913,"ĠSenior":10914,"ĠOPG":10915,"ĠQatar":10916,"ĠShel":10917,"Ġfarms":10918,"Ġhoping":10919,"ĠConstruction":10920,"Ġcustoms":10921,"Ġarranger":10922,"ĠOrt":10923,"economists":10924,"weeks":10925,"Ġdamaging":10926,"Ġinsol":10927,"Ġlicenses":10928,"Ġnortheast":10929,"ĠHongkong":10930,"Ġclaimed":10931,"Ġwidened":10932,"ĠBarclays":10933,"Ġtermination":10934,"Ġincorpor":10935,"Ġanticipates":10936,"Ġaffiliated":10937,"ĠMontagu":10938,"Ġharvested":10939,"ĠSTOCK":10940,"ĠEmirates":10941,"Ġelimination":10942,"Ġabsence":10943,"Ġsuffering":10944,"ĠGlick":10945,"Ġstrengthening":10946,"Industry":10947,"Ġdecreased":10948,"ĠDuff":10949,"Ġsucceeding":10950,"Ġallocated":10951,"ĠCDs":10952,"Ġjudgement":10953,"ĠCHANGE":10954,"Ġresidential":10955,"ĠEXCH":10956,"ĠCapel":10957,"Ġmechanism":10958,"Ġdeterioration":10959,"deposit":10960,"Ġcorresponding":10961,"Spain":10962,"ĠCosta":10963,"Ġvoluntary":10964,"Turkey":10965,"ĠZhao":10966,"linked":10967,"ecticut":10968,".'":10969,"386":10970,"?\"":10971,"FA":10972,"NAS":10973,"REC":10974,"SH":10975,"Security":10976,"Two":10977,"Wall":10978,"cat":10979,"colm":10980,"director":10981,"junction":10982,"nish":10983,"ois":10984,"sources":10985,"target":10986,"yle":10987,"Ġtend":10988,"erox":10989,"Ġsecur":10990,"Ġsessions":10991,"Ġthepro":10992,"Ġtheagreement":10993,"ĠtheFederal":10994,"Ġov":10995,"arian":10996,"Ġpit":10997,"Ġpull":10998,"alle":10999,"Ġfired":11000,"ĠofP":11001,"Ġmail":11002,"Ġmild":11003,"Ġdl":11004,"Ġanaverage":11005,"ilot":11006,"ĠandD":11007,"Ġandits":11008,"Ġla":11009,"Ġlock":11010,"ĠTak":11011,"ĠRU":11012,"Ġitmay":11013,"ele":11014,"ĠSI":11015,"urich":11016,"Ġfort":11017,"Ġcomfort":11018,"Ġvoice":11019,"ĠMutual":11020,"ĠRevenues":11021,"ĠBig":11022,"ĠBalt":11023,"owatt":11024,"Ġ193":11025,"ĠNat":11026,"ĠFil":11027,"Ġconsiders":11028,"Ġitscommon":11029,"upport":11030,"Ġrank":11031,"ecl":11032,"ĠEli":11033,"ĠJenrette":11034,"ĠDon":11035,"ĠHus":11036,"ĠGra":11037,"ĠGmbH":11038,"Ġunilateral":11039,"emn":11040,"emln":11041,"Ġnotably":11042,"ĠWell":11043,"ferences":11044,"ube":11045,"arto":11046,"exploration":11047,"anche":11048,"ellow":11049,"Ġmarketplace":11050,"inea":11051,"Ġchartered":11052,"cluded":11053,"ĠComdata":11054,"ĠKur":11055,"ĠDepartments":11056,"Ġappeals":11057,"ĠUnilever":11058,"Ġrol":11059,"Ġ2017":11060,"Ġ315":11061,"Ġ316":11062,"Ġreduces":11063,"ĠAlcan":11064,"Ġbecauseof":11065,"102":11066,"Ġsurround":11067,"pletion":11068,"omestically":11069,"Ġlowering":11070,"Ġ274":11071,"Ġ222":11072,"Ġ223":11073,"rains":11074,"ĠMinisters":11075,"attack":11076,"annon":11077,"minster":11078,"enneth":11079,"Ġrealistic":11080,"Ġauthorised":11081,"ORE":11082,"Ġexplain":11083,"Ġexplosion":11084,"Ġstriking":11085,"iminal":11086,"Ġtopurchase":11087,"stores":11088,"aimed":11089,"Ġbridge":11090,"Ġswit":11091,"Ġreplaces":11092,"Ġcreation":11093,"marked":11094,"ITS":11095,"Ġpotentially":11096,"spending":11097,"Ġslowly":11098,"Commercial":11099,"olicited":11100,"Ġdisputed":11101,"Ġdelegate":11102,"Ġgeneric":11103,"accounts":11104,"Ġparticipating":11105,"Ġeurobonds":11106,"eutral":11107,"Ġnetworks":11108,"Ġpreventing":11109,"REUTER":11110,"considering":11111,"transactions":11112,"opposition":11113,"Ġtightening":11114,"Ġconsultations":11115,"ĠPortland":11116,"Ġsatisfy":11117,"ĠRoger":11118,"ĠApple":11119,"developing":11120,"Ġcurbs":11121,"reduction":11122,"reduced":11123,"Ġcompensate":11124,"Ġinjured":11125,"projects":11126,"Ġintegration":11127,"ĠDonaldson":11128,"Ġpleased":11129,"facility":11130,"Ġvolatile":11131,"ĠHoechst":11132,"Ġgradual":11133,"purchased":11134,"Ġinjection":11135,"Ġsquare":11136,"Board":11137,"ĠAND":11138,"Ġforesee":11139,"Ġrestraint":11140,"Ġplunged":11141,"ĠMulroney":11142,"Ġcasual":11143,"ĠMarcos":11144,"Ġsunfl":11145,"Pennzoil":11146,"ĠNevada":11147,"Allied":11148,"ĠAppropriations":11149,"ĠStrait":11150,"Ġenhanced":11151,"Illinois":11152,"Ġattributable":11153,"Ġaregistration":11154,"Ġexperienced":11155,"ĠSudan":11156,"Council":11157,"Dav":11158,"GG":11159,"JR":11160,"KO":11161,"Kuwait":11162,"Oct":11163,"Sum":11164,"WB":11165,"bust":11166,"cel":11167,"coll":11168,"crit":11169,"corn":11170,"dro":11171,"fair":11172,"haus":11173,"ket":11174,"lumber":11175,"nan":11176,"split":11177,"tl":11178,"vans":11179,"Ġeth":11180,"Ġtraining":11181,"Ġtheweek":11182,"Ġthetwo":11183,"Ġtheboard":11184,"Ġtheproposed":11185,"Ġbah":11186,"Ġwors":11187,"Ġfly":11188,"Ġfamil":11189,"Ġmt":11190,"Ġtod":11191,"Ġtohelp":11192,"Ġdat":11193,"Ġdistance":11194,"ister":11195,"isons":11196,"Ġaninitial":11197,"Ġ1000":11198,"Ġlear":11199,"Ġlumber":11200,"Ġlatter":11201,"station":11202,"Ġhast":11203,"Ġitfiled":11204,"ĠAmer":11205,"Ġona":11206,"Ġvary":11207,"ersaid":11208,"ĠMack":11209,"ĠMik":11210,"ceived":11211,"Ġstress":11212,"Ġgulf":11213,"oshi":11214,"otas":11215,"owe":11216,"Ġdefer":11217,"ĠParent":11218,"Ġconcrete":11219,"quality":11220,"Ġata":11221,"Ġwillnot":11222,"ĠJly":11223,"ĠJoe":11224,"ĠDetails":11225,"ĠDOLLAR":11226,"ewas":11227,"ĠHand":11228,"ĠHeller":11229,"ĠGi":11230,"ĠGab":11231,"Ġunnamed":11232,"abe":11233,"Ġ460":11234,"ĠOF":11235,"ĠOpp":11236,"ĠOff":11237,"artel":11238,"agriculture":11239,"agraph":11240,"allel":11241,"concent":11242,"ignment":11243,"Ġsparked":11244,"Ġthismorning":11245,"orsed":11246,"Ġ850":11247,"inished":11248,"Ġdisplay":11249,"Ġseed":11250,"Ġallies":11251,"Ġbox":11252,"Ġrot":11253,"Ġafterthe":11254,"Ġofficialssaid":11255,"Ġtonnage":11256,"Ġ202":11257,"ĠVenezuelan":11258,"Ġtonnesof":11259,"Ġenquir":11260,"Ġproposes":11261,"ĠAng":11262,"Ġ181":11263,"Ġ188":11264,"Ġarchitect":11265,"Ġarrears":11266,"venth":11267,"Ġtransmission":11268,"thschild":11269,"object":11270,"ynex":11271,"Ġ227":11272,"ĠProv":11273,"ĠProxmire":11274,"independent":11275,"ponents":11276,"Ġdemanded":11277,"asonally":11278,"ĠPlant":11279,"Ġconsiderably":11280,"Ġliqu":11281,"ĠZimbabwe":11282,"Star":11283,"955":11284,"Ġreality":11285,"compatible":11286,"ĠSpace":11287,"Ġunderwrite":11288,"crisis":11289,"azard":11290,"Ġmoder":11291,"Ġposting":11292,"Ġmanufactures":11293,"affirm":11294,"Ġsimultane":11295,"ĠIntermediate":11296,"ĠMonths":11297,"Ġbuildings":11298,"Ġlooked":11299,"office":11300,"ĠEconomics":11301,"Ġrestructured":11302,"equivalent":11303,"Ġcrew":11304,"Ġcreating":11305,"approximately":11306,"appropriate":11307,"ĠINc":11308,"employees":11309,"Ġadvisor":11310,"better":11311,"yndication":11312,"Ġemerge":11313,"Ġspecifically":11314,"Ġrestrictive":11315,"Ġblocks":11316,"Ġrebates":11317,"Ġgreatly":11318,"receive":11319,"Ġassuming":11320,"ĠAAA":11321,"ĠBuenos":11322,"projected":11323,"advantage":11324,"Ġdrafting":11325,"overseas":11326,"Investors":11327,"ĠKeating":11328,"recently":11329,"Ġspirit":11330,"ĠBangladesh":11331,"Ġcautioned":11332,"Ġmicrochips":11333,"Ġavailability":11334,"Ġtentative":11335,"ĠRadio":11336,"Brothers":11337,"Africa":11338,"Ġdramatic":11339,"ĠLufkin":11340,"opportunities":11341,"ĠDauster":11342,"Ġarrested":11343,"Ġrestaurants":11344,"Mexico":11345,"Ġpermanent":11346,"Ġgmt":11347,"Ġaggressively":11348,"Ġthefourth":11349,"Ġvigor":11350,"ĠSALES":11351,"veillance":11352,"ĠGlickman":11353,"419":11354,"410":11355,"App":11356,"Bell":11357,"Data":11358,"KG":11359,"PH":11360,"Que":11361,"Signal":11362,"VE":11363,"Video":11364,"VOW":11365,"Year":11366,"dah":11367,"eau":11368,"gar":11369,"give":11370,"hours":11371,"iative":11372,"lending":11373,"life":11374,"nord":11375,"ograph":11376,"rist":11377,"rating":11378,"sy":11379,"tomorrow":11380,"wind":11381,"Ġturning":11382,"iner":11383,"invent":11384,"Ġathree":11385,"Ġthebank":11386,"ĠtheBank":11387,"Ġthemoney":11388,"itche":11389,"especially":11390,"aration":11391,"Ġbag":11392,"Ġbodies":11393,"alog":11394,"Ġwet":11395,"Ġfares":11396,"ĠofH":11397,"Ġmix":11398,"Ġinquarter":11399,"ĠinApril":11400,"Ġtoits":11401,"ische":11402,"icts":11403,"Ġsaidthey":11404,"entral":11405,"oud":11406,"ouver":11407,"Ġlanguage":11408,"Ġhydro":11409,"ĠCorporate":11410,"Ġitst":11411,"ĠSqu":11412,"ĠSullivan":11413,"Ġforcing":11414,"think":11415,"ĠMag":11416,"ĠMellon":11417,"osmet":11418,"ĠTheir":11419,"ĠThecompany":11420,"ĠBorrow":11421,"esting":11422,"ima":11423,"ims":11424,"ĠPSE":11425,"ĠFT":11426,"Ġconven":11427,"andem":11428,"ĠDO":11429,"ĠLONDON":11430,"ĠLimited":11431,"ividend":11432,"Ġwasnot":11433,"emer":11434,"Ġ419":11435,"plants":11436,"ĠWells":11437,"Ġwouldnot":11438,"overed":11439,"ancouver":11440,"Ġleasing":11441,"Ġcontingent":11442,"Ġupturn":11443,"Ġcommand":11444,"ĠCommerzbank":11445,"ĠKy":11446,"Ġtradem":11447,"Ġforex":11448,"achus":11449,"Ġaccident":11450,"ĠChartered":11451,"Ġ204":11452,"Ġannum":11453,"Ġjury":11454,"ĠVenture":11455,"Ġsalesof":11456,"Ġtaxation":11457,"Ġhighway":11458,"Ġenormous":11459,"shire":11460,"arrange":11461,"Ġusage":11462,"Ġconservation":11463,"Ġterritory":11464,"Ġextensive":11465,"ĠEnhancement":11466,"Ġdiscounts":11467,"Ġdiscoura":11468,"Ġquoting":11469,"Ġdemanding":11470,"ĠIndustrie":11471,"Ġentity":11472,"phere":11473,"interests":11474,"Ġsupporting":11475,"ology":11476,"ĠShort":11477,"etrochemical":11478,"Ġ355":11479,"ĠZurich":11480,"Ġuseful":11481,"Ġdealerssaid":11482,"compens":11483,"ĠSpot":11484,"Ġtelev":11485,"ORK":11486,"ORP":11487,"333":11488,"quartered":11489,"quarterly":11490,"Ġacceptances":11491,"produce":11492,"Ġfeared":11493,"regon":11494,"Ġcapabilities":11495,"Ġopposes":11496,"Ġreviewed":11497,"ĠAndries":11498,"ĠEngine":11499,"Ġpassage":11500,"hareholders":11501,"spaper":11502,"Ġurge":11503,"Ġbroader":11504,"ĠBanco":11505,"Ġknowledge":11506,"bitration":11507,"ĠtheSoviet":11508,"Ġobtaining":11509,"clusive":11510,"Ġtrouble":11511,"adjustment":11512,"ĠWithout":11513,"Ġgreatest":11514,"Ġbullion":11515,"ĠSTG":11516,"Ġplayed":11517,"ĠAppeals":11518,"itching":11519,"ĠBefore":11520,"idelity":11521,"introduction":11522,"Ġwelcome":11523,"expendit":11524,"Ġpopulation":11525,"Iranian":11526,"Ġenvironmental":11527,"ĠSprint":11528,"Plc":11529,"Ġcontacts":11530,"facilities":11531,"Ġsquee":11532,"Ġrepurchases":11533,"Ġcourier":11534,"Ġcoordination":11535,"consumption":11536,"Ġthinks":11537,"ĠPetrobras":11538,"Ġinnov":11539,"ICCO":11540,"ederland":11541,"Ġeducation":11542,"ĠMONTHS":11543,"Sweden":11544,"ĠBUY":11545,"ĠHonda":11546,"Ġconvertiblesubordinated":11547,"Rudman":11548,"prepared":11549,"lumberger":11550,"Ġbaht":11551,"VOWG":11552,".),":11553,"110":11554,"422":11555,"925":11556,"CME":11557,"Mor":11558,"MIN":11559,"RC":11560,"Reg":11561,"SW":11562,"Yugoslav":11563,"cuts":11564,"gence":11565,"lb":11566,"listed":11567,"mun":11568,"marg":11569,"system":11570,"Ġtack":11571,"Ġsoci":11572,"Ġsinc":11573,"ĠtheNational":11574,"Ġtheindustry":11575,"Ġthemerger":11576,"ĠthePhilippines":11577,"enf":11578,"ede":11579,"Ġfunction":11580,"Ġframework":11581,"Ġmm":11582,"Ġincomes":11583,"isk":11584,"isch":11585,"Ġanx":11586,"etable":11587,"ĠCTS":11588,"ĠCargill":11589,"ĠRates":11590,"ĠASA":11591,"ĠIBC":11592,"unless":11593,"Ġbeend":11594,"Ġonits":11595,"cht":11596,"lease":11597,"Ġstagn":11598,"Ġprop":11599,"Ġprocure":11600,"Ġdlrsor":11601,"Ġshopping":11602,"Ġshorter":11603,"imposed":11604,"ĠPremier":11605,"Ġ332":11606,"ĠFrom":11607,"ĠFFR":11608,"Ġconventional":11609,"ĠUganda":11610,"Ġatwo":11611,"uling":11612,"upply":11613,"ecker":11614,"ĠLear":11615,"ĠLich":11616,"ĠLilly":11617,"ewould":11618,"ĠHorm":11619,"ĠGRAIN":11620,"astro":11621,"Ġ499":11622,"ubcommittee":11623,"Ġorange":11624,"Ġadmitted":11625,"ancer":11626,"Ġresort":11627,"Ġspons":11628,"Ġleased":11629,"Ġchosen":11630,"together":11631,"Ġqualif":11632,"iaz":11633,"Ġpret":11634,"Ġsalary":11635,"Ġmanip":11636,"Ġunderthe":11637,"Ġpayout":11638,"aird":11639,"Ġjuice":11640,"1992":11641,"1984":11642,"Ġkingdom":11643,"Ġbetwe":11644,"Ġraises":11645,"Ġrepairs":11646,"255":11647,"Ġregret":11648,"Ġbelong":11649,"Ġrefusal":11650,"ĠWestminster":11651,"retail":11652,"rants":11653,"Ġlikelihood":11654,"Ġagreedto":11655,"Ġ272":11656,"ĠProgressive":11657,"commod":11658,"Ġdetect":11659,"Ġ218":11660,"Ġdrill":11661,"Ġminerals":11662,"ĠAssistant":11663,"lesinger":11664,"Ġ299":11665,"ahy":11666,"Ġobserv":11667,"enna":11668,"compar":11669,"Ġdoesnot":11670,"Ġfeatures":11671,"iples":11672,"ĠNorstar":11673,"Ġturnaround":11674,"Ġsites":11675,"utchison":11676,"ĠColomb":11677,"electronics":11678,"ĠTransAmerican":11679,"aneiro":11680,"atistical":11681,"Ġunsuccessful":11682,"Ġsomewhat":11683,"ELL":11684,"ĠDelhi":11685,"sthis":11686,"Ġprepare":11687,"Ġautomaker":11688,"Ġautomobile":11689,"Ġattempting":11690,"Ġfruit":11691,"super":11692,"Ġprotected":11693,"Ġdoubts":11694,"ĠChemicals":11695,"Frank":11696,"Ġrapeseed":11697,"telecommunications":11698,"ĠEmbassy":11699,"Ġconsultant":11700,"Ġobjectives":11701,"Ġproceeding":11702,"Ġhaves":11703,"Ġsuccessfully":11704,"Ġcarefully":11705,"Manufacturers":11706,"Ġcomponent":11707,"Ġdependent":11708,"Ġbadly":11709,"Ġdistort":11710,"authorities":11711,"Ġprivatised":11712,"Ġinvestigating":11713,"takeover":11714,"prietary":11715,"Norway":11716,"ĠMorocco":11717,"Ġguilty":11718,"Ġcleared":11719,"Ġoutlets":11720,"Ġemphasis":11721,"Ġneither":11722,"Italian":11723,"Ġexcellent":11724,"Ġrepurchased":11725,"Ġtown":11726,"ĠHotels":11727,"Ġdiscovered":11728,"ĠOtto":11729,"registered":11730,"borrowing":11731,"potential":11732,"atisfactory":11733,"Ġvictory":11734,"Ġresumed":11735,"ranean":11736,"Ġaccumulated":11737,"Ġsensitive":11738,"Royal":11739,"iterranean":11740,"ĠChevron":11741,"Salomon":11742,"prospects":11743,"Ġoccup":11744,"CORREC":11745,"Ġfunctions":11746,"Ġunanimously":11747,"refundable":11748,"percentage":11749,"ĠLukman":11750,"achusetts":11751,"ĠAndriessen":11752,"\",":11753,"225":11754,"425":11755,"AK":11756,"Business":11757,"CL":11758,"Cable":11759,"Far":11760,"However":11761,"LS":11762,"Lib":11763,"Mos":11764,"MOC":11765,"NB":11766,"Nov":11767,"Produ":11768,"Rich":11769,"Total":11770,"Wed":11771,"XON":11772,"circ":11773,"kw":11774,"maker":11775,"pres":11776,"ror":11777,"rimin":11778,"ranging":11779,"sold":11780,"wan":11781,"wart":11782,"watch":11783,"zing":11784,"Ġtire":11785,"eron":11786,"Ġthestate":11787,"enith":11788,"orf":11789,"edia":11790,"Ġcit":11791,"Ġwood":11792,"Ġfalse":11793,"Ġmad":11794,"Ġinev":11795,"Ġinprinciple":11796,"room":11797,"isys":11798,"ishes":11799,"Ġanalysis":11800,"Ġandre":11801,"entech":11802,"etics":11803,"Ġrecon":11804,"Ġnecessarily":11805,"ĠCG":11806,"ĠCour":11807,"ĠRog":11808,"ĠRoche":11809,"ĠSources":11810,"uncertain":11811,"ĠMr":11812,"ĠMons":11813,"ĠMATUR":11814,"ceive":11815,"Ġgraphics":11816,"Ġ287":11817,"ĠBack":11818,"ĠBache":11819,"ested":11820,"Ġdevel":11821,"Ġexceeds":11822,"Ġ197":11823,"Ġ1974":11824,"oles":11825,"ĠPesch":11826,"ĠNord":11827,"Ġrall":11828,"Ġriver":11829,"ocate":11830,"ĠDat":11831,"ĠDur":11832,"ĠDFL":11833,"ĠLin":11834,"ivals":11835,"ĠGal":11836,"ĠGren":11837,"ĠGramm":11838,"ĠGundy":11839,"Ġ418":11840,"Ġhascompleted":11841,"Ġctsper":11842,"plin":11843,"Ġbilliondlr":11844,"aming":11845,"ĠWin":11846,"ĠWolf":11847,"ubject":11848,"Ġwouldn":11849,"excess":11850,"Ġ720":11851,"onger":11852,"Ġupgrade":11853,"Ġsharesoutstanding":11854,"ĠStat":11855,"ĠStcks":11856,"progress":11857,"programs":11858,"ĠHeavy":11859,"Ġundervalued":11860,"argest":11861,"Ġoilfield":11862,"achie":11863,"Ġ1100":11864,"Ġ209":11865,"enson":11866,"awk":11867,"ideast":11868,"uese":11869,"extended":11870,"ĠAnders":11871,"tonio":11872,"Ġarising":11873,"Ġarmy":11874,"standings":11875,"ĠSeoul":11876,"Ġdiscipl":11877,"Ġserves":11878,"Ġbudgetary":11879,"Ġbudgetdeficit":11880,"Ġ264":11881,"Ġembassy":11882,"ovan":11883,"ĠShipping":11884,"Ġours":11885,"ĠPrimary":11886,"noted":11887,"ĠĠĠĠĠĠĠĠĠĠĠĠĠĠĠĠĠĠĠĠ":11888,"ĠĠĠĠĠĠĠĠĠĠĠĠĠĠĠĠĠĠĠĠĠĠĠĠ":11889,"ĠPhoenix":11890,"ASH":11891,"lerc":11892,"Ġteleph":11893,"azda":11894,"ampion":11895,"Ġdefined":11896,"Ġdefended":11897,"Ġfeels":11898,"ĠTelevision":11899,"Ġapplies":11900,"Ġcombat":11901,"grades":11902,"Ġantitrust":11903,"Ġintroducing":11904,"offerings":11905,"Ġ421":11906,"Ġelev":11907,"Ġslowdown":11908,"Ġtwop":11909,"Ġthepurchase":11910,"Ġrefiners":11911,"ĠMalcolm":11912,"Ġretailer":11913,"ĠIslands":11914,"Ġeverything":11915,"Ġlinking":11916,"Ġblocked":11917,"leveland":11918,"folk":11919,"ĠEquitable":11920,"considered":11921,"uki":11922,"Ġtroubled":11923,"apsed":11924,"Ġevents":11925,"ĠDenver":11926,"Ġattracted":11927,"ĠBlock":11928,"Ġcriticized":11929,"Ġeliminated":11930,"Ġschemes":11931,"Management":11932,"Ġsyndicated":11933,"Ġconfidential":11934,"Ġdiversion":11935,"ĠRedstone":11936,"Ġkeen":11937,"ĠRegulatory":11938,"mainly":11939,"ĠBerlin":11940,"Ġadoption":11941,"Ġpredictions":11942,"Ġthetotal":11943,"Ġoutlays":11944,"ĠSamuel":11945,"Ġaccelerated":11946,"Ġacompany":11947,"package":11948,"ĠRATES":11949,"Goldman":11950,"Ġmicrochip":11951,"ĠOliv":11952,"ĠNazer":11953,"ĠMerchant":11954,"Ġdinars":11955,"Ġdetermination":11956,"Ġcategory":11957,"ĠCommunist":11958,"ĠDiplomats":11959,"ĠGhana":11960,"ĠMLN":11961,"ĠLewis":11962,"ĠStrategic":11963,"ĠMikulic":11964,"ĠMATURITY":11965,".&#":11966,"421":11967,"660":11968,"Bl":11969,"JAN":11970,"James":11971,"Port":11972,"QU":11973,"Ro":11974,"Robert":11975,"San":11976,"WL":11977,"ZL":11978,"dated":11979,"door":11980,"failed":11981,"serious":11982,"zo":11983,"Ġtreated":11984,"Ġaresult":11985,"heavy":11986,"Ġthegroup":11987,"Ġoz":11988,"itored":11989,"Ġcoco":11990,"arse":11991,"atured":11992,"Ġball":11993,"Ġbeneficial":11994,"almost":11995,"Ġwarm":11996,"Ġfel":11997,"Ġfib":11998,"Ġfreedom":11999,"Ġinwhich":12000,"ĠinWashington":12001,"Ġtodiscuss":12002,"rote":12003,"isms":12004,"Ġanincrease":12005,"Ġanimal":12006,"uto":12007,"ĠandS":12008,"entered":12009,"etimes":12010,"ĠTW":12011,"ĠRoss":12012,"Ġithad":12013,"Ġitreceived":12014,"ĠSorghum":12015,"ĠAPI":12016,"Ġforth":12017,"ĠMain":12018,"ĠRecent":12019,"Ġstory":12020,"Ġislikely":12021,"ĠPoint":12022,"ĠFE":12023,"ĠInflation":12024,"ĠEvans":12025,"ĠJournal":12026,"ĠLes":12027,"Ġalli":12028,"Ġaletter":12029,"ĠHart":12030,"ĠHoll":12031,"ĠHilton":12032,"ounced":12033,"Ġ475":12034,"Ġtrim":12035,"ĠWat":12036,"ĠWeek":12037,"ĠWendy":12038,"oded":12039,"arta":12040,"conversion":12041,"Ġperform":12042,"Ġshared":12043,"forth":12044,"Ġ950":12045,"ollo":12046,"Ġupfrom":12047,"Ġafurther":12048,"Ġaboutthe":12049,"vian":12050,"Ġcompatible":12051,"activity":12052,"ĠKenneth":12053,"Ġtheywere":12054,"ĠMario":12055,"ĠMarlin":12056,"Ġunderstood":12057,"Ġboom":12058,"izsa":12059,"Ġendorse":12060,"Ġclub":12061,"acha":12062,"Ġ208":12063,"weighted":12064,"ĠCommodities":12065,"ĠVern":12066,"anadministration":12067,"shar":12068,"257":12069,"Ġdeclare":12070,"Ġfunded":12071,"104":12072,"309":12073,"defin":12074,"ĠNOV":12075,"Ġoptical":12076,"ceeding":12077,"403":12078,"Ġattending":12079,"Ġreturning":12080,"Ġ238":12081,"ĠProduct":12082,"Ġflu":12083,"Ġ212":12084,"annually":12085,"ĠSharp":12086,"mining":12087,"ĠAircraft":12088,"Ġtenderoffer":12089,"Ġimporting":12090,"Ġ297":12091,"Ġprojections":12092,"learing":12093,"ĠPresidential":12094,"DAY":12095,"Ġprotests":12096,"Ġblow":12097,"Ġcommenting":12098,"Ġscrap":12099,"Ġwarships":12100,"aunch":12101,"Ġpromise":12102,"Ġsimpl":12103,"ientists":12104,"ĠAccept":12105,"ĠNorwegian":12106,"Ġtotake":12107,"Ġpassengers":12108,"consolidated":12109,"Ġbigger":12110,"Ġ5720":12111,"Ġbreach":12112,"Ġwriting":12113,"Any":12114,"ĠMcG":12115,"Ġsuccessor":12116,"Ġrefineries":12117,"Ġpollution":12118,"Ġsolutions":12119,"Ġgenerating":12120,"ĠCOMP":12121,"ĠCOPP":12122,"Ġsometime":12123,"ĠMinnesota":12124,"Ġcomplained":12125,"ĠBancshares":12126,"Ġtrustee":12127,"USAir":12128,"Enter":12129,"vironment":12130,"funda":12131,"ĠSciences":12132,"Ġrental":12133,"ĠPartnership":12134,"ĠWarner":12135,"Ġtyp":12136,"reduce":12137,"ĠGlass":12138,"Ġdependence":12139,"amaichi":12140,"achev":12141,"Ġconcentrated":12142,"confidence":12143,"Ġdevices":12144,"orbachev":12145,"ĠIrish":12146,"Lawson":12147,"ĠMilan":12148,"expansion":12149,"ĠBasin":12150,"ĠMatheson":12151,"ĠPatrick":12152,"ĠNeither":12153,"charges":12154,"charged":12155,"Ġcandidate":12156,"Philippine":12157,"ĠGrowers":12158,"rackets":12159,"Ġbenchmark":12160,"ĠCaspar":12161,"ĠPersonal":12162,"Ġprosecutor":12163,"Ġchoose":12164,"ĠCommonwealth":12165,"ĠPSBR":12166,"purposes":12167,"Ġpersuade":12168,"Ġboycott":12169,"ĠReaganadministration":12170,"ĠSTOCKS":12171,"osmetics":12172,"Ġpretty":12173,"ĠCOPPER":12174,"040":12175,"115":12176,"230":12177,"325":12178,"550":12179,"Bur":12180,"Banque":12181,"CD":12182,"Ca":12183,"Cor":12184,"Dixons":12185,"Great":12186,"Heal":12187,"Iv":12188,"LD":12189,"My":12190,"Over":12191,"PS":12192,"RO":12193,"Soci":12194,"TON":12195,"bor":12196,"best":12197,"bach":12198,"bring":12199,"bills":12200,"city":12201,"federal":12202,"gam":12203,"hn":12204,"iest":12205,"iag":12206,"iances":12207,"matur":12208,"som":12209,"systems":12210,"sector":12211,"tank":12212,"uant":12213,"wid":12214,"Ġtact":12215,"Ġtension":12216,"onial":12217,"Ġscr":12218,"retal":12219,"ĠtheEC":12220,"itively":12221,"essthan":12222,"enominations":12223,"edo":12224,"Ġferry":12225,"Ġofwhich":12226,"Ġofinterest":12227,"ĠofAmerica":12228,"ĠinLondon":12229,"asters":12230,"Ġandt":12231,"Ġlender":12232,"Ġlessthan":12233,"Ġhin":12234,"Ġhaver":12235,"ĠTower":12236,"ĠCall":12237,"ĠCav":12238,"ĠCarter":12239,"Ġthos":12240,"ĠRest":12241,"Ġitplans":12242,"elve":12243,"ĠSUG":12244,"Ġforg":12245,"Ġmlnbarrels":12246,"Ġbecompleted":12247,"leaded":12248,"leaders":12249,"ĠBab":12250,"ĠBrent":12251,"estate":12252,"Ġshock":12253,"pand":12254,"immer":12255,"Ġ1977":12256,"Ġpctand":12257,"ĠPIK":12258,"ĠFargo":12259,"ĠFox":12260,"Ġconstant":12261,"quota":12262,"quotas":12263,"Ġthatit":12264,"Ġfromdiscontinued":12265,"econt":12266,"Ġaswell":12267,"ĠEver":12268,"ĠEUR":12269,"ĠDie":12270,"ĠDistillers":12271,"Ġalter":12272,"ĠHal":12273,"ĠHills":12274,"emala":12275,"aked":12276,"akarta":12277,"trust":12278,"ouri":12279,"ĠOregon":12280,"reek":12281,"overall":12282,"theless":12283,"Ġbankrupt":12284,"dered":12285,"Ġchild":12286,"unders":12287,"istol":12288,"Ġ875":12289,"Ġbutthe":12290,"ĠCohen":12291,"ĠStone":12292,"Ġtwoyears":12293,"Ġprinc":12294,"ixon":12295,"Ġaccur":12296,"Ġ207":12297,"Ġinterestpayments":12298,"Ġcouldbe":12299,"assistance":12300,"Ġfinances":12301,"Ġtotals":12302,"Ġconsisting":12303,"ĠAnalyst":12304,"Ġanyone":12305,"ffective":12306,"109":12307,"Ġartific":12308,"Ġfinancially":12309,"banken":12310,"165":12311,"Ġboarddeclared":12312,"strument":12313,"Ġattended":12314,"rell":12315,"Ġ221":12316,"Ġ229":12317,"Ġ234":12318,"Ġ241":12319,"Ġshortages":12320,"Ġexpress":12321,"Ġannualmeeting":12322,"commun":12323,"Ġfilm":12324,"ĠPlus":12325,"ĠPresidentReagan":12326,"Ġcompetitor":12327,"Ġsteam":12328,"Ġbloc":12329,"Ġconfront":12330,"Ġheadded":12331,"MEAL":12332,"Ġ347":12333,"ALS":12334,"334":12335,"Ġcouple":12336,"ĠAddition":12337,"Ġletters":12338,"Ġpromoting":12339,"ĠBrad":12340,"ĠBrun":12341,"ĠPhilip":12342,"Ġarranging":12343,"ĠAccord":12344,"Ġgreen":12345,"UND":12346,"UNCH":12347,"ĠSELL":12348,"athon":12349,"Ġrejection":12350,"Ġthepublic":12351,"ĠSchro":12352,"employed":12353,"ĠRepublicBank":12354,"ĠMinor":12355,"oeing":12356,"Ġattempted":12357,"ĠLoanAssociation":12358,"Ġworse":12359,"Ġmaxim":12360,"Ġdefinition":12361,"ĠMetals":12362,"Ġcement":12363,"Associ":12364,"Ġtroy":12365,"Ġstanding":12366,"Ġstandstill":12367,"Ġmarginal":12368,"Ġharvesting":12369,"Ġreschedule":12370,"Ġplayers":12371,"Ġzones":12372,"ĠRothschild":12373,"Ġhaveto":12374,"Ġdiversify":12375,"amaica":12376,"Ġauditors":12377,"Advanced":12378,"ĠThomson":12379,"Ġthelargest":12380,"Ġconclude":12381,"Ġwindow":12382,"Ġaccelerate":12383,"wheel":12384,"began":12385,"beginning":12386,"petual":12387,"Ġweakened":12388,"ĠRetail":12389,"Ġreserved":12390,"emonths":12391,"Ġassurance":12392,"ĠInitial":12393,"ĠRailway":12394,"Ġaveraging":12395,"Malaysia":12396,"ĠMichel":12397,"zania":12398,"Ġtreasurer":12399,"ĠinLuxembourg":12400,"ĠCelanese":12401,"ĠMaryland":12402,"ĠStephen":12403,"ĠCathay":12404,"ĠBaghdad":12405,"ĠEricsson":12406,"sych":12407,"ĠOlivetti":12408,"izsaecker":12409,"ĠSUGAR":12410,").\"":12411,"119":12412,"220":12413,"275":12414,"640":12415,"780":12416,"Bang":12417,"BOT":12418,"Euro":12419,"FI":12420,"Free":12421,"IUM":12422,"Liber":12423,"ND":12424,"Oil":12425,"Offic":12426,"OECD":12427,"SP":12428,"Some":12429,"Val":12430,"Yeutter":12431,"aq":12432,"burn":12433,"eop":12434,"green":12435,"ho":12436,"kes":12437,"na":12438,"sale":12439,"won":12440,"you":12441,"ype":12442,"zz":12443,"Ġerr":12444,"ertain":12445,"Ġsyn":12446,"refin":12447,"ani":12448,"Ġthelast":12449,"ati":12450,"atethe":12451,"Ġbureau":12452,"ĠofJapan":12453,"Ġofcommon":12454,"Ġofdirectors":12455,"Ġinch":12456,"idency":12457,"Ġtoimprove":12458,"utr":12459,"oup":12460,"Ġlag":12461,"Ġelement":12462,"ĠTtl":12463,"ĠCord":12464,"Ġitacquired":12465,"illa":12466,"elimin":12467,"ĠSon":12468,"ĠIto":12469,"unlikely":12470,"Ġbearing":12471,"ĠonT":12472,"chi":12473,"Ġvend":12474,"Ġstages":12475,"lyn":12476,"ĠBV":12477,"ĠBrace":12478,"imilar":12479,"raf":12480,"olt":12481,"ĠPRE":12482,"ĠPeps":12483,"ĠNich":12484,"Ġconstrain":12485,"quick":12486,"ĠIns":12487,"ecip":12488,"Ġaspects":12489,"ĠEstate":12490,"ĠDC":12491,"ĠDEL":12492,"ĠDomes":12493,"ĠGro":12494,"ĠGould":12495,"Ġunwilling":12496,"akota":12497,"acility":12498,"Ġ435":12499,"traded":12500,"again":12501,"them":12502,"ifers":12503,"Ġwhichwill":12504,"Ġresale":12505,"ibr":12506,"Ġchann":12507,"Ġmonitored":12508,"Ġthisweek":12509,"apy":12510,"Ġoneof":12511,"Ġcommissions":12512,"urrency":12513,"Ġfinally":12514,"ĠKay":12515,"ĠKey":12516,"ĠKleinwort":12517,"Ġoverr":12518,"Ġmanner":12519,"onnais":12520,"ĠMarshall":12521,"ĠHey":12522,"Ġappointment":12523,"ĠUntil":12524,"Ġoiland":12525,"ĠYamaichi":12526,"Ġ206":12527,"ountry":12528,"ĠTher":12529,"parties":12530,"Ġindenominations":12531,"Ġspokesmen":12532,"Ġ179":12533,"Ġsixmonths":12534,"urniture":12535,"Ġarmed":12536,"flu":12537,"bankruptcy":12538,"ĠSeemala":12539,"Ġserving":12540,"Ġslack":12541,"Ġbases":12542,"yne":12543,"Ġ226":12544,"Ġ232":12545,"ĠProperties":12546,"Ġ248":12547,"communications":12548,"Ġ211":12549,"Thailand":12550,"ovich":12551,"ĠShad":12552,"ĠShow":12553,"volution":12554,"Ġparallel":12555,"Ġconsuming":12556,"ANC":12557,"179":12558,"147":12559,"ĠIranians":12560,"Ġmetres":12561,"Ġstepped":12562,"Ġjointventure":12563,"orne":12564,"Ġpresently":12565,"Ġindicates":12566,"stockholders":12567,"Ġseeing":12568,"ĠMonier":12569,"Ġtested":12570,"Ġarrived":12571,"ĠOrange":12572,"consult":12573,"news":12574,"substantially":12575,"ĠCarbide":12576,"Ġprospective":12577,"Ġinsist":12578,"Ġthepresident":12579,"Ġquestioned":12580,"ĠPaulVolcker":12581,"Ġautomatic":12582,".........":12583,"ĠBarber":12584,"considerable":12585,"funding":12586,"transfer":12587,"Ġcease":12588,"rects":12589,"estimates":12590,"Ġcareful":12591,"swick":12592,"ĠShareholders":12593,"Ġappealed":12594,"Ġamendments":12595,"Ġshutdown":12596,"Ġsafegu":12597,"Ġlaboratory":12598,"Ġargue":12599,"ĠWalter":12600,"does":12601,"laws":12602,"ĠSepar":12603,"details":12604,"IVE":12605,"Ġcontainer":12606,"Ġadvertise":12607,"Ġinsurers":12608,"Ġimmunity":12609,"CPB":12610,"Ġtools":12611,"Ġflooding":12612,"Ġfranchise":12613,"claims":12614,"ĠRainbow":12615,"Ġsupplementary":12616,"brokerage":12617,"ĠSOYBEANS":12618,"ĠSatoshi":12619,"Organization":12620,"Ġmessage":12621,"heimer":12622,"ĠTHREE":12623,"Ġgathering":12624,"anticipated":12625,"frame":12626,"ĠEcuadorean":12627,"orandum":12628,"premium":12629,"extraordinary":12630,"Ġadversely":12631,"ĠBUYER":12632,"ĠGrenfell":12633,"./":12634,"135":12635,"270":12636,"217":12637,"440":12638,"560":12639,"720":12640,"Card":12641,"Egypt":12642,"GDP":12643,"GNP":12644,"Mitsubishi":12645,"NEC":12646,"RW":12647,"UD":12648,"YR":12649,"cethe":12650,"dner":12651,"ek":12652,"gests":12653,"hus":12654,"iar":12655,"maining":12656,"number":12657,"pop":12658,"Ġtak":12659,"Ġsports":12660,"review":12661,"ĠtheH":12662,"Ġtheh":12663,"Ġtheinternational":12664,"Ġthepreviously":12665,"Ġthetransaction":12666,"Ġoctane":12667,"esco":12668,"encing":12669,"Ġcounty":12670,"Ġpilots":12671,"Ġbarge":12672,"Ġfaith":12673,"Ġmist":12674,"iser":12675,"icit":12676,"Ġandc":12677,"Ġandpriced":12678,"entire":12679,"stated":12680,"Ġreporter":12681,"008":12682,"Ġnaval":12683,"ĠCiba":12684,"ĠSH":12685,"ĠSol":12686,"ĠSait":12687,"ĠSyr":12688,"ĠSoutheast":12689,"ĠALL":12690,"uron":12691,"urance":12692,"Ġbeent":12693,"Ġvast":12694,"ĠMats":12695,"ĠMountain":12696,"Ġstorm":12697,"ĠBourse":12698,"rescheduling":12699,"resdner":12700,"igaret":12701,"Ġisol":12702,"otus":12703,"panied":12704,"Ġ194":12705,"Ġ1976":12706,"ĠPen":12707,"ĠPick":12708,"ĠNob":12709,"ĠNoting":12710,"Ġ345":12711,"Ġconvers":12712,"ĠInn":12713,"ĠInland":12714,"Ġwillhave":12715,"ocation":12716,"endous":12717,"ĠJeep":12718,"ĠDub":12719,"ĠDayton":12720,"ĠDiaz":12721,"orest":12722,"Ġyearly":12723,"eway":12724,"ĠHenders":12725,"Ġunquoted":12726,"rices":12727,"ficiency":12728,"Ġ440":12729,"Ġbillionfrancs":12730,"ĠWater":12731,"odes":12732,"thetic":12733,"exam":12734,"exporters":12735,"congress":12736,"concession":12737,"Ġwhichhas":12738,"ellular":12739,"Ġaccommod":12740,"Ġplatinum":12741,"rene":12742,"Ġspoke":12743,"ibilities":12744,"prim":12745,"rease":12746,"Ġcontext":12747,"oked":12748,"Ġimage":12749,"ĠCoInc":12750,"ĠKuro":12751,"avir":12752,"Ġundertaken":12753,"Ġendorsed":12754,"ĠChad":12755,"Ġ305":12756,"Ġamort":12757,"Ġstrugg":12758,"Ġkw":12759,"Ġproposing":12760,"Ġtotally":12761,"Ġprovid":12762,"Ġcentres":12763,"Ġsetback":12764,"Insurance":12765,"Ġ502":12766,"Ġanalystssaid":12767,"Ġmaybe":12768,"ĠFinnish":12769,"168":12770,"Ġdeliber":12771,"oba":12772,"relations":12773,"wholly":12774,"oundation":12775,"Ġ271":12776,"Ġdidn":12777,"ĠProject":12778,"Ġ242":12779,"Ġsuchas":12780,"Ġdetail":12781,"Ġ405":12782,"Ġ214":12783,"Ġsenators":12784,"455":12785,"ĠPratt":12786,"Ġmeters":12787,"continental":12788,"Ġconcerted":12789,"Ġsharing":12790,"Ġpeace":12791,"Ġpostpone":12792,"ĠCenters":12793,"regular":12794,"Ġantib":12795,"ĠNorfolk":12796,"Ġtradedeficit":12797,"Ġgoverning":12798,"Ġrespective":12799,"Ġpolitically":12800,"Ġ----":12801,"Ġviewed":12802,"Ġdiscounted":12803,"Ġfindings":12804,"Ġintentions":12805,"ĠMidwest":12806,"kept":12807,"ĠIslam":12808,"burgh":12809,"Ġstabilisation":12810,"Ġlawsuits":12811,"Ġautomakers":12812,"Ġdepositors":12813,"engine":12814,"Ġmissing":12815,"Ġviolation":12816,"Ġtechniques":12817,"Ġhimself":12818,"Ġorganisations":12819,"Ġweren":12820,"guilders":12821,"Ġassociations":12822,"discount":12823,"ĠEnterprise":12824,"Agency":12825,"controls":12826,"block":12827,"Ġuncertainties":12828,"running":12829,"ĠSubcommittee":12830,"representing":12831,"ĠCosaid":12832,"person":12833,"senior":12834,"processor":12835,"ĠOutput":12836,"Ġassessment":12837,"Ġreacted":12838,"ĠWalker":12839,"Netherlands":12840,"design":12841,"designed":12842,"Ġmarine":12843,"itrus":12844,"Ġplatforms":12845,"AGO":12846,"ĠIsraeli":12847,"Ġevaluating":12848,"strategy":12849,"registration":12850,"Ġroads":12851,"Ġthousand":12852,"dumping":12853,"ĠConnecticut":12854,"Ġbargaining":12855,"needed":12856,"connection":12857,"ĠConrail":12858,"guaranteed":12859,"Ġargument":12860,"Ġprofessional":12861,"Ġconsequences":12862,"Ġpipelines":12863,"Ġfriendly":12864,"Ġcharacter":12865,"Ġprocurement":12866,"ĠBacklog":12867,"eopard":12868,"185":12869,"117":12870,"280":12871,"432":12872,"BH":12873,"EY":12874,"Niger":12875,"PM":12876,"PW":12877,"Pakistan":12878,"PZL":12879,"Sep":12880,"bin":12881,"bell":12882,"case":12883,"drop":12884,"flect":12885,"full":12886,"gard":12887,"mary":12888,"near":12889,"nual":12890,"pson":12891,"saying":12892,"tro":12893,"uor":12894,"uce":12895,"winter":12896,"Ġtick":12897,"Ġtrees":12898,"inational":12899,"Ġast":12900,"Ġaided":12901,"erner":12902,"oni":12903,"Ġsn":12904,"Ġsown":12905,"Ġshed":12906,"Ġthefinancial":12907,"Ġtheperiod":12908,"itage":12909,"itney":12910,"orable":12911,"orms":12912,"orthern":12913,"Ġpark":12914,"Ġpapers":12915,"Ġwrote":12916,"Ġinstruct":12917,"ĠinOctober":12918,"isan":12919,"Ġanin":12920,"iler":12921,"icable":12922,"utility":12923,"ĠandTel":12924,"enty":12925,"etas":12926,"Ġlaser":12927,"Ġrely":12928,"Ġrevaluation":12929,"Ġneutral":12930,"ĠTob":12931,"ĠCut":12932,"ĠCATTLE":12933,"ĠRom":12934,"ĠRos":12935,"ĠRosen":12936,"eless":12937,"thony":12938,"chor":12939,"ĠMideast":12940,"ĠReport":12941,"ĠBi":12942,"ĠBil":12943,"igy":12944,"Ġshape":12945,"rac":12946,"oland":12947,"ĠPork":12948,"ĠPack":12949,"ĠNors":12950,"ĠNog":12951,"ĠNederland":12952,"Ġ385":12953,"ĠFEC":12954,"Ġasp":12955,"Ġaspecial":12956,"ĠJoint":12957,"ĠJordan":12958,"Ġwhatever":12959,"Ġwhiche":12960,"ĠLeg":12961,"ĠLakes":12962,"ĠLeasing":12963,"ĠHock":12964,"ĠHard":12965,"ĠHernandez":12966,"erex":12967,"ĠGa":12968,"ĠGRAD":12969,"ĠGorbachev":12970,"Ġunclear":12971,"Ġunacceptable":12972,"abling":12973,"Ġ470":12974,"Ġbillionyen":12975,"Ġbillionmarks":12976,"ĠOats":12977,"ĠOptions":12978,"manufacturers":12979,"portation":12980,"portfol":12981,"Ġ640":12982,"Ġadec":12983,"ifted":12984,"ellets":12985,"Ġrescheduled":12986,"Ġresidual":12987,"ugal":12988,"Ġlosscarry":12989,"Ġchart":12990,"Ġstockmarket":12991,"Ġthismonth":12992,"usted":12993,"Ġupcoming":12994,"Ġupgraded":12995,"rowave":12996,"ĠCoal":12997,"ĠCoLtd":12998,"akeover":12999,"issory":13000,"Ġ1200":13001,"owns":13002,"lie":13003,"Ġclo":13004,"Ġassured":13005,"Ġthreeyears":13006,"Ġ302":13007,"Ġ308":13008,"1989":13009,"sharing":13010,"Ġindict":13011,"254":13012,"Ġ313":13013,"Ġremark":13014,"Ġ508":13015,"Ġ258":13016,"103":13017,"flag":13018,"flight":13019,"emberton":13020,"offset":13021,"contra":13022,"Ġbasket":13023,"Ġcoarse":13024,"Ġcriminal":13025,"Ġ244":13026,"Ġexped":13027,"Ġmoneymarket":13028,"committed":13029,"vertising":13030,"Ġnewsprint":13031,"Ġbidders":13032,"Ġdrastic":13033,"ĠPlaza":13034,"Ġ282":13035,"Ġ284":13036,"Ġbasispoints":13037,"Ġadvice":13038,"Ġtendering":13039,"INC":13040,"ĠFinanceMinister":13041,"Ġlocation":13042,"stitutes":13043,"ucr":13044,"138":13045,"Ġforma":13046,"Ġforming":13047,"951":13048,"ennis":13049,"141":13050,"149":13051,"Ġsteers":13052,"Ġblast":13053,"224":13054,"Ġauthorization":13055,"Ġscientists":13056,"pecific":13057,"ictures":13058,"intex":13059,"intosh":13060,"Ġfarmer":13061,"Ġ337":13062,"ableto":13063,"Ġarrive":13064,"steel":13065,"ettle":13066,"298":13067,"Ġcharging":13068,"built":13069,"Ġswing":13070,"Ġliquids":13071,"shareholder":13072,"subs":13073,"subject":13074,"substantial":13075,"ĠCaribbean":13076,"Ġelements":13077,"ĠGolden":13078,"Ġbreaking":13079,"Ġdonors":13080,"Ġtherest":13081,"Ġtwom":13082,"Ġinsufficient":13083,"Ġlicence":13084,"ĠPrimeMinister":13085,"Ġunsolicited":13086,"Alleg":13087,"ĠDelegates":13088,"Ġterminate":13089,"ĠDavis":13090,"Ġoccas":13091,"Ġworry":13092,"USDA":13093,"ĠMeat":13094,"ĠScientific":13095,"Ġedible":13096,"BBER":13097,"Ġsupercomputer":13098,"ĠWithin":13099,"Ġkilowatt":13100,"ĠBlue":13101,"ĠXerox":13102,"UMIN":13103,"ĠFranklin":13104,"Asia":13105,"ĠEurodollar":13106,"Ġregarded":13107,"ĠOPENING":13108,"Ġadequacy":13109,"Ġprecious":13110,"Ġfinish":13111,"ĠHenley":13112,"customer":13113,"ĠLibyan":13114,"caused":13115,"Ġcereal":13116,"Ġdiscovery":13117,"Ġmonitoring":13118,"consumers":13119,"Ġinsurer":13120,"ĠtheBundesbank":13121,"Ġgallon":13122,"Ġgallons":13123,"question":13124,"Democratic":13125,"African":13126,"ĠPontiac":13127,"Ġhospitals":13128,"ĠALUMIN":13129,"limit":13130,"privately":13131,"Ġriyal":13132,"annesmann":13133,"Ġmentioned":13134,"Ġlength":13135,"Ġindebtedness":13136,"ĠAustria":13137,"ĠCuba":13138,"ĠEurobonds":13139,"ĠVienna":13140,"Smith":13141,"ĠCustoms":13142,"Ġaccompanied":13143,"ĠRUBBER":13144,"Quebec":13145,"ĠHormuz":13146,"ĠColombian":13147,"ĠSeparately":13148,"ĠHenderson":13149,"ĠKuroda":13150,"Ġkwacha":13151,".(":13152,"045":13153,"175":13154,"240":13155,"260":13156,"332":13157,"394":13158,"430":13159,"680":13160,"785":13161,"840":13162,"BD":13163,"Boeing":13164,"Fuj":13165,"Kong":13166,"LIBOR":13167,"Mobil":13168,"Pan":13169,"Paul":13170,"Sterling":13171,"Today":13172,"XL":13173,"big":13174,"cock":13175,"cars":13176,"credits":13177,"event":13178,"efficient":13179,"fire":13180,"food":13181,"gains":13182,"having":13183,"holm":13184,"keep":13185,"lish":13186,"little":13187,"mortgage":13188,"sell":13189,"uo":13190,"Ġtor":13191,"ona":13192,"Ġsil":13193,"anium":13194,"anabe":13195,"ĠtheAmerican":13196,"Ġtheadministration":13197,"ito":13198,"Ġpra":13199,"Ġpeg":13200,"Ġpilot":13201,"Ġbatt":13202,"Ġbrackets":13203,"Ġfilled":13204,"Ġfuels":13205,"ĠofD":13206,"Ġing":13207,"ĠinJapan":13208,"Ġtol":13209,"isd":13210,"ilitary":13211,"ĠandM":13212,"Ġrefer":13213,"Ġevaluation":13214,"ĠTa":13215,"ĠTok":13216,"ĠCrop":13217,"ĠCoca":13218,"ĠRh":13219,"eled":13220,"elevision":13221,"tha":13222,"vehic":13223,"Ġonemln":13224,"chaft":13225,"ĠReeb":13226,"Ġstopp":13227,"Ġproprietary":13228,"lym":13229,"ĠBall":13230,"ĠBase":13231,"ĠBAS":13232,"ĠBeth":13233,"ĠBenson":13234,"reserve":13235,"igs":13236,"oli":13237,"olester":13238,"ĠPapan":13239,"ĠFo":13240,"ĠFTC":13241,"Ġconced":13242,"Ġconvention":13243,"Ġthatwould":13244,"Ġrush":13245,"ecause":13246,"ocra":13247,"ĠJakarta":13248,"ĠDAY":13249,"ĠLind":13250,"ĠLatest":13251,"ĠLucky":13252,"ĠLIFF":13253,"ĠHutchison":13254,"ĠGener":13255,"ĠGrace":13256,"Ġunknown":13257,"emi":13258,"empl":13259,"acom":13260,"Ġ490":13261,"amend":13262,"ĠWash":13263,"ĠOm":13264,"ĠOre":13265,"ĠOcean":13266,"agle":13267,"ossibility":13268,"Ġadher":13269,"Ġwhichis":13270,"antages":13271,"pected":13272,"prime":13273,"too":13274,"unda":13275,"eeks":13276,"Ġimporter":13277,"iah":13278,"Ġoutstandings":13279,"Ġsalaries":13280,"erved":13281,"Ġsea":13282,"Ġexpectation":13283,"izza":13284,"Ġ1500":13285,"Ġoilprices":13286,"ango":13287,"ĠCharter":13288,"ensland":13289,"ĠVentures":13290,"ĠVancouver":13291,"Ġambassador":13292,"194":13293,"association":13294,"Ġweigh":13295,"Ġfivepct":13296,"Ġfiveyears":13297,"Ġsomeone":13298,"tainer":13299,"Ġrare":13300,"inistries":13301,"253":13302,"Int":13303,"Institute":13304,"Ġremed":13305,"Ġ503":13306,"Ġdownfrom":13307,"pute":13308,"864":13309,"Ġrisein":13310,"standard":13311,"Ġbeforethe":13312,"offers":13313,"Ġmarkka":13314,"157":13315,"Ġ236":13316,"Ġ239":13317,"Ġ247":13318,"Ġ249":13319,"Ġmerely":13320,"Ġprivates":13321,"Ġannualized":13322,"ĠSecuritiesand":13323,"Ġsecondquarter":13324,"Ġrelation":13325,"interview":13326,"Ġrestart":13327,"123":13328,"oves":13329,"ĠAirport":13330,"358":13331,"Ġ294":13332,"Ġ296":13333,"134":13334,"atorial":13335,"Ġstakein":13336,"ĠTreasurySecretary":13337,"dersecretary":13338,"Ġ455":13339,"Ġmodified":13340,"555":13341,"Deutsche":13342,"ICH":13343,"producer":13344,"271":13345,"grading":13346,"granted":13347,"ĠEnglish":13348,"oliden":13349,"ermo":13350,"University":13351,"Ġentering":13352,"Ġengage":13353,"FFEE":13354,"Ġfavoured":13355,"Ġtheright":13356,"Express":13357,"Ġvisited":13358,"ĠSchlesinger":13359,"Coast":13360,"ĠCOCOA":13361,"ĠCOFFEE":13362,"Ġsometimes":13363,"Ġcomplaints":13364,"Ġautomatically":13365,"ĠSmall":13366,"Ġbooked":13367,"ĠAbdul":13368,"required":13369,"reciation":13370,"Ġstimul":13371,"bros":13372,"Ġcolle":13373,"Ġrumored":13374,"Prudential":13375,"eregulation":13376,"Ġtimetable":13377,"Ġbonuses":13378,"ĠPCGG":13379,"Ġissuers":13380,"ĠCruz":13381,"reducing":13382,"Ġportfolios":13383,"Ġregardless":13384,"ĠSubs":13385,"ĠBonds":13386,"Ġpickup":13387,"Ġinitiatives":13388,"midt":13389,"dividends":13390,"Ġprecip":13391,"Ġnorthwest":13392,"ĠMissouri":13393,"america":13394,"Ġdeeply":13395,"Represent":13396,"Control":13397,"Ġdefendants":13398,"Ġhedge":13399,"defense":13400,"Ġdisappointing":13401,"ĠPortuguese":13402,"Ġinstallation":13403,"Ġweakening":13404,"provisional":13405,"Geigy":13406,"increasingly":13407,"deposits":13408,"Ġindirectly":13409,"AXP":13410,"Ġassurances":13411,"privat":13412,"ructure":13413,"Ġglass":13414,"ĠHanson":13415,"ĠNicaraguan":13416,"practices":13417,"Ġguesstimated":13418,"habilitation":13419,"Ġweapons":13420,"Ġvulnerable":13421,"ĠPlessis":13422,"Ġredundancies":13423,"Ġfacilitate":13424,"Greenspan":13425,"David":13426,"CORRECTION":13427,"Ġrallied":13428,"Health":13429,"olesterol":13430,"ĠLIFFE":13431,"010":13432,"490":13433,"IW":13434,"NL":13435,"PE":13436,"SD":13437,"So":13438,"Sales":13439,"bed":13440,"coffee":13441,"gments":13442,"given":13443,"hop":13444,"iere":13445,"imental":13446,"lot":13447,"lightly":13448,"letter":13449,"million":13450,"nearly":13451,"path":13452,"xide":13453,"Ġtora":13454,"iny":13455,"instead":13456,"Ġavert":13457,"Ġailing":13458,"era":13459,"hearing":13460,"Ġscept":13461,"recommend":13462,"Ġtheire":13463,"Ġthethird":13464,"Ġthedevelopment":13465,"itts":13466,"Ġcitrus":13467,"arch":13468,"Ġpetrochemical":13469,"Ġble":13470,"Ġwomen":13471,"Ġfails":13472,"Ġfishing":13473,"ĠofR":13474,"ĠofU":13475,"Ġoft":13476,"Ġmores":13477,"Ġinconnection":13478,"Ġtomeet":13479,"Ġdiver":13480,"Ġdomestically":13481,"Ġanadditional":13482,"Ġanindicated":13483,"ician":13484,"utory":13485,"omet":13486,"ĠandB":13487,"Ġandm":13488,"Ġandnon":13489,"Ġanddevelopment":13490,"ĠandIndustry":13491,"Ġlent":13492,"stable":13493,"005":13494,"ĠTam":13495,"ĠTMOC":13496,"ĠCAR":13497,"ĠClerc":13498,"ĠRica":13499,"ĠACT":13500,"ĠAIR":13501,"ĠIvan":13502,"unn":13503,"unis":13504,"unemployment":13505,"thur":13506,"Ġdlrsto":13507,"Ġgiv":13508,"Ġgame":13509,"Ġ219":13510,"ĠBos":13511,"ĠBANK":13512,"ĠBanner":13513,"ĠBaird":13514,"research":13515,"igure":13516,"earle":13517,"Ġ1975":13518,"ĠPas":13519,"ĠPioneer":13520,"ĠNav":13521,"rome":13522,"Ġ335":13523,"ĠFre":13524,"ĠFro":13525,"ĠFidelity":13526,"quity":13527,"Ġitsshareholders":13528,"Ġwithholding":13529,"ĠDh":13530,"ĠDairy":13531,"ĠLIT":13532,"Ġyearand":13533,"ĠHesaid":13534,"Ġunidentified":13535,"Ġunprofitable":13536,"Ġunprecedented":13537,"emy":13538,"ricts":13539,"Ġnotified":13540,"Ġagents":13541,"ĠWales":13542,"agues":13543,"theastern":13544,"lto":13545,"ifferent":13546,"ella":13547,"opters":13548,"Ġresource":13549,"ughe":13550,"Ġspell":13551,"Ġstockbrokers":13552,"ightened":13553,"orsche":13554,"positive":13555,"Ġimminent":13556,"rowth":13557,"ĠBankof":13558,"proceeds":13559,"viate":13560,"Ġcompare":13561,"ĠKl":13562,"riton":13563,"iece":13564,"Ġnetincome":13565,"Ġassaying":13566,"Ġsuperv":13567,"awatt":13568,"Ġ08":13569,"ificance":13570,"Ġknew":13571,"forecasts":13572,"Ġthereg":13573,"ĠAntonio":13574,"Ġworkstations":13575,"Ġcutbacks":13576,"Ġcontractors":13577,"lobe":13578,"Ġsurged":13579,"echan":13580,"Ġtransition":13581,"156":13582,"Ġretro":13583,"Ġ224":13584,"Ġ231":13585,"Ġdirected":13586,"operative":13587,"ĠECGD":13588,"Ġfilings":13589,"Ġfirmly":13590,"Ġdrilled":13591,"Ġguess":13592,"Ġ289":13593,"Ġminimal":13594,"ustration":13595,"Ġsuggests":13596,"ĠFinanceMinistry":13597,"cogn":13598,"Ġobviously":13599,"ĠPrinting":13600,"111":13601,"Ġblue":13602,"evitch":13603,"Ġspecialist":13604,"easures":13605,"etroleos":13606,"Ġscre":13607,"Ġscientific":13608,"Ġrevise":13609,"Chinese":13610,"ICK":13611,"ICAGO":13612,"Ġsucceeds":13613,"ĠLeon":13614,"ĠLeahy":13615,"ĠInterim":13616,"Ġcompletedthe":13617,"Ġreviews":13618,"auction":13619,"ĠElectro":13620,"ĠFunding":13621,"economist":13622,"Under":13623,"Ġaccordingto":13624,"ĠNorc":13625,"consistent":13626,"Ġharder":13627,"space":13628,"ĠTransco":13629,"uxury":13630,"ĠMcK":13631,"Trading":13632,"Ġinsisted":13633,"Ġdifferential":13634,"Ġphone":13635,"Ġcope":13636,"Ġunderwritingcombined":13637,"falling":13638,"providing":13639,"urban":13640,"ĠWallis":13641,"engineering":13642,"Ġthreaten":13643,"Ġthreatening":13644,"Ġeveryone":13645,"Ġcomparisons":13646,"iroz":13647,"Ġprevented":13648,"ĠGrey":13649,"Ġidentical":13650,"askevitch":13651,"creditor":13652,"Ġdefinitely":13653,"Ġconnect":13654,"ĠMetropolitan":13655,"telephone":13656,"ĠItsaid":13657,"Agreement":13658,"Ġthebudget":13659,"Ġcalculating":13660,"ĠMacao":13661,"Ġexecuted":13662,"uharto":13663,"Ġimposing":13664,"Ġestablishment":13665,"generally":13666,"processing":13667,"Ġlayoffs":13668,"uccessfully":13669,"shipments":13670,"Ġplease":13671,"starting":13672,"Ġtape":13673,"ĠCorazon":13674,"applications":13675,"Ġwritedowns":13676,"different":13677,"Ġlicensed":13678,"Ġdisappointed":13679,"Ġreluctance":13680,"ircuits":13681,"GenCorp":13682,"handle":13683,"Ġcourts":13684,"Ġcontinuous":13685,"Ġhogs":13686,"Ġhonor":13687,"Ġpopularity":13688,"Ġsubsequently":13689,"Ġswitching":13690,"Ġplunge":13691,"HLBB":13692,"People":13693,"ĠRockwell":13694,"ĠAzpurua":13695,"Ġexactly":13696,"iangle":13697,"generation":13698,"Ġwords":13699,"ubscribed":13700,"ĠAttorney":13701,"Malaysian":13702,"ĠRuding":13703,"Ġriyals":13704,"levite":13705,"ĠAccounting":13706,"Ġjunior":13707,"Ġwithe":13708,"exercise":13709,"Ġrecipro":13710,"Partners":13711,"traditional":13712,"ĠRexnord":13713,"Lyons":13714,"Ġstretch":13715,"NASDAQ":13716,"ĠGabelli":13717,"ĠLicht":13718,"sharply":13719,"Ġconfrontation":13720,"ĠIslamic":13721,"ĠReebok":13722,"025":13723,"075":13724,"090":13725,"210":13726,"Apl":13727,"Be":13728,"Bal":13729,"EF":13730,"Econom":13731,"FT":13732,"GO":13733,"High":13734,"Home":13735,"Hughes":13736,"IDA":13737,"LB":13738,"La":13739,"Lambert":13740,"MT":13741,"Mart":13742,"Public":13743,"Petro":13744,"RT":13745,"Str":13746,"Social":13747,"Super":13748,"bas":13749,"bey":13750,"bearing":13751,"deter":13752,"dwin":13753,"hal":13754,"hound":13755,"hind":13756,"jet":13757,"join":13758,"kill":13759,"mons":13760,"miles":13761,"normal":13762,"oa":13763,"petroleum":13764,"squ":13765,"soft":13766,"uum":13767,"vices":13768,"zy":13769,"Ġ,":13770,"Ġtur":13771,"inancial":13772,"Ġaone":13773,"Ġawards":13774,"erver":13775,"health":13776,"Ġspl":13777,"reb":13778,"reli":13779,"reform":13780,"reorganization":13781,"Ġoats":13782,"enheimer":13783,"Ġcircuit":13784,"Ġpellets":13785,"Ġbinding":13786,"alc":13787,"alo":13788,"along":13789,"Ġfur":13790,"Ġmaster":13791,"Ġministries":13792,"Ġincoming":13793,"idan":13794,"idman":13795,"Ġtohave":13796,"Ġdipped":13797,"roto":13798,"Ġanim":13799,"utely":13800,"omed":13801,"etin":13802,"Ġlives":13803,"Ġlira":13804,"Ġreaffirm":13805,"Ġhike":13806,"ĠTim":13807,"ĠCz":13808,"ĠCountries":13809,"ĠCleveland":13810,"ĠRy":13811,"ĠRose":13812,"ĠRING":13813,"ĠRhod":13814,"ĠSony":13815,"ĠSecond":13816,"ĠAust":13817,"ĠADB":13818,"ĠIG":13819,"Ġbecom":13820,"Ġcommerce":13821,"ĠMaize":13822,"Ġstrict":13823,"Ġstems":13824,"ĠBlo":13825,"ĠBoyd":13826,"ĠBoren":13827,"ĠBetween":13828,"resigned":13829,"response":13830,"owell":13831,"Ġshake":13832,"pane":13833,"Ġ1972":13834,"ĠPA":13835,"ĠPipeline":13836,"ĠNZ":13837,"Ġ319":13838,"Ġ386":13839,"Ġconjunction":13840,"ĠInstruments":13841,"Ġitss":13842,"Ġwillcontinue":13843,"upgraded":13844,"Ġaspokesman":13845,"ĠJaneiro":13846,"ĠDE":13847,"ĠDam":13848,"ĠDakota":13849,"ĠDresdner":13850,"ĠLord":13851,"ewere":13852,"ĠGelco":13853,"Ġheading":13854,"abs":13855,"abama":13856,"acr":13857,"Ġ520":13858,"Ġ545":13859,"Ġnotbe":13860,"Ġbillions":13861,"ighth":13862,"essaid":13863,"ĠWind":13864,"ĠONE":13865,"thens":13866,"Ġ630":13867,"seat":13868,"Ġwhichwas":13869,"Ġ737":13870,"merch":13871,"prus":13872,"oku":13873,"aph":13874,"Ġintermediate":13875,"iston":13876,"Ġ870":13877,"Ġonebillion":13878,"Ġoutflows":13879,"issen":13880,"axter":13881,"ĠKanon":13882,"aved":13883,"ĠMarathon":13884,"liabilities":13885,"ĠHeinz":13886,"Ġapparel":13887,"angible":13888,"Ġofficialsaid":13889,"Ġ2016":13890,"weight":13891,"Ġassemb":13892,"ĠCommons":13893,"ĠVa":13894,"Ġameeting":13895,"assum":13896,"Ġwealth":13897,"Ġenhancement":13898,"extile":13899,"256":13900,"Ġ318":13901,"aterial":13902,"Ġ251":13903,"Ġ255":13904,"Ġ256":13905,"evertheless":13906,"Ġcapitalisation":13907,"ĠWestinghouse":13908,"Ġspecified":13909,"Ġunitof":13910,"Ġ1998":13911,"ĠSeattle":13912,"Ġoptional":13913,"Ġslash":13914,"808":13915,"Ġbasically":13916,"eryl":13917,"Ġ279":13918,"Ġdescrib":13919,"Ġsecuritiesofferings":13920,"852":13921,"Ġmerit":13922,"603":13923,"Ġflotation":13924,"Ġfarming":13925,"Ġpressed":13926,"Ġnegotiator":13927,"minute":13928,"ĠSouthmark":13929,"177":13930,"Stoltenberg":13931,"Ġinternationally":13932,"enne":13933,"143":13934,"Ġgrading":13935,"Ġ2007":13936,"Ġrealize":13937,"Ġrepresentation":13938,"Ġtraderssaid":13939,"Ġheadquartered":13940,"Ġthesystem":13941,"book":13942,"ormally":13943,"Ġpresentation":13944,"Ġposts":13945,"entsen":13946,"Ġ328":13947,"ĠSheikh":13948,"Ġpromissory":13949,"273":13950,"regulations":13951,"expectations":13952,"uckaby":13953,"ettled":13954,"ĠOrders":13955,"ĠVolume":13956,"398":13957,"setting":13958,"Airlines":13959,"Airbus":13960,"neider":13961,"Ġmonetarypolicy":13962,"iversified":13963,"roads":13964,"announce":13965,"Ġclasses":13966,"062":13967,"Ġsuggesting":13968,"Ġsuggestion":13969,"Ġchecks":13970,"Ġemerging":13971,"ĠMedia":13972,"Ġknows":13973,"capitalization":13974,"agnie":13975,"Ġinstal":13976,"Ġmultiple":13977,"complete":13978,"Ġhousehold":13979,"Ġviolating":13980,"Ġprotecting":13981,"543":13982,"dinand":13983,"Ġedge":13984,"ĠMetall":13985,"Ġeventual":13986,"longed":13987,"Ġrigid":13988,"worldwide":13989,"Ġcollapsed":13990,"Ġdesignated":13991,"Ġfocused":13992,"aguar":13993,"Switzerland":13994,"ĠCaisse":13995,"Ġdistributors":13996,"ĠPRICES":13997,"realistic":13998,"Ġsouthwest":13999,"ĠCheung":14000,"Ġentitle":14001,"Ġsucceeded":14002,"ĠWalsh":14003,"Ġwinds":14004,"ĠBecor":14005,"yrd":14006,"McDonnell":14007,"Carthy":14008,"etrading":14009,"Ġescort":14010,"ĠHawk":14011,"expand":14012,"Ġthrust":14013,"Ġexclusively":14014,"ĠLibor":14015,"BOE":14016,"slightly":14017,
[...]
